<unk>	0
<s>	0
</s>	0
<0x00>	0
<0x01>	0
<0x02>	0
<0x03>	0
<0x04>	0
<0x05>	0
<0x06>	0
<0x07>	0
<0x08>	0
<0x09>	0
<0x0A>	0
<0x0B>	0
<0x0C>	0
<0x0D>	0
<0x0E>	0
<0x0F>	0
<0x10>	0
<0x11>	0
<0x12>	0
<0x13>	0
<0x14>	0
<0x15>	0
<0x16>	0
<0x17>	0
<0x18>	0
<0x19>	0
<0x1A>	0
<0x1B>	0
<0x1C>	0
<0x1D>	0
<0x1E>	0
<0x1F>	0
<0x20>	0
<0x21>	0
<0x22>	0
<0x23>	0
<0x24>	0
<0x25>	0
<0x26>	0
<0x27>	0
<0x28>	0
<0x29>	0
<0x2A>	0
<0x2B>	0
<0x2C>	0
<0x2D>	0
<0x2E>	0
<0x2F>	0
<0x30>	0
<0x31>	0
<0x32>	0
<0x33>	0
<0x34>	0
<0x35>	0
<0x36>	0
<0x37>	0
<0x38>	0
<0x39>	0
<0x3A>	0
<0x3B>	0
<0x3C>	0
<0x3D>	0
<0x3E>	0
<0x3F>	0
<0x40>	0
<0x41>	0
<0x42>	0
<0x43>	0
<0x44>	0
<0x45>	0
<0x46>	0
<0x47>	0
<0x48>	0
<0x49>	0
<0x4A>	0
<0x4B>	0
<0x4C>	0
<0x4D>	0
<0x4E>	0
<0x4F>	0
<0x50>	0
<0x51>	0
<0x52>	0
<0x53>	0
<0x54>	0
<0x55>	0
<0x56>	0
<0x57>	0
<0x58>	0
<0x59>	0
<0x5A>	0
<0x5B>	0
<0x5C>	0
<0x5D>	0
<0x5E>	0
<0x5F>	0
<0x60>	0
<0x61>	0
<0x62>	0
<0x63>	0
<0x64>	0
<0x65>	0
<0x66>	0
<0x67>	0
<0x68>	0
<0x69>	0
<0x6A>	0
<0x6B>	0
<0x6C>	0
<0x6D>	0
<0x6E>	0
<0x6F>	0
<0x70>	0
<0x71>	0
<0x72>	0
<0x73>	0
<0x74>	0
<0x75>	0
<0x76>	0
<0x77>	0
<0x78>	0
<0x79>	0
<0x7A>	0
<0x7B>	0
<0x7C>	0
<0x7D>	0
<0x7E>	0
<0x7F>	0
<0x80>	0
<0x81>	0
<0x82>	0
<0x83>	0
<0x84>	0
<0x85>	0
<0x86>	0
<0x87>	0
<0x88>	0
<0x89>	0
<0x8A>	0
<0x8B>	0
<0x8C>	0
<0x8D>	0
<0x8E>	0
<0x8F>	0
<0x90>	0
<0x91>	0
<0x92>	0
<0x93>	0
<0x94>	0
<0x95>	0
<0x96>	0
<0x97>	0
<0x98>	0
<0x99>	0
<0x9A>	0
<0x9B>	0
<0x9C>	0
<0x9D>	0
<0x9E>	0
<0x9F>	0
<0xA0>	0
<0xA1>	0
<0xA2>	0
<0xA3>	0
<0xA4>	0
<0xA5>	0
<0xA6>	0
<0xA7>	0
<0xA8>	0
<0xA9>	0
<0xAA>	0
<0xAB>	0
<0xAC>	0
<0xAD>	0
<0xAE>	0
<0xAF>	0
<0xB0>	0
<0xB1>	0
<0xB2>	0
<0xB3>	0
<0xB4>	0
<0xB5>	0
<0xB6>	0
<0xB7>	0
<0xB8>	0
<0xB9>	0
<0xBA>	0
<0xBB>	0
<0xBC>	0
<0xBD>	0
<0xBE>	0
<0xBF>	0
<0xC0>	0
<0xC1>	0
<0xC2>	0
<0xC3>	0
<0xC4>	0
<0xC5>	0
<0xC6>	0
<0xC7>	0
<0xC8>	0
<0xC9>	0
<0xCA>	0
<0xCB>	0
<0xCC>	0
<0xCD>	0
<0xCE>	0
<0xCF>	0
<0xD0>	0
<0xD1>	0
<0xD2>	0
<0xD3>	0
<0xD4>	0
<0xD5>	0
<0xD6>	0
<0xD7>	0
<0xD8>	0
<0xD9>	0
<0xDA>	0
<0xDB>	0
<0xDC>	0
<0xDD>	0
<0xDE>	0
<0xDF>	0
<0xE0>	0
<0xE1>	0
<0xE2>	0
<0xE3>	0
<0xE4>	0
<0xE5>	0
<0xE6>	0
<0xE7>	0
<0xE8>	0
<0xE9>	0
<0xEA>	0
<0xEB>	0
<0xEC>	0
<0xED>	0
<0xEE>	0
<0xEF>	0
<0xF0>	0
<0xF1>	0
<0xF2>	0
<0xF3>	0
<0xF4>	0
<0xF5>	0
<0xF6>	0
<0xF7>	0
<0xF8>	0
<0xF9>	0
<0xFA>	0
<0xFB>	0
<0xFC>	0
<0xFD>	0
<0xFE>	0
<0xFF>	0
,	-3.48021
.	-3.81124
▁के	-4.03226
।	-4.06076
▁the	-4.08943
▁है	-4.19563
▁and	-4.54074
▁to	-4.5884
▁of	-4.69731
▁में	-4.73018
s	-4.73101
▁का	-4.77333
▁a	-4.83007
▁से	-4.95621
▁की	-4.97549
▁और	-5.05902
▁in	-5.0905
▁को	-5.11352
-	-5.13478
▁	-5.17697
▁हैं	-5.31658
▁is	-5.41843
▁एक	-5.44826
▁for	-5.53217
▁कि	-5.55425
▁पर	-5.57966
▁that	-5.70483
▁you	-5.71721
▁लिए	-5.73606
▁ने	-5.7834
▁with	-5.82717
▁I	-5.83667
’	-5.90387
▁on	-5.92642
▁(	-5.93874
▁भी	-5.97545
▁मा	-6.02855
'	-6.06584
▁।	-6.06638
▁it	-6.06677
▁कर	-6.07381
▁are	-6.09892
▁The	-6.13999
▁be	-6.15928
▁-	-6.18991
▁इस	-6.20077
▁नहीं	-6.20522
)	-6.21882
▁as	-6.24789
▁your	-6.25262
?	-6.30235
▁or	-6.35429
▁यह	-6.35614
▁किया	-6.39252
▁हो	-6.39948
▁have	-6.41906
▁ही	-6.43273
▁म	-6.43679
▁साथ	-6.4531
▁at	-6.45973
▁this	-6.47704
▁from	-6.47959
▁तो	-6.49524
▁was	-6.51923
▁can	-6.52222
t	-6.53243
▁by	-6.54626
▁will	-6.56008
▁करने	-6.58315
▁अउर	-6.64026
▁था	-6.64213
▁an	-6.65751
▁जो	-6.66113
▁गया	-6.66138
▁अपने	-6.70976
!	-6.71615
▁not	-6.72802
▁"	-6.73186
:	-6.76548
▁या	-6.78183
▁we	-6.78997
ing	-6.79333
न	-6.81385
▁करत	-6.81511
▁रहा	-6.85094
ों	-6.87644
▁सकत	-6.89145
▁has	-6.91397
▁all	-6.91504
▁आप	-6.91786
ी	-6.92853
▁रूप	-6.93097
▁ई	-6.93602
▁तक	-6.9611
ed	-6.98546
▁बाद	-6.98944
▁our	-7.01637
▁उपयोग	-7.02726
▁more	-7.04522
▁कहा	-7.0464
▁but	-7.04723
▁their	-7.05216
▁हम	-7.05584
▁न	-7.05974
▁जा	-7.07681
▁वह	-7.08172
▁करै	-7.08378
▁they	-7.09781
▁'	-7.111
▁one	-7.11607
▁रहे	-7.1269
d	-7.14533
▁दिया	-7.15592
▁कुछ	-7.18649
▁about	-7.20132
ा	-7.20291
▁my	-7.20651
▁A	-7.20706
▁which	-7.21878
▁हुए	-7.26503
▁2	-7.2667
▁समय	-7.27698
▁so	-7.27733
▁out	-7.27882
▁This	-7.27919
▁up	-7.28052
▁It	-7.28768
▁also	-7.29034
▁time	-7.29923
▁1	-7.33729
▁गई	-7.35386
▁थी	-7.3555
▁लेकिन	-7.35584
▁We	-7.36018
▁थे	-7.36364
▁गए	-7.36825
▁जात	-7.37312
▁रही	-7.39131
;	-7.39248
▁द्वारा	-7.39348
▁“	-7.39843
▁जब	-7.41446
▁In	-7.41791
▁काम	-7.42268
/	-7.42794
▁do	-7.44197
▁करते	-7.44726
"	-7.44843
▁his	-7.46505
▁अब	-7.46618
▁पहले	-7.46943
▁करना	-7.48693
▁he	-7.48987
▁who	-7.49388
▁उनके	-7.50168
▁if	-7.50212
▁क	-7.50958
▁3	-7.51081
▁been	-7.51314
▁when	-7.51486
▁other	-7.51631
▁like	-7.51664
▁4	-7.52416
र	-7.52699
▁मैं	-7.5421
▁अपनी	-7.5442
▁इसके	-7.55221
▁what	-7.55557
▁करें	-7.55571
▁वाले	-7.56309
▁जाता	-7.56974
▁कोई	-7.57038
m	-7.57272
▁get	-7.58878
▁तरह	-7.59176
▁उन्होंने	-7.59359
▁कम	-7.59386
▁there	-7.59448
▁some	-7.59664
▁new	-7.60215
▁सकता	-7.60254
▁नाम	-7.60941
▁them	-7.61073
▁any	-7.61324
▁कय	-7.61544
▁were	-7.62446
▁would	-7.62879
▁सबसे	-7.62887
ता	-7.63967
▁व	-7.64925
▁इन	-7.65037
er	-7.65584
▁होने	-7.65755
▁किसी	-7.66365
▁had	-7.66474
▁just	-7.66485
▁into	-7.66704
▁पास	-7.6706
▁बात	-7.67442
▁संख्या	-7.67521
▁बहुत	-7.67861
क	-7.67878
▁वे	-7.67935
ो	-7.6796
े	-7.68239
▁अधिक	-7.68702
▁दो	-7.69422
re	-7.69597
▁फिर	-7.69598
ly	-7.70101
▁सकते	-7.712
▁make	-7.72166
▁हर	-7.72938
▁कई	-7.72971
▁अगर	-7.73298
▁होता	-7.73431
▁हुआ	-7.73522
▁than	-7.73608
▁क्या	-7.73847
▁You	-7.73862
▁दी	-7.74272
▁शामिल	-7.75128
के	-7.75472
▁over	-7.75755
▁me	-7.76077
▁how	-7.76224
▁If	-7.7658
▁5	-7.76686
▁करके	-7.77338
▁उ	-7.77408
▁its	-7.77549
▁people	-7.77752
ं	-7.78108
▁लोगों	-7.78445
▁may	-7.7914
▁work	-7.79666
▁ये	-7.80542
▁only	-7.81064
e	-7.813
▁दिन	-7.81544
y	-7.81789
▁कारण	-7.81908
▁सभी	-7.82065
▁use	-7.82221
▁भारत	-7.82817
▁most	-7.83502
▁बार	-7.83845
▁बारे	-7.84081
▁10	-7.84122
▁first	-7.84609
▁no	-7.84758
▁well	-7.84794
▁बीच	-7.8511
▁us	-7.85169
▁कीन	-7.85226
▁her	-7.85731
▁–	-7.86519
▁करता	-7.88113
▁these	-7.89251
का	-7.89338
▁साल	-7.89482
▁.	-7.89609
▁लोग	-7.90319
▁आ	-7.90403
▁need	-7.90492
म	-7.91458
ल	-7.91864
a	-7.91944
▁very	-7.92458
▁सरकार	-7.92602
ने	-7.93498
▁हुई	-7.94021
S	-7.94261
▁अन्य	-7.94385
▁पुलिस	-7.94842
▁तथा	-7.94941
्स	-7.95474
▁होत	-7.95984
▁many	-7.97623
▁होगा	-7.97772
▁प्राप्त	-7.9807
▁through	-7.98187
▁ह	-7.98424
स	-7.98566
).	-7.99227
▁क्षेत्र	-7.99846
▁उसके	-7.9993
▁प्रकार	-8.00478
त	-8.00712
▁two	-8.00851
▁way	-8.01017
ः	-8.01173
▁सब	-8.02666
▁उन्हें	-8.02769
”	-8.03137
▁help	-8.04077
▁कोड	-8.04278
▁years	-8.05077
▁देश	-8.05183
ve	-8.05227
▁चाहिए	-8.0531
▁एवं	-8.05935
▁best	-8.06961
▁सवाल	-8.07654
▁जानकारी	-8.07836
▁उस	-8.07849
▁good	-8.08612
▁then	-8.08854
▁year	-8.09401
▁लेकर	-8.1007
▁know	-8.10476
ना	-8.1079
▁शुरू	-8.11491
▁see	-8.11866
▁such	-8.12107
▁दौरान	-8.12905
▁बताया	-8.12934
▁should	-8.13113
▁where	-8.13139
▁नाहीं	-8.13596
▁मे	-8.13597
▁back	-8.14159
▁घर	-8.14351
▁after	-8.14498
▁much	-8.14693
▁now	-8.14697
▁could	-8.14759
▁दोनों	-8.1523
▁मान	-8.15309
▁जवाब	-8.16082
▁राज्य	-8.16119
▁उसे	-8.16458
▁जाने	-8.16623
in	-8.16672
▁day	-8.16716
▁आज	-8.17159
▁औ	-8.17625
▁जैसे	-8.17729
ll	-8.17767
▁He	-8.18088
▁गा	-8.18238
▁even	-8.18256
▁home	-8.19169
▁तब	-8.19193
▁जाय	-8.19407
▁want	-8.19672
▁take	-8.1969
▁said	-8.20595
▁For	-8.21334
▁यदि	-8.2157
▁होती	-8.21609
▁सिंह	-8.21764
▁because	-8.21851
▁अलग	-8.21891
▁लिया	-8.21971
▁कुल	-8.22457
▁आधार	-8.22546
से	-8.2297
▁information	-8.23033
▁वाक्य	-8.23324
▁&	-8.23377
▁used	-8.23482
▁great	-8.2358
▁उत्तर	-8.24177
▁आपको	-8.24665
▁कैसे	-8.2504
),	-8.2523
r	-8.25388
▁find	-8.25449
▁टीम	-8.26171
▁अ	-8.26283
को	-8.26441
▁she	-8.26854
▁इसे	-8.27053
th	-8.27663
▁वाली	-8.27701
▁S	-8.28072
▁उनकी	-8.28239
▁made	-8.28395
॥	-8.2843
▁ए	-8.28697
▁तीन	-8.29011
▁प्रदान	-8.29012
▁right	-8.29617
▁कार्य	-8.29833
▁ओर	-8.29959
▁here	-8.30279
▁business	-8.3059
▁यहां	-8.30926
▁being	-8.30961
▁मदद	-8.30995
▁those	-8.31245
▁किए	-8.31293
▁उनका	-8.31597
▁before	-8.31726
▁केवल	-8.31817
n	-8.31818
की	-8.31863
▁पता	-8.32104
▁उदाहरण	-8.32144
▁)	-8.32652
▁ले	-8.32831
▁go	-8.33009
▁चरण	-8.33579
कर	-8.33692
▁ज्यादा	-8.33696
▁ऐसे	-8.33862
es	-8.33922
▁व्यक्ति	-8.34557
▁And	-8.34587
▁स	-8.34693
▁life	-8.34837
o	-8.34892
▁don	-8.34964
▁20	-8.35004
▁each	-8.35805
▁अनुसार	-8.35922
▁कै	-8.3616
▁प्रति	-8.36424
▁दे	-8.36641
▁फिल्म	-8.36762
al	-8.36969
2	-8.37
▁स्वास्थ्य	-8.37037
▁मामले	-8.37632
▁There	-8.37798
▁परिवार	-8.38276
िंग	-8.38524
▁विकास	-8.387
▁As	-8.39447
ब	-8.39487
▁own	-8.40094
▁देने	-8.40919
▁भारतीय	-8.41124
▁तौ	-8.41335
▁12	-8.41362
▁6	-8.41422
▁ऐसा	-8.41457
▁world	-8.41498
▁?	-8.41781
▁बना	-8.41809
▁जीवन	-8.42801
▁high	-8.42935
i	-8.42942
▁around	-8.4323
▁while	-8.43425
▁B	-8.43676
▁आपके	-8.43678
A	-8.44253
▁इसलिए	-8.44368
व	-8.44424
▁डेटा	-8.44764
▁स्थिति	-8.45097
▁But	-8.45118
▁अलावा	-8.45699
ए	-8.45772
▁really	-8.45997
▁जवन	-8.46103
ते	-8.46324
ई	-8.46593
▁सही	-8.46855
▁अपना	-8.47336
▁different	-8.4794
▁यहाँ	-8.47964
▁जारी	-8.4802
प	-8.48569
ज	-8.48622
▁They	-8.48727
▁सी	-8.48958
▁off	-8.49425
▁So	-8.49477
ि	-8.49789
▁होइ	-8.49862
▁down	-8.5016
▁part	-8.50243
▁जरूरत	-8.50486
▁To	-8.50618
▁long	-8.50748
▁पूरा	-8.50859
▁प्रदेश	-8.51209
▁C	-8.51568
▁15	-8.5158
▁last	-8.51628
▁जाती	-8.5168
▁every	-8.51812
▁both	-8.51814
▁using	-8.52133
▁अऊर	-8.52323
▁look	-8.52434
▁same	-8.52508
▁मुख्य	-8.5257
▁think	-8.52716
▁free	-8.52912
▁पूर्व	-8.5311
▁पानी	-8.53115
▁service	-8.5331
▁होते	-8.53331
▁place	-8.5363
▁between	-8.53848
▁सूची	-8.5394
or	-8.54051
▁जिसमें	-8.54122
C	-8.54245
▁दूसरे	-8.54593
▁available	-8.54662
▁जाएगा	-8.54836
▁इसी	-8.5511
▁still	-8.55434
▁वर्ष	-8.55445
▁जी	-8.55526
जी	-8.55644
▁7	-8.55692
▁going	-8.56109
▁P	-8.56631
▁काफी	-8.56683
▁दिल्ली	-8.56993
▁खातिर	-8.57008
▁उन	-8.5714
▁जांच	-8.5724
▁love	-8.57359
▁आगे	-8.57804
▁सकती	-8.58189
▁D	-8.58658
▁too	-8.58698
I	-8.58778
▁company	-8.5881
▁0	-8.59221
▁आदि	-8.59298
▁भाग	-8.59485
▁experience	-8.59552
▁30	-8.59774
▁वहीं	-8.598
ers	-8.60024
▁बी	-8.60166
▁system	-8.60259
▁इससे	-8.60554
▁What	-8.6057
▁:	-8.60604
...	-8.607
▁data	-8.60773
▁मुझे	-8.60836
▁निम्नलिखित	-8.61294
▁पूरी	-8.6135
▁ध्यान	-8.61358
▁विचार	-8.61545
▁यहि	-8.61995
▁प	-8.62048
▁द	-8.62342
▁set	-8.62576
▁सामने	-8.62577
▁When	-8.62863
▁under	-8.63299
▁जहां	-8.63464
▁क्योंकि	-8.63698
▁few	-8.637
▁am	-8.63821
▁स्थान	-8.64062
D	-8.64969
▁खिलाफ	-8.65037
▁provide	-8.65191
▁number	-8.65271
▁लिये	-8.65294
▁होगी	-8.65483
▁दें	-8.656
▁इसका	-8.65677
▁बनाने	-8.65873
▁always	-8.6594
▁शब्द	-8.66024
▁New	-8.66247
▁M	-8.66297
▁उसकी	-8.67007
▁मिल	-8.67113
▁8	-8.67203
▁water	-8.67359
▁including	-8.67372
▁him	-8.67392
▁आपका	-8.67473
▁things	-8.6755
▁E	-8.67858
▁services	-8.67968
▁1.	-8.68478
▁14	-8.68685
▁during	-8.68736
▁come	-8.68918
com	-8.6909
▁T	-8.69224
▁विभाग	-8.69298
▁समस्या	-8.69393
▁without	-8.69467
▁मंत्री	-8.69611
▁लगा	-8.69716
▁three	-8.69837
▁family	-8.69847
▁अच्छा	-8.69879
ित	-8.70038
▁team	-8.70158
▁२	-8.70227
▁जबकि	-8.70251
▁support	-8.70292
▁little	-8.70842
▁better	-8.70984
▁वो	-8.71231
▁पार्टी	-8.71354
▁must	-8.71476
▁बाहर	-8.71996
▁F	-8.72102
▁दिए	-8.72182
▁विभिन्न	-8.72538
री	-8.72703
1	-8.72705
▁sure	-8.73019
▁बड़े	-8.73028
▁did	-8.73034
▁18	-8.73167
▁does	-8.733
ग	-8.73614
▁बन	-8.73654
०	-8.73793
में	-8.73887
▁Our	-8.74021
▁चार	-8.74415
▁श्री	-8.74606
▁बड़ी	-8.74699
▁बिना	-8.74708
▁हौं	-8.74904
▁नई	-8.74951
▁हूँ	-8.75081
▁अभी	-8.75145
▁हूं	-8.75227
▁तैयार	-8.7523
▁area	-8.75384
▁online	-8.75389
सी	-8.7544
▁able	-8.75623
▁विशेष	-8.75734
▁end	-8.75871
▁re	-8.75914
g	-8.76007
▁काहे	-8.76021
य	-8.76022
B	-8.76279
▁जाना	-8.7642
▁कांग्रेस	-8.76422
▁9	-8.76444
▁important	-8.76614
▁प्रत्येक	-8.77035
▁All	-8.77193
▁इस्तेमाल	-8.77557
▁next	-8.77826
▁शहर	-8.77901
▁अंत	-8.77904
▁top	-8.78093
▁बड़ा	-8.78186
ियों	-8.78406
▁4.	-8.78433
▁/	-8.78641
▁website	-8.78664
नी	-8.78783
▁करती	-8.78818
वा	-8.79042
▁प्रक्रिया	-8.79283
▁lot	-8.79485
▁small	-8.79626
ट	-8.79698
▁१	-8.79708
▁X	-8.79757
▁माध्यम	-8.79957
▁something	-8.79992
▁U	-8.80318
▁full	-8.80358
▁within	-8.80596
▁वाला	-8.80711
▁another	-8.80753
▁!	-8.80766
▁इसमें	-8.80864
▁process	-8.809
▁जाते	-8.80917
▁आई	-8.81198
▁give	-8.81421
▁पिछले	-8.81878
▁गणना	-8.82052
या	-8.8229
▁योजना	-8.82421
▁जगह	-8.82423
▁भाषा	-8.82522
▁2.	-8.82529
▁design	-8.82594
▁वापस	-8.82646
▁might	-8.82786
▁महत्वपूर्ण	-8.82994
▁found	-8.83011
▁उसने	-8.83051
ड	-8.8333
▁quality	-8.83483
▁चुनाव	-8.83761
on	-8.8388
▁‘	-8.84093
▁धर्म	-8.84153
to	-8.84168
▁लगभग	-8.84205
▁कुमार	-8.84281
▁K	-8.84729
िक	-8.84732
▁स्थित	-8.84931
▁कभी	-8.85089
▁With	-8.85416
▁देत	-8.85598
▁क्स	-8.85893
ह	-8.85957
▁order	-8.86365
ती	-8.86503
▁site	-8.86649
▁keep	-8.86678
▁पहिले	-8.8675
▁since	-8.86888
▁निर्माण	-8.86929
▁नए	-8.86955
▁कंपनी	-8.87063
▁दुनिया	-8.87153
k	-8.87178
▁11	-8.87255
▁कौन	-8.87287
▁हालांकि	-8.87322
▁R	-8.87438
▁मन	-8.87779
▁आने	-8.88435
▁G	-8.88479
▁शरीर	-8.8869
▁होना	-8.88917
▁She	-8.89003
▁That	-8.89399
▁कउनौ	-8.89625
▁days	-8.89664
▁जिस	-8.89706
▁उसका	-8.89709
▁सेट	-8.89837
▁परिणाम	-8.90002
▁मिला	-8.9002
▁working	-8.90093
▁आपन	-8.90105
▁मीडिया	-8.90268
3	-8.90437
▁25	-8.90579
द	-8.90703
▁इनपुट	-8.90711
▁start	-8.90927
ें	-8.91102
▁24	-8.91176
▁हमें	-8.91259
▁today	-8.91388
ओ	-8.91393
▁वर्तमान	-8.91416
x	-8.91622
▁offer	-8.91642
▁game	-8.91814
▁50	-8.9198
▁बता	-8.92352
able	-8.92477
▁products	-8.92653
▁वर्ग	-8.92878
▁book	-8.93
▁local	-8.93043
▁स्तर	-8.93079
▁never	-8.93117
▁ठीक	-8.93169
▁per	-8.93221
c	-8.93509
▁रुपये	-8.93697
▁looking	-8.93911
▁अनुभव	-8.93966
▁मेरे	-8.94032
▁making	-8.94035
▁No	-8.94052
▁महिला	-8.94075
▁H	-8.94276
▁school	-8.94425
▁घटना	-8.94498
▁हमारे	-8.94522
▁de	-8.94555
▁लए	-8.94789
▁students	-8.94899
▁care	-8.94941
▁अर्थ	-8.95023
▁कार्यक्रम	-8.95069
▁ऐसी	-8.95279
▁फ़ंक्शन	-8.9547
▁L	-8.95807
▁These	-8.95956
▁प्रमुख	-8.9599
▁feel	-8.96062
▁say	-8.96334
▁मूल	-8.96473
▁विधि	-8.9657
▁कइ	-8.96663
▁children	-8.9677
▁100	-8.96783
▁कोशिश	-8.97068
▁पै	-8.97099
▁वीडियो	-8.97301
▁जे	-8.97395
▁जेहिमा	-8.97398
▁संबंध	-8.97419
रा	-8.97556
▁change	-8.97583
T	-8.97624
▁जिसके	-8.97644
▁दूर	-8.97844
अलग	-8.97846
▁करा	-8.97866
▁विषय	-8.9792
▁सुरक्षा	-8.97989
▁needs	-8.98124
▁च	-8.98125
▁3.	-8.98212
▁खेल	-8.98219
▁week	-8.98374
▁N	-8.98382
▁My	-8.98451
▁show	-8.98573
▁लाख	-8.98593
▁देखा	-8.98597
b	-8.98888
▁चल	-8.98968
▁रात	-8.99107
▁विकल्प	-8.99237
▁प्रभाव	-8.99335
▁money	-8.99397
▁समाधान	-8.99587
▁एक्स	-8.99621
ली	-8.99736
▁सुनिश्चित	-8.99765
▁case	-8.9996
▁३	-9.00088
▁ज्ञान	-9.00241
▁market	-9.00684
▁easy	-9.00826
▁यहिसे	-9.00889
▁लागत	-9.01038
▁दर्ज	-9.01085
▁सेवा	-9.01135
▁पहचान	-9.01224
M	-9.01241
▁got	-9.01327
▁प्रदर्शन	-9.01436
en	-9.0146
▁J	-9.01494
▁तुलना	-9.0179
▁project	-9.01848
▁इ	-9.01975
मा	-9.02084
▁car	-9.02146
इ	-9.02277
▁course	-9.02411
▁इसकी	-9.02469
▁un	-9.02533
▁मतलब	-9.02565
▁ऊपर	-9.02603
▁i	-9.02615
▁On	-9.0271
▁put	-9.02979
▁हाथ	-9.03018
▁ल	-9.03276
▁लागू	-9.03432
▁again	-9.03449
man	-9.03706
▁दिनों	-9.03872
▁away	-9.03939
G	-9.04049
▁समूह	-9.04083
▁शिक्षा	-9.04472
▁स्ट्रिंग	-9.04546
▁देते	-9.04672
(	-9.04731
▁तत्व	-9.04755
▁possible	-9.048
▁large	-9.0481
▁अधिकारी	-9.04829
▁state	-9.04941
▁At	-9.05045
▁सीमा	-9.05046
▁food	-9.05083
▁health	-9.05141
▁पी	-9.05147
▁आवश्यकता	-9.05204
▁जनता	-9.05336
▁त	-9.05344
▁संबंधित	-9.05505
▁अध्यक्ष	-9.05527
▁p	-9.05568
▁गये	-9.05575
▁together	-9.05663
K	-9.05734
."	-9.05779
▁How	-9.05874
▁जहाँ	-9.06015
▁हल	-9.06081
▁आम	-9.06101
▁create	-9.064
▁मैच	-9.06401
▁बंद	-9.06458
▁प्रतिक्रिया	-9.06518
▁दूसरी	-9.066
▁तहत	-9.06822
▁real	-9.06951
▁often	-9.06986
▁second	-9.07005
▁कइके	-9.07165
▁post	-9.07317
▁open	-9.0733
▁स्कूल	-9.07468
▁until	-9.07477
▁समान	-9.07708
▁program	-9.07755
▁16	-9.07936
▁रंग	-9.07992
▁सरणी	-9.08052
▁बस	-9.08273
▁रहने	-9.08296
▁One	-9.08378
P	-9.08387
▁room	-9.08451
▁based	-9.08541
▁ताकि	-9.08676
▁निर्धारित	-9.08754
▁name	-9.08939
ला	-9.09015
▁करोड़	-9.09233
l	-9.09262
च	-9.09266
▁देख	-9.09311
▁group	-9.09331
▁पहली	-9.09371
▁आवश्यक	-9.09458
F	-9.09506
▁point	-9.09651
▁include	-9.09817
▁community	-9.09878
p	-9.1002
▁सामान्य	-9.10063
▁नीचे	-9.10084
4	-9.1009
▁प्र	-9.10224
▁सा	-9.10227
▁person	-9.10327
▁खुद	-9.10424
▁यात्रा	-9.10432
▁call	-9.10539
▁why	-9.10557
▁मॉडल	-9.10627
▁power	-9.10934
ै	-9.10939
▁तरफ	-9.10983
▁पैदा	-9.11091
and	-9.11131
▁देता	-9.11174
▁having	-9.11197
▁side	-9.11384
▁ना	-9.11421
▁ली	-9.11654
an	-9.11664
▁against	-9.11671
▁play	-9.11764
▁यही	-9.11804
▁page	-9.11807
▁आया	-9.11892
▁जिससे	-9.11972
▁नही	-9.12218
▁उच्च	-9.12452
▁जेहिसे	-9.12697
▁research	-9.12721
▁level	-9.12747
▁कल्याण	-9.12748
▁13	-9.12938
▁डी	-9.13212
▁माना	-9.13456
▁ऊ	-9.13482
▁भाजपा	-9.13493
▁17	-9.1352
▁मिली	-9.1382
▁40	-9.1389
▁O	-9.13898
▁old	-9.13989
▁f	-9.14097
▁चला	-9.1427
▁less	-9.14366
▁विश्व	-9.14513
▁product	-9.14515
▁राम	-9.14711
▁become	-9.14801
▁लेने	-9.14855
h	-9.14968
▁मोदी	-9.15019
▁thing	-9.1502
▁लिखा	-9.15214
▁विशिष्ट	-9.15235
▁जउन	-9.15243
▁कार	-9.15284
▁घंटे	-9.15341
▁योग	-9.15369
ओं	-9.15404
▁मुख्यमंत्री	-9.15564
▁कोरोना	-9.15862
▁जिला	-9.15973
▁live	-9.16226
▁done	-9.16277
▁V	-9.16306
▁रखा	-9.16367
▁along	-9.1641
▁भर	-9.16419
▁public	-9.16487
▁times	-9.16524
श	-9.16571
▁read	-9.1665
▁गांव	-9.16702
▁However	-9.16755
▁नजर	-9.16856
▁दर	-9.16933
▁प्रभावित	-9.16995
▁price	-9.17057
▁कहते	-9.1709
▁list	-9.17253
▁means	-9.17439
▁पहुंच	-9.17441
▁पांच	-9.17688
सा	-9.17845
ले	-9.17945
▁[	-9.18196
▁अंतिम	-9.1823
▁God	-9.18332
▁समाज	-9.18365
▁करब	-9.18422
▁house	-9.18429
▁access	-9.18441
▁दुइ	-9.18492
▁टी	-9.18538
▁After	-9.18572
▁सके	-9.18603
▁समीकरण	-9.18644
▁तौर	-9.18814
▁लगे	-9.18863
▁सामग्री	-9.191
▁big	-9.19209
▁नया	-9.19256
▁development	-9.1926
▁रिपोर्ट	-9.19272
▁करेंगे	-9.19315
▁हमका	-9.19359
▁event	-9.19381
▁करीब	-9.19384
the	-9.19576
▁मिनट	-9.19622
▁पाठ	-9.19741
▁light	-9.19864
▁—	-9.19882
▁मौजूद	-9.19929
W	-9.1993
▁University	-9.19995
▁job	-9.19996
▁form	-9.20094
▁पूरे	-9.20193
▁लगातार	-9.20387
▁Do	-9.20433
▁hard	-9.20433
▁enough	-9.20434
▁body	-9.20736
▁several	-9.20747
▁already	-9.20772
▁चाही	-9.20897
▁जाए	-9.20952
▁नगर	-9.20967
▁सु	-9.21116
▁य	-9.2113
▁makes	-9.21209
▁social	-9.21321
▁उत्पाद	-9.21322
ीय	-9.21326
▁मांग	-9.21342
▁across	-9.21427
▁स्पष्ट	-9.21701
▁केंद्र	-9.21709
▁जिले	-9.21735
▁space	-9.22017
ण	-9.22062
▁प्रयास	-9.22185
▁राष्ट्रीय	-9.2242
▁सुधार	-9.22455
▁personal	-9.22473
up	-9.226
▁४	-9.22781
▁comes	-9.22854
▁अतिरिक्त	-9.22861
पुर	-9.22954
▁उसी	-9.22997
▁अमेरिका	-9.23034
▁खान	-9.23176
▁try	-9.23254
▁आए	-9.23316
▁व्यवस्था	-9.23327
▁e	-9.23363
▁प्रश्न	-9.23424
▁getting	-9.23462
▁left	-9.23572
E	-9.23591
▁लाभ	-9.23617
▁ever	-9.23638
▁रह	-9.23645
▁others	-9.2371
▁contact	-9.23717
▁line	-9.2374
▁आपकी	-9.2384
▁एन	-9.23844
,”	-9.23919
▁तर्क	-9.2403
▁शुरुआत	-9.2407
▁नेता	-9.24137
िया	-9.2422
▁पद	-9.24233
▁स्थापित	-9.2424
▁ऑफ	-9.24287
▁चर	-9.24301
▁An	-9.24307
st	-9.24456
▁range	-9.2458
अ	-9.24642
▁कार्रवाई	-9.24703
▁किहिन	-9.24862
▁डॉ	-9.24885
▁संदर्भ	-9.24886
▁सहित	-9.24952
▁बेहतर	-9.25081
▁पा	-9.25131
▁hand	-9.2522
▁उप	-9.25262
▁cost	-9.25274
▁plan	-9.25358
▁हाल	-9.25367
▁हजार	-9.2543
▁वजह	-9.25464
▁वहां	-9.25483
▁जिसे	-9.25491
▁जल	-9.2551
▁run	-9.25722
▁future	-9.25784
▁पीछे	-9.25865
▁22	-9.25882
पर	-9.25926
▁पायथन	-9.25927
▁उत्पन्न	-9.25972
▁control	-9.2601
▁करेगा	-9.26013
▁ब	-9.26339
▁क्यों	-9.26342
▁संभावना	-9.26373
▁non	-9.26448
▁below	-9.2657
▁लेख	-9.26585
▁भीतर	-9.2661
▁कहना	-9.26749
ic	-9.26819
▁60	-9.26829
V	-9.2688
▁चाहत	-9.26941
▁Re	-9.26959
▁बच्चों	-9.27104
▁country	-9.27371
▁example	-9.2755
▁मैंने	-9.27689
▁जीत	-9.27894
▁ख	-9.27986
▁चाहते	-9.28122
▁मंत्रालय	-9.28453
▁बजे	-9.28475
▁नंबर	-9.28532
R	-9.28631
▁Your	-9.28684
▁राजा	-9.28685
▁रन	-9.28807
▁अच्छी	-9.28818
N	-9.2883
L	-9.28901
▁बनाए	-9.2911
▁होकर	-9.29169
▁let	-9.2917
▁W	-9.29214
▁city	-9.29356
▁बढ़	-9.29575
▁perfect	-9.2961
▁सूचना	-9.29653
▁four	-9.29682
▁मौत	-9.29699
—	-9.29881
H	-9.30178
▁पालन	-9.3027
▁offers	-9.30326
▁बल्कि	-9.3036
f	-9.3036
▁least	-9.3036
▁doing	-9.30442
▁मामला	-9.3056
▁पत्र	-9.30638
ation	-9.30661
▁past	-9.30768
▁विश्लेषण	-9.30783
▁तुम	-9.30897
ity	-9.30922
िन	-9.30943
▁far	-9.30978
▁special	-9.31027
▁add	-9.31104
रे	-9.31133
▁अनुवाद	-9.31151
▁सदस्य	-9.31172
▁सोशल	-9.31202
▁learn	-9.31206
5	-9.31223
▁industry	-9.31301
▁चर्चा	-9.31397
फ	-9.31542
▁आदेश	-9.31677
▁share	-9.3177
▁संयुक्त	-9.31845
्य	-9.31869
▁companies	-9.31901
▁यहिके	-9.31927
मे	-9.32161
▁तरीका	-9.32188
▁बदल	-9.32199
▁hours	-9.32291
▁video	-9.32302
▁value	-9.32363
▁started	-9.32477
▁उपलब्ध	-9.32508
▁नामक	-9.32592
▁पिता	-9.32709
▁प्रतिशत	-9.32805
▁नीति	-9.32875
▁जइसे	-9.32965
▁night	-9.3307
▁check	-9.3313
▁हिस्सा	-9.33135
▁short	-9.33323
ति	-9.33426
▁bit	-9.33599
▁21	-9.33642
▁वस्तु	-9.33662
▁members	-9.33724
▁महीने	-9.33789
▁called	-9.33818
▁करे	-9.33916
▁देखने	-9.33945
▁once	-9.33951
▁बनाया	-9.3397
▁आकार	-9.34034
▁प्रधानमंत्री	-9.34121
▁low	-9.34136
▁वि	-9.34163
▁फंक्शन	-9.34302
▁though	-9.34671
▁बैंक	-9.34698
▁राशि	-9.34726
▁content	-9.34772
▁सो	-9.34798
▁लाल	-9.3485
▁fact	-9.34873
▁जाएगी	-9.34879
▁current	-9.34901
ू	-9.34956
The	-9.3499
▁fun	-9.35004
ness	-9.35156
वी	-9.3528
▁आरोप	-9.35334
▁features	-9.35366
▁technology	-9.35454
▁actually	-9.35473
▁music	-9.35503
▁सं	-9.35595
▁थीं	-9.35727
▁संरचना	-9.35734
▁क्षमता	-9.35781
]	-9.35849
▁minutes	-9.35934
▁didn	-9.36187
▁समझ	-9.36237
▁problem	-9.36358
▁अनुमति	-9.36414
▁doesn	-9.36738
▁पसंद	-9.36881
▁type	-9.36895
▁please	-9.36985
▁रखने	-9.37059
डी	-9.37298
▁customers	-9.37305
▁युद्ध	-9.37668
▁उपयोगकर्ता	-9.37744
▁अस्पताल	-9.3777
म्	-9.37876
▁won	-9.37908
▁समीक्षा	-9.37971
▁man	-9.38157
▁above	-9.38172
▁complete	-9.38313
▁जरूरी	-9.38356
▁visit	-9.38356
▁बयान	-9.38375
▁pay	-9.38437
एं	-9.38489
us	-9.38514
▁ग	-9.38588
▁भूमिका	-9.38609
▁उत्पादन	-9.3863
▁५	-9.38746
▁results	-9.38853
▁राज	-9.38865
▁story	-9.38879
▁सिर्फ	-9.38879
▁शादी	-9.38984
▁उद्देश्य	-9.39043
▁everything	-9.39232
ख	-9.39253
▁St	-9.39468
ंग	-9.3959
▁सुबह	-9.39651
▁आउटपुट	-9.39839
▁अंदर	-9.40068
▁शक्ति	-9.40071
▁भाई	-9.4008
गा	-9.40123
▁गति	-9.40152
▁building	-9.40234
▁होंगे	-9.4044
▁जन्म	-9.40545
▁training	-9.40561
▁आर	-9.40567
co	-9.40841
▁छात्र	-9.40945
▁questions	-9.4101
▁months	-9.41022
▁million	-9.41089
▁due	-9.41103
▁वा	-9.41137
▁professional	-9.41149
▁known	-9.41224
▁understand	-9.4131
▁given	-9.41331
▁सेना	-9.41474
u	-9.41529
ु	-9.41712
▁चुके	-9.41774
▁yet	-9.41842
▁फोन	-9.41962
▁simple	-9.42022
▁provides	-9.4203
▁प्रतिनिधित्व	-9.42134
▁प्रिंट	-9.42356
▁single	-9.42358
▁भावना	-9.42384
▁early	-9.4239
▁season	-9.42462
▁आर्थिक	-9.42486
z	-9.42551
▁buy	-9.42596
it	-9.42651
▁हासिल	-9.42659
▁मुताबिक	-9.42714
▁बनावै	-9.42796
▁बैठक	-9.428
▁various	-9.42817
▁कमी	-9.42939
▁property	-9.43125
▁2018	-9.43167
▁management	-9.43404
▁air	-9.4342
▁गलत	-9.43465
▁लक्ष्य	-9.43472
▁सामाजिक	-9.43536
▁beautiful	-9.43752
▁mind	-9.43757
▁kind	-9.43784
▁दिखाई	-9.43811
▁जिसका	-9.43933
▁मूल्य	-9.43941
▁शो	-9.43958
▁कह	-9.44047
▁याद	-9.44178
▁हमेशा	-9.44178
▁19	-9.4423
▁size	-9.44384
▁संभावित	-9.44478
▁government	-9.44642
▁शर्मा	-9.44704
▁2019	-9.44724
▁head	-9.44833
▁समर्थन	-9.44921
▁friends	-9.44931
▁came	-9.44934
▁पड़ा	-9.4496
▁दीन	-9.45116
▁Please	-9.45128
▁मार्ग	-9.45208
▁वही	-9.45288
▁addition	-9.45303
▁media	-9.45321
टी	-9.45463
▁following	-9.45467
▁required	-9.4567
▁whether	-9.45787
▁मात्रा	-9.45889
▁दूसर	-9.45997
▁छोड़	-9.4616
▁study	-9.46188
ton	-9.46188
J	-9.46311
▁पाकिस्तान	-9.46375
▁took	-9.46428
▁idea	-9.46446
▁issues	-9.46466
▁मध्य	-9.46473
▁areas	-9.46651
▁पोस्ट	-9.46673
▁जान	-9.46881
▁pre	-9.4695
▁कहानी	-9.46987
▁गयी	-9.47052
उ	-9.47113
▁कीमत	-9.47116
वे	-9.47196
▁देखते	-9.473
▁news	-9.47356
▁American	-9.47422
▁बच्चे	-9.47491
▁निर्देश	-9.47582
▁काल	-9.47643
▁फाइल	-9.47734
▁१०	-9.47774
▁रहते	-9.47782
▁लगता	-9.4801
▁प्रयोग	-9.48037
▁ensure	-9.48059
▁रहता	-9.48196
▁thought	-9.48227
▁key	-9.48263
▁खोज	-9.4827
वि	-9.48289
▁Now	-9.48293
▁अंतर	-9.48339
▁परीक्षण	-9.48395
▁देना	-9.48403
▁त्रुटि	-9.48422
▁whole	-9.4848
▁While	-9.48543
le	-9.48549
▁main	-9.48629
▁इतिहास	-9.48685
▁performance	-9.48685
▁सिस्टम	-9.48709
्	-9.48796
▁says	-9.48862
▁लाइन	-9.48895
▁taking	-9.48919
▁छोटे	-9.48997
▁energy	-9.49076
▁बल	-9.49087
▁unique	-9.49388
▁ऊर्जा	-9.49398
▁परीक्षा	-9.49538
ist	-9.49588
▁खास	-9.49719
▁living	-9.49884
▁further	-9.49973
▁भाव	-9.50064
▁भोजन	-9.50107
▁फैसला	-9.50171
▁choose	-9.50259
थ	-9.50269
▁मनुष्य	-9.50277
▁चुका	-9.50374
▁भा	-9.50407
rs	-9.50408
▁तालिका	-9.50523
▁enjoy	-9.50528
▁staff	-9.50544
▁कोर्ट	-9.5064
▁account	-9.5067
as	-9.50894
▁टेस्ट	-9.51077
प्र	-9.51127
▁अधिकार	-9.51302
▁someone	-9.51451
20	-9.51482
▁result	-9.51515
▁seen	-9.51608
▁सामना	-9.51651
▁believe	-9.51659
▁month	-9.5173
▁मेरी	-9.51735
▁कदम	-9.51763
▁co	-9.51997
0	-9.52065
▁इतना	-9.52168
▁designed	-9.52252
▁web	-9.52324
▁bring	-9.52336
▁later	-9.52417
▁major	-9.5247
▁दूसरा	-9.52475
▁went	-9.5248
▁customer	-9.52599
▁उम्र	-9.52615
▁five	-9.5267
▁either	-9.52724
▁एस	-9.52805
▁email	-9.52896
▁front	-9.52909
▁etc	-9.53064
▁मजबूत	-9.53144
▁सजा	-9.53147
▁यादव	-9.53205
▁गैर	-9.533
▁women	-9.53342
▁view	-9.53375
▁works	-9.53377
दा	-9.53599
▁United	-9.53676
▁संकेत	-9.5372
▁amount	-9.53776
▁संदेश	-9.53793
▁तेज	-9.53814
▁close	-9.53888
▁प्रणाली	-9.53909
▁5.	-9.53934
▁US	-9.5399
▁writing	-9.54034
▁office	-9.54092
▁बाजार	-9.54112
ion	-9.54157
▁especially	-9.54211
▁पूर्ण	-9.5423
▁उचित	-9.54265
▁quite	-9.54327
आ	-9.54363
क्स	-9.54432
▁क्रम	-9.54451
▁व्यवहार	-9.54457
▁तय	-9.54482
▁हाँ	-9.5453
,"	-9.54576
▁फल	-9.54584
▁लंबाई	-9.54619
▁सार्वजनिक	-9.54731
▁Some	-9.54797
▁history	-9.54842
▁अगले	-9.54859
▁simply	-9.54905
▁भूमि	-9.55006
▁पहला	-9.55045
र्स	-9.55059
▁रुपए	-9.55089
▁बदलाव	-9.55246
▁ओ	-9.55295
▁ग्राम	-9.5536
▁child	-9.55382
▁series	-9.55398
is	-9.55419
▁specific	-9.55554
▁provided	-9.55578
▁ago	-9.55579
▁needed	-9.55767
▁By	-9.55927
▁चीन	-9.55936
िका	-9.5604
▁हे	-9.56088
▁तापमान	-9.56092
▁खिलाड़ी	-9.56117
गी	-9.5612
▁सरकारी	-9.56171
▁जन	-9.56273
▁अंग्रेजी	-9.56368
▁options	-9.56397
▁white	-9.56423
▁मंदिर	-9.56425
ियन	-9.56439
▁आयात	-9.56581
▁पेश	-9.56583
बी	-9.56597
▁मानव	-9.56602
▁23	-9.5664
▁लग	-9.56692
़	-9.56725
▁move	-9.56749
▁includes	-9.56755
▁Co	-9.56787
▁City	-9.56801
▁अधिकतम	-9.56896
▁art	-9.56932
▁वर्णन	-9.56985
▁अधिकारियों	-9.56993
▁पत्नी	-9.57085
_	-9.57145
▁software	-9.57233
▁heart	-9.57258
ar	-9.57309
▁जीव	-9.57403
am	-9.57494
ment	-9.57495
▁download	-9.57558
▁स्थानीय	-9.57563
▁लोगन	-9.57721
▁yourself	-9.57729
पी	-9.57835
▁मौके	-9.58058
▁present	-9.58065
O	-9.58119
▁style	-9.58153
▁विकसित	-9.58164
▁विवरण	-9.58448
▁वृद्धि	-9.58522
w	-9.5858
▁hope	-9.58586
▁Dr	-9.58622
▁विज्ञान	-9.58638
▁application	-9.58647
▁लें	-9.58788
▁मोर	-9.58802
▁व्यापक	-9.58858
▁लगाया	-9.58876
▁साफ	-9.58884
X	-9.58927
▁वन	-9.5899
▁everyone	-9.58996
ia	-9.59042
▁natural	-9.59091
▁तार	-9.59202
▁चुकी	-9.59246
▁अमेरिकी	-9.59387
▁चयन	-9.59524
▁Here	-9.59539
▁फिलिम	-9.59653
▁निश्चित	-9.59679
▁अध्ययन	-9.59703
▁विधानसभा	-9.5974
▁human	-9.59766
▁1,	-9.598
▁face	-9.59888
▁जिन	-9.59991
▁अपडेट	-9.60041
▁दक्षिण	-9.60056
▁अक्सर	-9.60079
▁class	-9.60167
ज़	-9.60172
▁almost	-9.60192
▁६	-9.60202
▁anything	-9.60204
▁होय	-9.60306
▁meet	-9.6032
▁India	-9.60321
▁प्रकाश	-9.60391
▁आदमी	-9.60452
▁law	-9.60554
▁phone	-9.60612
▁किस	-9.60796
▁कहीं	-9.60874
▁नि	-9.60986
▁field	-9.60993
▁मां	-9.61045
▁May	-9.61119
▁उससे	-9.61186
▁search	-9.61193
▁Z	-9.61214
▁सकारात्मक	-9.61342
▁मिलता	-9.61571
ry	-9.61573
▁systems	-9.61651
▁financial	-9.61763
▁card	-9.621
▁किन्तु	-9.62162
▁बातचीत	-9.62248
▁अवसर	-9.62277
▁तू	-9.62393
▁added	-9.62527
▁देव	-9.62568
▁report	-9.62593
▁लगी	-9.62594
▁बराबर	-9.62603
▁पति	-9.62612
▁National	-9.62726
▁games	-9.62738
▁likely	-9.62747
▁केंद्रीय	-9.62765
▁ideas	-9.62914
▁गांधी	-9.62959
ine	-9.62967
▁व्यक्तिगत	-9.63005
▁turn	-9.63027
▁however	-9.6316
▁परन्तु	-9.63166
▁ways	-9.6326
▁latest	-9.63314
▁देर	-9.63333
▁देशों	-9.63342
▁परिभाषित	-9.63359
▁issue	-9.6338
▁बोर्ड	-9.63539
▁स्वयं	-9.63577
▁वेबसाइट	-9.63621
▁प्रेम	-9.63634
▁परिवर्तन	-9.63722
▁clients	-9.63724
▁created	-9.63822
▁events	-9.63864
▁World	-9.63885
▁details	-9.63908
▁वहाँ	-9.6399
रो	-9.64066
▁problems	-9.64179
▁stay	-9.64191
▁मेरा	-9.64208
▁test	-9.64245
▁कृपया	-9.64388
▁पक्ष	-9.64392
▁among	-9.64409
▁taken	-9.64425
▁receive	-9.64433
▁age	-9.64451
▁माता	-9.64493
▁third	-9.64592
▁वर्षों	-9.64623
▁build	-9.6465
▁हमारी	-9.64688
▁चाहता	-9.64706
▁राष्ट्रपति	-9.64839
कार	-9.64892
▁विरोध	-9.65018
▁महिलाओं	-9.65027
ौ	-9.65039
▁अनेक	-9.65042
▁लूप	-9.65055
▁प्रवेश	-9.6506
▁सड़क	-9.65076
नि	-9.6513
▁x	-9.6515
▁गुण	-9.65151
▁शेयर	-9.65185
▁लगाने	-9.65303
▁सहायता	-9.65325
el	-9.65433
▁interest	-9.65511
▁common	-9.65518
▁State	-9.65538
na	-9.65655
▁श्रृंखला	-9.65659
▁संचालन	-9.65712
▁लोक	-9.65725
▁forward	-9.65729
▁individual	-9.65767
▁half	-9.65771
▁डॉलर	-9.65844
▁clear	-9.65965
▁किये	-9.65989
▁जैसा	-9.66017
▁डिग्री	-9.66026
▁throughout	-9.66095
v	-9.6614
ne	-9.66206
▁opportunity	-9.66213
▁निर्णय	-9.66239
▁oil	-9.66261
▁मार्च	-9.66299
▁allow	-9.66361
जा	-9.66414
▁क्रिकेट	-9.66487
▁गिरफ्तार	-9.66569
▁Not	-9.66574
▁self	-9.66749
▁तेजी	-9.66774
▁परत	-9.66845
▁मिलने	-9.66898
▁दूरी	-9.66917
▁सक्षम	-9.67072
▁lead	-9.67172
▁26	-9.67238
▁From	-9.67253
▁कॉल	-9.67261
▁ग्राहक	-9.67402
▁स्वीकार	-9.67459
▁education	-9.67465
▁date	-9.67525
▁धन	-9.67593
▁treatment	-9.67736
मी	-9.67746
▁changes	-9.67765
▁भारी	-9.67779
▁संघ	-9.678
▁located	-9.67822
▁तरीके	-9.67843
▁हत्या	-9.6785
▁security	-9.67881
▁इंडिया	-9.67894
▁insurance	-9.68016
▁सरल	-9.68074
▁ready	-9.68079
▁model	-9.6822
▁अथवा	-9.68333
▁increase	-9.68392
▁His	-9.68393
▁continue	-9.68446
▁young	-9.68468
▁party	-9.68599
▁प्रदर्शित	-9.68686
▁अंक	-9.68738
▁near	-9.68826
▁learning	-9.68831
▁रक्षा	-9.68875
▁users	-9.68912
▁tell	-9.68973
▁चलते	-9.69002
▁कानून	-9.69008
▁विश्वास	-9.69061
▁matter	-9.69096
age	-9.69138
▁पड़	-9.69173
▁question	-9.69189
▁period	-9.69216
▁black	-9.6925
▁South	-9.69256
▁2014	-9.69263
▁नुकसान	-9.69303
▁बाल	-9.69317
▁आवेदन	-9.69346
▁rather	-9.69368
▁reason	-9.69394
▁पाया	-9.69431
▁Be	-9.69512
▁user	-9.69528
▁blog	-9.6954
▁paper	-9.69542
▁सप्ताह	-9.69586
▁focus	-9.69591
▁र	-9.69716
▁certain	-9.69721
▁image	-9.69724
▁भगवान	-9.69853
ling	-9.70013
▁योग्य	-9.70022
▁address	-9.70072
▁2017	-9.70116
▁outside	-9.70153
▁बिहार	-9.70241
▁भ	-9.70254
&	-9.70265
वर	-9.70285
▁strong	-9.70288
▁दृष्टि	-9.70323
▁यद्यपि	-9.70369
▁knowledge	-9.70369
▁जानते	-9.70428
▁राज्यों	-9.70446
▁color	-9.70477
ian	-9.70532
▁दावा	-9.7054
ty	-9.70551
de	-9.70629
▁सिर	-9.70634
▁प्रशिक्षण	-9.70759
▁rate	-9.70761
▁Don	-9.70763
▁skin	-9.70784
▁skills	-9.70902
▁जल्द	-9.7097
▁file	-9.70987
▁final	-9.70987
te	-9.71012
▁दुइनौ	-9.7104
▁...	-9.7107
▁नदी	-9.71255
▁wide	-9.71442
▁risk	-9.71443
▁मिलत	-9.71452
▁original	-9.71603
ड़	-9.71628
▁c	-9.717
▁sales	-9.71777
▁खाद्य	-9.71811
▁trying	-9.71838
▁सत्य	-9.71902
▁total	-9.71979
▁member	-9.7203
▁table	-9.72057
▁मौसम	-9.72125
▁coming	-9.72165
▁usually	-9.72201
▁version	-9.72216
▁कप	-9.7222
▁एम	-9.72332
▁दिल	-9.72334
▁ask	-9.72443
▁popular	-9.72483
▁आग	-9.72501
▁currently	-9.72529
▁York	-9.72705
▁मुंबई	-9.72745
▁School	-9.7275
▁activities	-9.72777
▁खत्म	-9.72793
▁यानी	-9.72799
▁store	-9.7284
▁थाना	-9.72857
▁घोषणा	-9.72903
▁happy	-9.72916
▁प्रस्तुत	-9.72945
▁higher	-9.73007
▁deal	-9.73052
▁private	-9.73079
▁कु	-9.73183
▁पार	-9.73199
▁save	-9.73234
ये	-9.73329
▁particular	-9.73376
१	-9.73384
▁दिशा	-9.73396
▁soon	-9.73434
▁related	-9.73454
▁अवधि	-9.73531
▁via	-9.73553
▁रहती	-9.73567
▁जैसी	-9.73655
▁औसत	-9.73704
▁बने	-9.73716
▁North	-9.7383
▁potential	-9.73835
▁takes	-9.73851
▁rest	-9.73857
▁built	-9.73886
▁सुरक्षित	-9.73948
▁percent	-9.73966
▁inside	-9.74016
▁additional	-9.74041
▁*	-9.74087
▁action	-9.74099
▁step	-9.74135
▁role	-9.74142
time	-9.74143
▁kids	-9.74162
▁दए	-9.7424
less	-9.74297
▁सूत्र	-9.74322
▁reading	-9.74359
▁देय	-9.74443
▁उम्मीद	-9.74453
▁विस्तार	-9.74539
▁easily	-9.74661
▁items	-9.74673
▁खबर	-9.74693
▁general	-9.74733
▁किसान	-9.74764
२	-9.74778
▁Can	-9.74851
▁follow	-9.74883
▁practice	-9.74987
▁material	-9.75001
▁probably	-9.75007
▁brand	-9.75016
▁--	-9.75021
▁choice	-9.75067
▁28	-9.75105
ism	-9.75108
▁credit	-9.75148
7	-9.75157
▁leave	-9.75221
▁संभव	-9.7525
▁code	-9.75269
▁श	-9.75397
▁review	-9.75423
▁wanted	-9.75517
▁extra	-9.75519
▁रख	-9.7554
▁अनुमान	-9.75595
▁projects	-9.75599
▁कार्ड	-9.75616
▁environment	-9.75721
▁हटा	-9.75729
रूप	-9.75731
▁संगठन	-9.75744
▁running	-9.75748
▁variety	-9.7583
▁महसूस	-9.75859
▁similar	-9.75974
▁नकारात्मक	-9.76009
▁आइए	-9.76055
▁आयोजित	-9.76065
▁longer	-9.76068
▁८	-9.76089
▁कल	-9.76167
▁मिले	-9.76171
▁सात	-9.76257
▁प्यार	-9.76299
▁भविष्य	-9.76371
▁गंभीर	-9.76394
▁जमीन	-9.76403
▁received	-9.76478
▁कृषि	-9.76491
▁गो	-9.76521
▁पुरुष	-9.76596
▁option	-9.76599
▁राजनीतिक	-9.76658
▁मीटर	-9.76715
▁एल्गोरिदम	-9.76715
▁isn	-9.76734
▁pretty	-9.76746
▁click	-9.76815
▁पुत्र	-9.76842
▁कक्षा	-9.76865
▁सुख	-9.76908
▁cannot	-9.76968
▁growth	-9.76989
▁बाय	-9.77
साथ	-9.77244
▁वजन	-9.7731
▁चिकित्सा	-9.77315
▁John	-9.77352
▁De	-9.77454
▁points	-9.77518
ch	-9.77532
▁विश्वविद्यालय	-9.77566
▁true	-9.77601
▁सोमवार	-9.7761
▁यूजर	-9.77736
ie	-9.77765
▁told	-9.77796
▁जून	-9.77811
▁पड़ता	-9.77822
▁कितने	-9.77825
ive	-9.77879
▁computer	-9.77895
▁Just	-9.77936
▁Center	-9.77997
▁men	-9.78101
▁मँ	-9.78337
▁मामलों	-9.78369
▁सफल	-9.784
▁position	-9.78444
▁एंड	-9.78452
▁film	-9.78456
▁production	-9.78525
ियां	-9.78598
▁मई	-9.78681
▁तकनीक	-9.78683
▁निर्दिष्ट	-9.78767
8	-9.788
6	-9.7881
▁हमरे	-9.7886
▁impact	-9.78871
▁modern	-9.7888
▁बजाय	-9.78888
▁app	-9.78923
▁कर्म	-9.78975
▁किसानों	-9.78993
.”	-9.7906
▁बारिश	-9.79085
▁stop	-9.79168
ate	-9.79186
▁आमतौर	-9.79192
▁शन	-9.79236
▁ला	-9.79245
▁article	-9.7926
▁एफ	-9.79366
▁नियम	-9.79457
▁t	-9.79587
ही	-9.79591
▁upon	-9.7962
▁medical	-9.79684
▁शाम	-9.79685
▁standard	-9.79748
▁return	-9.7977
no	-9.79791
▁मार	-9.79828
▁nice	-9.79841
▁डिजाइन	-9.79876
▁marketing	-9.79879
▁संशोधित	-9.79955
▁held	-9.79992
▁दल	-9.80112
▁आयोजन	-9.80132
एँ	-9.80286
▁behind	-9.80452
▁आता	-9.80558
▁बिजली	-9.80585
▁allows	-9.80604
▁quickly	-9.80694
▁व्यक्त	-9.80718
▁उपकरण	-9.80826
▁कॉलम	-9.80852
▁एल	-9.80873
▁खाली	-9.80912
▁उसमें	-9.80914
▁cover	-9.80941
▁महा	-9.80954
▁Of	-9.80967
son	-9.81063
▁आरोपी	-9.81063
▁equipment	-9.81064
▁सलाह	-9.81125
–	-9.81195
▁States	-9.81507
▁संगीत	-9.81509
▁सुविधा	-9.81533
▁27	-9.81538
▁providing	-9.8156
▁मील	-9.81592
▁दृष्टिकोण	-9.81623
▁२०	-9.81638
▁ढंग	-9.81639
▁network	-9.81669
▁विधायक	-9.81689
▁बनी	-9.81733
▁यू	-9.81764
▁words	-9.81891
▁निवासी	-9.81937
ra	-9.81986
▁क्षेत्रों	-9.82009
▁जुड़े	-9.82013
▁recent	-9.82128
▁शीर्ष	-9.82132
▁shows	-9.8214
▁location	-9.82147
▁जनवरी	-9.82154
▁वास्तव	-9.82168
о	-9.82234
▁हमने	-9.82244
▁Home	-9.82261
▁necessary	-9.82263
▁consider	-9.82342
▁2016	-9.82424
▁drive	-9.82429
ting	-9.82456
▁अभियान	-9.82475
▁मशीन	-9.82537
▁fast	-9.82539
▁patients	-9.82558
9	-9.82598
▁पहुंचे	-9.82601
▁पूर्णांक	-9.82613
▁weight	-9.82615
е	-9.82635
▁effective	-9.82694
▁weeks	-9.82698
▁mean	-9.82715
▁रिकॉर्ड	-9.82802
▁couple	-9.82952
▁छह	-9.82957
▁tax	-9.82962
▁नियंत्रण	-9.82981
▁राहुल	-9.8302
▁जमा	-9.83025
▁amazing	-9.83099
▁cause	-9.8312
▁nothing	-9.83265
▁फं	-9.83302
वाद	-9.83356
out	-9.83357
▁worked	-9.83401
▁चूंकि	-9.83667
▁costs	-9.83721
▁m	-9.83729
▁entire	-9.83759
▁materials	-9.8381
▁सहयोग	-9.83856
▁purchase	-9.839
+	-9.841
▁सफलता	-9.84139
line	-9.84165
▁Park	-9.84167
one	-9.84186
▁international	-9.84196
▁200	-9.84295
▁approach	-9.84334
▁Or	-9.84388
▁sound	-9.84424
based	-9.84442
▁bad	-9.84463
▁policy	-9.84497
ियो	-9.84501
▁Y	-9.84506
▁anyone	-9.84611
▁travel	-9.84617
▁मु	-9.84635
▁ज	-9.84658
▁खाना	-9.84695
▁मत	-9.84708
▁अर्थात्	-9.84753
▁शिकायत	-9.84854
▁summer	-9.84866
▁कार्यालय	-9.84877
▁हवा	-9.84883
▁terms	-9.85007
▁जेल	-9.85124
▁प्रबंधन	-9.85274
▁अप्रैल	-9.85296
▁लंबे	-9.85318
▁ability	-9.85363
▁included	-9.85371
▁योगदान	-9.85419
▁Also	-9.85485
land	-9.85487
▁समाप्त	-9.85491
▁शुक्रवार	-9.85561
▁सीधे	-9.85564
▁31	-9.85569
▁भर्ती	-9.85626
▁student	-9.85689
▁जिनमें	-9.85729
▁seems	-9.85731
▁Thanks	-9.85737
▁आत्मा	-9.85743
▁श्रेणी	-9.85753
▁वालों	-9.85832
▁success	-9.86051
▁improve	-9.86071
▁रे	-9.86096
▁पंजाब	-9.86096
▁भुगतान	-9.86134
▁else	-9.86162
▁conditions	-9.8619
▁Q	-9.86372
बा	-9.8638
▁recently	-9.86388
▁प्रशासन	-9.86394
▁2022	-9.86407
ary	-9.86421
▁books	-9.86522
▁इलाज	-9.86614
▁UK	-9.86658
▁Then	-9.86733
▁प्रथम	-9.86892
▁शायद	-9.86972
▁County	-9.87016
ur	-9.87016
▁Day	-9.87064
▁programs	-9.87113
▁solution	-9.87128
://	-9.87178
▁cut	-9.87178
▁La	-9.87184
at	-9.87254
▁राष्ट्र	-9.87259
▁meeting	-9.87324
▁April	-9.87396
▁kitchen	-9.87424
▁benefits	-9.87455
▁आय	-9.87456
▁hair	-9.875
10	-9.87572
▁अच्छे	-9.87617
▁average	-9.87721
▁विकेट	-9.8774
▁lower	-9.87758
▁March	-9.87801
▁केन्द्र	-9.87821
▁साहित्य	-9.87845
▁Get	-9.87898
▁collection	-9.879
▁West	-9.87939
▁s	-9.87952
▁मंगलवार	-9.87972
▁device	-9.87978
▁कथन	-9.88012
▁Google	-9.8814
▁d	-9.88227
▁difficult	-9.88258
me	-9.88343
▁छोट	-9.88358
▁रस	-9.88372
▁national	-9.88402
▁तेल	-9.88456
nd	-9.88469
▁San	-9.88595
▁दिये	-9.88596
▁कॉलेज	-9.88618
▁types	-9.88636
▁sale	-9.88657
▁digital	-9.88671
▁ट्वीट	-9.88753
▁खत	-9.88787
▁रि	-9.88803
▁tools	-9.88808
▁आसपास	-9.88904
स्ट	-9.8893
▁बावजूद	-9.89037
▁clean	-9.89057
▁हों	-9.89058
▁इनके	-9.89212
▁favorite	-9.89236
▁Go	-9.89265
▁board	-9.89357
▁बीजेपी	-9.89404
▁according	-9.8941
▁शासन	-9.8943
▁excellent	-9.89474
▁समिति	-9.8951
▁lives	-9.89661
▁शब्दन	-9.89708
▁talk	-9.89844
▁हार	-9.89877
▁नेतृत्व	-9.8993
▁red	-9.8995
▁decision	-9.89956
वें	-9.89972
▁दर्शन	-9.9
▁ट	-9.90038
ant	-9.90057
▁looks	-9.90205
▁Most	-9.90217
▁रिलीज	-9.9033
राज	-9.90346
▁2015	-9.9036
▁chance	-9.90404
▁safe	-9.90415
j	-9.90455
▁शेष	-9.90482
▁sense	-9.90496
▁levels	-9.90499
ley	-9.90592
ies	-9.90638
▁कराया	-9.90762
▁उनसे	-9.90789
▁ऑनलाइन	-9.90831
▁resources	-9.90877
▁बनावत	-9.90882
▁तारीख	-9.90933
▁बे	-9.90982
year	-9.91018
▁morning	-9.91036
▁box	-9.91053
▁बिंदु	-9.91065
▁संपर्क	-9.91121
▁शीर्षक	-9.9117
ेन	-9.91257
▁parts	-9.91324
▁लेखक	-9.91348
▁fit	-9.91372
▁source	-9.91427
ियाँ	-9.9143
▁win	-9.91471
▁कला	-9.91555
▁मेल	-9.91571
▁वी	-9.91577
▁asked	-9.91693
▁six	-9.91714
▁खर्च	-9.91736
▁पूजा	-9.91737
▁खराब	-9.91749
▁send	-9.91833
▁involved	-9.9184
▁राजस्थान	-9.91959
▁युवा	-9.92014
▁प्रोग्राम	-9.9208
▁leading	-9.92144
▁प्रसिद्ध	-9.92181
▁shall	-9.92226
▁राय	-9.92232
▁highly	-9.9225
▁हृदय	-9.92298
▁#	-9.92314
▁America	-9.9241
ma	-9.92456
▁mobile	-9.92462
▁House	-9.92465
▁सर	-9.92491
▁आते	-9.92526
▁word	-9.92575
▁solutions	-9.92658
▁daily	-9.92675
▁road	-9.92782
▁प्रकाशित	-9.92803
▁multiple	-9.92808
30	-9.92839
▁goal	-9.92924
ol	-9.93001
▁link	-9.93002
▁Mr	-9.93118
▁Many	-9.9313
▁इनमें	-9.93218
um	-9.93223
▁संस्करण	-9.9324
▁उद्योग	-9.93322
▁countries	-9.93496
▁आसान	-9.93497
▁दोस्त	-9.93516
िस	-9.93538
▁प्रकृति	-9.9358
▁बुधवार	-9.93583
▁bar	-9.9363
▁35	-9.93635
▁प्राकृतिक	-9.93655
▁जुलाई	-9.93706
▁itself	-9.93726
▁लेत	-9.93752
यू	-9.93754
▁पैरामीटर	-9.93794
▁late	-9.93815
▁fine	-9.93816
▁29	-9.93817
▁रोग	-9.93879
▁plans	-9.94116
▁खाने	-9.94203
▁स्व	-9.94216
id	-9.94242
▁१९	-9.94258
▁gives	-9.94419
▁अगस्त	-9.9444
▁बाकी	-9.94451
▁पदार्थ	-9.94454
▁छात्रों	-9.94507
▁पंक्ति	-9.94556
▁directly	-9.94604
▁हमला	-9.94606
▁गुरु	-9.94616
▁चाहिये	-9.94616
▁images	-9.94667
▁शनिवार	-9.94731
▁written	-9.94742
▁piece	-9.94779
▁उनमें	-9.94798
▁+	-9.94807
▁write	-9.94882
▁•	-9.94923
▁जेकर	-9.94936
▁जैन	-9.94945
▁walk	-9.9507
▁career	-9.95079
▁loss	-9.95148
▁attention	-9.95202
▁hot	-9.95207
▁Pro	-9.95245
▁साझा	-9.95283
▁बढ़ा	-9.95297
▁Free	-9.95332
▁संग्रहीत	-9.95354
▁रूस	-9.95364
▁बॉलीवुड	-9.95366
os	-9.95385
▁लेते	-9.95404
हि	-9.95409
▁देखकर	-9.95463
▁Once	-9.95542
▁मानक	-9.95634
▁रखते	-9.95653
▁instead	-9.95675
▁दस	-9.95708
▁हालाँकि	-9.95747
▁safety	-9.95771
▁रेलवे	-9.95829
ta	-9.95861
▁feature	-9.95904
▁32	-9.95936
▁themselves	-9.95962
▁लड़की	-9.96025
▁require	-9.96045
▁संक्रमण	-9.96056
▁रखें	-9.96165
टा	-9.96258
▁hold	-9.9634
▁planning	-9.96472
▁giving	-9.96512
▁अनुरोध	-9.96612
▁legal	-9.9665
बार	-9.96668
▁सर्व	-9.96748
▁पर्याप्त	-9.96765
▁जेहिका	-9.96768
▁वक्त	-9.96822
▁ट्रेन	-9.96825
▁global	-9.96833
▁देकर	-9.9684
▁ऐप	-9.9686
▁floor	-9.96924
▁किताब	-9.96937
▁विभाजित	-9.96988
▁क्वेरी	-9.96993
▁गैस	-9.96993
▁fresh	-9.97025
▁First	-9.97046
▁बच्चा	-9.97087
▁effect	-9.97115
▁International	-9.97177
▁record	-9.97182
वीं	-9.97291
▁देती	-9.97329
Y	-9.97513
▁huge	-9.97537
दार	-9.97588
हा	-9.97631
▁requirements	-9.97642
▁रहेगा	-9.97649
▁रविवार	-9.97657
▁News	-9.97694
▁organization	-9.97704
▁significant	-9.97733
▁develop	-9.97764
▁land	-9.9784
लो	-9.97933
▁prices	-9.97954
▁subject	-9.97962
▁सह	-9.97995
▁=	-9.98013
▁आपने	-9.98056
▁saw	-9.98126
▁Even	-9.98204
▁राजधानी	-9.98216
▁Al	-9.98233
▁उठा	-9.98248
▁method	-9.98279
▁town	-9.98287
▁रोक	-9.98336
▁परी	-9.98342
▁कर्मचारी	-9.98431
▁interesting	-9.98444
▁सांसद	-9.98501
▁प्रस्ताव	-9.98582
▁जाएंगे	-9.98683
▁निजी	-9.98739
▁वास्तविक	-9.98743
ir	-9.98748
▁fully	-9.98764
▁जोर	-9.98818
▁players	-9.98823
▁cases	-9.98856
▁ओकर	-9.9891
▁worth	-9.98912
est	-9.98942
▁moment	-9.98952
▁section	-9.99019
ेज	-9.99037
et	-9.9911
▁सीरीज	-9.99172
▁दरअसल	-9.99176
▁friend	-9.99177
▁हिन्दी	-9.99356
▁प्राचीन	-9.99374
▁door	-9.99379
▁photo	-9.99391
▁Thank	-9.99419
day	-9.99463
▁सूर्य	-9.99557
ized	-9.99591
▁युवक	-9.99602
▁June	-9.9962
▁नौकरी	-9.99637
▁fire	-9.99656
▁समुद्र	-9.99691
▁जटिल	-9.99704
▁trip	-9.99748
▁developed	-9.99757
दर	-9.9979
▁More	-9.9982
▁अन	-9.9993
▁parents	-9.99965
▁track	-9.99969
▁महत्व	-9.99979
डा	-10.0002
▁वायरस	-10.0008
▁सम	-10.001
▁High	-10.0012
▁completely	-10.0014
▁term	-10.0015
▁नियमों	-10.0023
▁फरवरी	-10.0024
▁कुंजी	-10.0025
▁apply	-10.0037
▁पश्चिम	-10.0037
▁center	-10.0042
▁लेना	-10.0045
▁answer	-10.0049
▁जाकर	-10.005
▁समझा	-10.0053
▁पेड़	-10.0056
ted	-10.0065
▁playing	-10.0066
be	-10.0071
▁वायरल	-10.0074
▁b	-10.0082
▁बेहद	-10.0086
▁decided	-10.0089
▁व्यापार	-10.009
▁lost	-10.0097
▁remember	-10.01
▁पृष्ठ	-10.011
▁Let	-10.0117
▁TV	-10.0119
▁परिषद	-10.0125
▁groups	-10.0128
▁traditional	-10.013
▁चले	-10.0135
▁प्रभावी	-10.0135
त्व	-10.0146
ेशन	-10.0151
▁helps	-10.0152
▁myself	-10.0153
▁बा	-10.0157
▁सदस्यों	-10.0161
▁बनाई	-10.0163
▁reach	-10.017
▁डेटाबेस	-10.0172
▁अनु	-10.0174
▁release	-10.0175
▁कया	-10.0177
▁चीनी	-10.0179
▁७	-10.0181
▁90	-10.0182
▁English	-10.0187
▁wall	-10.0189
▁कारक	-10.0206
▁अक्षर	-10.0208
▁500	-10.0211
▁spend	-10.0216
▁London	-10.0217
of	-10.0221
▁परियोजना	-10.0223
▁China	-10.0224
▁pain	-10.0225
▁वाहन	-10.0225
▁देखत	-10.0226
▁base	-10.0227
▁सूचकांक	-10.0232
▁सोच	-10.0244
▁sign	-10.0251
▁Why	-10.0254
▁goes	-10.0257
▁जरूर	-10.026
▁पृथ्वी	-10.026
▁फ	-10.0267
▁असर	-10.0268
▁जेका	-10.0269
▁watch	-10.0283
▁उनको	-10.0284
भ	-10.0285
▁hear	-10.029
▁बनावा	-10.0293
▁machine	-10.0294
▁photos	-10.0295
▁०	-10.0296
▁इच्छा	-10.0297
▁विजय	-10.0306
▁Since	-10.0307
▁स्कोर	-10.0307
▁2,	-10.0308
▁स्टेशन	-10.0317
रि	-10.0326
▁client	-10.033
यों	-10.0333
▁देगा	-10.0345
▁डॉक्टर	-10.0357
▁जोड़	-10.0364
▁tool	-10.0372
▁benefit	-10.0376
▁सम्बन्ध	-10.0382
ँ	-10.0384
▁शून्य	-10.039
▁आठ	-10.0391
▁सक्रिय	-10.0393
▁creating	-10.0396
▁शिव	-10.0396
पा	-10.0408
▁multi	-10.0411
▁Great	-10.0422
▁Health	-10.0423
▁उपरोक्त	-10.043
▁१२	-10.0431
▁interested	-10.0431
यो	-10.0433
▁y	-10.0434
▁सहायक	-10.0443
▁आसानी	-10.0449
▁प्रधान	-10.0452
▁स्थिर	-10.0457
▁शराब	-10.046
▁चलत	-10.0469
▁वैसे	-10.0472
▁खोजने	-10.0473
▁हेतु	-10.0478
do	-10.0478
▁green	-10.0479
▁आइटम	-10.0485
▁nature	-10.0489
▁ground	-10.049
▁became	-10.0496
▁successful	-10.0499
▁धारा	-10.0504
▁limited	-10.0505
▁analysis	-10.053
▁खा	-10.0533
▁eye	-10.0541
▁स्टोर	-10.0544
▁मोबाइल	-10.0545
▁बनने	-10.0555
▁आयोग	-10.0557
▁स्थापना	-10.0559
▁सौ	-10.0562
▁दवा	-10.0565
▁समेत	-10.057
▁2020	-10.0574
राम	-10.0585
la	-10.0598
▁लिख	-10.0599
▁sites	-10.0603
▁शानदार	-10.0605
-1	-10.0608
▁picture	-10.0609
▁4,	-10.0613
▁sub	-10.0616
ri	-10.0622
ter	-10.0634
ड़ा	-10.0635
▁कराने	-10.0644
▁तैयारी	-10.0653
▁सतह	-10.0657
▁छोटी	-10.0661
सं	-10.0666
▁डर	-10.0669
जे	-10.0672
▁positive	-10.0677
▁इतनी	-10.0677
▁language	-10.0683
▁businesses	-10.0685
▁नियमित	-10.0685
▁उपचार	-10.0686
▁सारे	-10.0688
▁कितना	-10.0695
▁गर्मी	-10.0695
▁रखना	-10.0699
▁करो	-10.0699
▁construction	-10.0705
▁n	-10.0706
▁hit	-10.0708
▁vehicle	-10.0709
▁सम्मान	-10.0717
▁45	-10.0721
▁commercial	-10.0725
▁recommend	-10.0734
▁towards	-10.0739
▁टीवी	-10.0745
▁fall	-10.0747
▁पैसा	-10.0748
ous	-10.0749
▁considered	-10.0751
▁केस	-10.0754
▁pressure	-10.0757
▁employees	-10.0763
▁began	-10.0765
▁request	-10.0765
▁screen	-10.077
एन	-10.077
▁तीसरे	-10.0772
▁opportunities	-10.0774
▁मै	-10.0774
▁wish	-10.0775
▁बढ़ाने	-10.0778
ish	-10.078
▁विस्तृत	-10.0782
▁Inc	-10.0782
▁सच	-10.0783
▁रेल	-10.0786
▁देवी	-10.0788
▁applications	-10.0793
▁heat	-10.0796
▁expected	-10.0799
▁सीएम	-10.0803
-19	-10.0806
▁कही	-10.0808
▁Group	-10.0808
▁घटक	-10.081
▁Each	-10.0813
▁जनसंख्या	-10.0816
▁pick	-10.082
а	-10.0827
▁बिल	-10.0828
▁thinking	-10.0828
▁2013	-10.0836
▁Are	-10.0837
▁निकाल	-10.0843
ro	-10.0844
▁understanding	-10.0848
▁दृश्य	-10.0849
▁जल्दी	-10.0852
▁wonderful	-10.0853
▁तुरंत	-10.0855
▁दबाव	-10.0864
▁चेक	-10.0865
▁Service	-10.0865
▁विशेषता	-10.0866
▁गिर	-10.0877
▁चाहे	-10.088
▁regular	-10.0882
इन	-10.0884
▁लो	-10.0898
वार	-10.0898
समय	-10.092
▁स्वरूप	-10.0924
▁37	-10.0929
▁जाति	-10.093
▁sometimes	-10.0933
▁Facebook	-10.0933
▁Car	-10.0934
▁President	-10.0934
▁पर्यावरण	-10.0944
▁happen	-10.0948
▁Me	-10.0952
▁ता	-10.0955
▁hands	-10.0957
ad	-10.096
▁पाए	-10.0962
▁2012	-10.0964
▁मुश्किल	-10.0965
▁सचिव	-10.0967
डे	-10.097
▁मैदान	-10.097
▁फोटो	-10.0973
▁storage	-10.098
सन	-10.0988
▁कवि	-10.0989
▁relationship	-10.099
il	-10.0996
▁guide	-10.0998
▁Christmas	-10.0999
▁जॉन	-10.1001
U	-10.1002
▁Well	-10.1003
▁बातें	-10.101
▁healthy	-10.101
▁physical	-10.101
▁January	-10.101
▁गेंद	-10.1012
▁Friday	-10.1012
▁v	-10.1014
▁cash	-10.1016
▁मौका	-10.1016
मो	-10.1018
▁$	-10.1023
▁बजट	-10.1026
▁लिस्ट	-10.1028
▁starting	-10.1031
▁क्रिया	-10.1033
▁ones	-10.1034
▁situation	-10.1036
▁individuals	-10.1038
ाई	-10.1045
▁dis	-10.105
▁उल्लेख	-10.1053
▁posted	-10.1053
▁घायल	-10.1056
▁थोड़ा	-10.1056
▁संघर्ष	-10.1057
▁investment	-10.1059
▁पीएम	-10.1063
▁व्याख्या	-10.1066
▁region	-10.107
▁text	-10.1078
▁मुक्त	-10.1078
▁death	-10.1089
▁चिंता	-10.1099
▁सीट	-10.1101
50	-10.1104
▁नेताओं	-10.1117
▁मोका	-10.1121
!!	-10.1121
▁कमांड	-10.1123
▁places	-10.1129
▁growing	-10.1129
एक	-10.113
▁definitely	-10.1132
मान	-10.1133
▁Department	-10.1151
▁moving	-10.1159
▁begin	-10.1165
▁बेटी	-10.1172
▁published	-10.1181
▁मृत्यु	-10.1182
▁wood	-10.1183
ादि	-10.1184
ated	-10.1199
▁wait	-10.12
▁वेब	-10.1201
▁hotel	-10.1204
▁निवेश	-10.1208
▁message	-10.1209
▁बि	-10.1209
▁g	-10.121
▁क्लिक	-10.1214
▁exactly	-10.1216
▁2007	-10.1218
ization	-10.1219
▁stand	-10.1221
▁activity	-10.123
▁plant	-10.1231
▁sports	-10.1235
▁आधारित	-10.1237
▁सत्ता	-10.1241
▁लाइब्रेरी	-10.1241
▁रहें	-10.1243
▁ओवर	-10.1244
▁Mo	-10.1248
▁नेटवर्क	-10.1249
▁आती	-10.125
वन	-10.125
▁function	-10.1253
▁खंड	-10.1258
▁सुझाव	-10.1265
▁difference	-10.1268
▁grow	-10.1269
▁al	-10.1272
▁ईमेल	-10.128
▁rights	-10.1281
▁hour	-10.1281
▁Code	-10.1283
▁बीमारी	-10.1284
▁सिद्ध	-10.1285
मन	-10.1291
▁October	-10.1292
▁आईडी	-10.1301
▁match	-10.1305
go	-10.1307
▁Black	-10.1311
▁speed	-10.1311
▁छवि	-10.1313
▁purpose	-10.1316
▁entry	-10.1317
▁आधुनिक	-10.1321
▁seem	-10.1323
्ड	-10.1326
▁कपूर	-10.1332
▁जिसकी	-10.1335
▁गीत	-10.1337
▁Services	-10.1343
▁break	-10.1348
mm	-10.1349
▁मनई	-10.1354
▁धीरे	-10.1355
▁previous	-10.1358
▁गाड़ी	-10.1359
देव	-10.1368
▁तथ्य	-10.1373
▁संस्कृति	-10.1375
▁September	-10.1382
▁Is	-10.1387
We	-10.1395
▁रोड	-10.1402
▁platform	-10.1403
un	-10.1408
▁July	-10.1409
▁घोषित	-10.141
▁pro	-10.1413
▁किनारे	-10.1416
▁एकै	-10.1418
ध	-10.1419
▁सभा	-10.1428
जन	-10.1429
▁70	-10.1438
▁goals	-10.1444
▁stage	-10.1463
▁लेता	-10.1468
▁उपयुक्त	-10.1471
▁आत्म	-10.1471
▁quick	-10.1478
▁sent	-10.1486
▁wrong	-10.1494
▁round	-10.1495
▁दिसंबर	-10.1498
▁प्रो	-10.1501
▁कर्मचारियों	-10.1502
ance	-10.1507
▁blood	-10.151
▁response	-10.1515
▁stock	-10.1515
▁वातावरण	-10.1516
▁अप	-10.1517
▁आशा	-10.152
▁Her	-10.1521
”.	-10.1521
per	-10.1523
▁गुरुवार	-10.1523
▁बढ़ावा	-10.1527
दी	-10.1528
by	-10.1532
पन	-10.1533
▁शैली	-10.1545
▁कौशल	-10.1548
ेट	-10.1548
▁युग	-10.155
▁किलोमीटर	-10.1551
▁बढ़त	-10.1553
▁कल्पना	-10.1559
▁damage	-10.1561
▁भिन्न	-10.1566
▁विदेशी	-10.1566
▁पाने	-10.1572
▁कार्यों	-10.158
▁shop	-10.1588
▁पथ	-10.1593
▁अक्टूबर	-10.1596
▁bed	-10.1596
▁गठन	-10.1604
▁California	-10.1606
▁Company	-10.1607
▁१५	-10.163
▁advice	-10.1634
ful	-10.1635
▁चरित्र	-10.1636
▁Bar	-10.1641
▁con	-10.1642
▁touch	-10.1646
▁वोट	-10.165
▁offering	-10.165
▁कब	-10.1661
गो	-10.1662
▁internet	-10.1663
Z	-10.1665
▁मिलेगा	-10.167
▁मूल्यांकन	-10.1685
▁गुणवत्ता	-10.169
▁felt	-10.1692
▁यूनिवर्सिटी	-10.1694
▁unit	-10.1696
▁नरेंद्र	-10.1699
▁Sunday	-10.1699
con	-10.17
▁display	-10.1711
▁Best	-10.1716
▁रचना	-10.1719
▁surface	-10.1721
▁culture	-10.1723
▁paid	-10.1724
▁दूध	-10.1726
▁न्यूनतम	-10.1732
▁रहत	-10.1732
▁loved	-10.1733
▁led	-10.1739
ner	-10.1742
▁पुरस्कार	-10.1743
▁निर्भर	-10.175
ड़ी	-10.1751
▁Air	-10.1753
▁साबित	-10.1754
▁कितनी	-10.1756
▁political	-10.1757
▁2023	-10.1759
▁budget	-10.1765
▁essential	-10.1771
▁उम्मीदवार	-10.1774
गे	-10.1774
▁संपत्ति	-10.1776
▁डि	-10.1778
वै	-10.178
▁सत्र	-10.1782
▁avoid	-10.1787
▁reduce	-10.1791
▁करनी	-10.1797
da	-10.1798
▁cool	-10.1805
▁बरे	-10.181
▁families	-10.1814
▁devices	-10.182
▁तस्वीर	-10.1821
▁2005	-10.1821
ul	-10.1822
▁अधिकांश	-10.1822
▁dog	-10.1829
▁experienced	-10.1835
▁condition	-10.1836
▁effects	-10.1841
▁College	-10.1844
▁August	-10.1846
▁निष्कर्ष	-10.1847
▁शिक्षक	-10.1848
▁तलाश	-10.185
▁easier	-10.185
▁offered	-10.1854
▁note	-10.1856
▁बच्चन	-10.1862
▁pages	-10.187
se	-10.187
▁पे	-10.1872
ेड	-10.1873
▁super	-10.1875
▁मर	-10.1886
▁हमारा	-10.1887
नो	-10.1894
▁पूछा	-10.1895
▁feeling	-10.1896
▁gift	-10.19
▁double	-10.1903
14	-10.1904
▁अर	-10.1907
ंड	-10.191
▁अतः	-10.1912
▁निकल	-10.1914
▁निकायों	-10.1916
▁December	-10.1922
▁supply	-10.1927
स्य	-10.1927
▁निगम	-10.1928
▁80	-10.1931
▁हन	-10.1933
▁भेज	-10.1933
▁custom	-10.1936
▁इंग्लैंड	-10.1936
▁eat	-10.1936
▁court	-10.1937
▁तभी	-10.1937
▁basis	-10.1945
▁beginning	-10.1946
▁पेज	-10.1948
▁Good	-10.1953
▁कोविड	-10.1953
▁सि	-10.1961
▁उपस्थित	-10.197
▁en	-10.1971
▁expect	-10.1972
▁बनाकर	-10.1974
▁धार्मिक	-10.1979
▁released	-10.1984
▁shown	-10.1996
▁charge	-10.1997
▁रूसी	-10.1997
एस	-10.2006
▁2011	-10.2011
▁शाह	-10.2024
▁serve	-10.2033
ठ	-10.2037
सर	-10.2038
▁Although	-10.2039
▁trade	-10.2041
▁former	-10.2047
▁complex	-10.2047
▁रा	-10.2053
▁शब्दों	-10.2055
▁delivery	-10.2058
▁संग्रह	-10.2059
▁Business	-10.206
▁मिलती	-10.2066
▁active	-10.2067
ca	-10.2069
▁Make	-10.2073
▁basic	-10.2075
▁अदालत	-10.2088
▁useful	-10.2101
▁बेटे	-10.2103
▁THE	-10.2104
▁पाई	-10.2105
▁November	-10.2105
▁Saturday	-10.2107
▁घंटा	-10.211
▁rates	-10.2112
▁economic	-10.2113
▁खो	-10.2115
वादी	-10.2117
▁भेजा	-10.2121
▁बिल्कुल	-10.2124
▁gave	-10.213
▁यूपी	-10.213
▁wasn	-10.2134
▁गर्म	-10.2135
▁character	-10.2136
▁अइसन	-10.2159
▁regarding	-10.216
▁uses	-10.217
▁समग्र	-10.2171
▁spent	-10.2173
▁associated	-10.2174
▁डे	-10.2174
▁|	-10.2179
12	-10.2181
▁feet	-10.2184
▁select	-10.2188
▁शव	-10.2189
▁Man	-10.219
▁anti	-10.2193
▁खरीद	-10.2193
▁played	-10.22
▁स्रोत	-10.2203
▁प्रा	-10.2204
▁अल	-10.2204
ally	-10.2208
old	-10.221
▁पहिला	-10.221
▁Mar	-10.2212
▁truly	-10.2213
▁ideal	-10.2216
▁2021	-10.2218
▁certainly	-10.2218
▁फूल	-10.222
▁आंदोलन	-10.2222
▁परिवहन	-10.2224
इस	-10.2226
▁glass	-10.2227
▁tried	-10.2236
▁East	-10.2236
▁Today	-10.2238
▁आवत	-10.224
▁सकें	-10.2242
मैन	-10.2242
▁नौ	-10.2245
▁गुजरात	-10.2247
▁join	-10.2257
▁वरिष्ठ	-10.2259
▁पहुंचा	-10.2263
▁ऊंचाई	-10.2269
▁overall	-10.2286
▁European	-10.2289
▁existing	-10.2291
▁संसार	-10.2292
▁राजनीति	-10.2298
▁direct	-10.2302
▁खूब	-10.231
▁wedding	-10.2311
▁लिंक	-10.2312
▁सन्	-10.2315
▁नाय	-10.2323
▁पैसे	-10.2326
▁firm	-10.2328
▁माह	-10.2331
▁अव	-10.2332
▁75	-10.2332
▁महान	-10.2332
▁baby	-10.2337
▁होवै	-10.2338
men	-10.234
▁कप्तान	-10.234
▁सेवन	-10.2344
▁Street	-10.2345
▁beyond	-10.2347
▁pictures	-10.2347
▁फीसदी	-10.2348
▁खुश	-10.2358
▁Red	-10.2361
▁largest	-10.2376
▁रो	-10.238
▁परेशान	-10.2384
▁गेम	-10.2391
▁deep	-10.2393
▁छूट	-10.2396
▁finish	-10.2397
▁अनुकूलित	-10.2398
▁responsible	-10.2401
▁Click	-10.2409
▁टेबल	-10.2416
▁विवाह	-10.2417
▁coffee	-10.2426
▁increased	-10.2432
we	-10.2432
▁छोटा	-10.2434
▁schools	-10.2439
▁वैज्ञानिक	-10.2441
▁नोट	-10.2441
▁बरामद	-10.2444
▁विवाद	-10.2448
▁selection	-10.2454
▁player	-10.2458
▁produce	-10.2459
▁जिन्हें	-10.2461
▁war	-10.2461
11	-10.2463
ka	-10.2465
▁बिक्री	-10.247
▁आवाज	-10.2472
▁particularly	-10.2477
▁पार्क	-10.2484
▁protection	-10.2491
▁गृह	-10.2492
▁Le	-10.2493
▁पंचायत	-10.2494
▁व्यवसाय	-10.2499
▁pass	-10.25
▁बाइक	-10.2508
▁brought	-10.2514
▁१६	-10.2514
▁com	-10.2524
▁संस्थान	-10.2525
▁weekend	-10.2525
▁मइँ	-10.253
▁डाल	-10.2532
▁setting	-10.2533
▁पात्र	-10.2533
▁मॉड्यूल	-10.2535
▁जिनका	-10.2543
▁journey	-10.255
▁कृष्ण	-10.2552
▁achieve	-10.2558
▁परमाणु	-10.2561
▁effort	-10.2562
▁प्रमाण	-10.2562
▁दर्द	-10.2566
▁stories	-10.2567
▁अभ्यास	-10.2567
▁चित्र	-10.257
▁पैर	-10.257
▁लीजिए	-10.2571
▁पारी	-10.2575
▁comfortable	-10.2575
▁मालिक	-10.2578
▁lots	-10.2581
▁समुदाय	-10.2583
▁degree	-10.2584
काल	-10.259
▁मगर	-10.2593
मेंट	-10.2593
▁college	-10.26
▁इंतजार	-10.2605
end	-10.2607
▁sell	-10.2609
▁गुणा	-10.261
▁मिलाकर	-10.261
▁2010	-10.2615
▁अभिव्यक्ति	-10.2619
▁structure	-10.2619
Q	-10.262
▁स्थल	-10.2622
▁Art	-10.2623
▁born	-10.2624
▁Board	-10.2628
▁movie	-10.2631
▁दिवस	-10.2633
▁patient	-10.2637
▁payment	-10.264
▁कोशिका	-10.2641
▁See	-10.2642
▁creative	-10.2648
▁appropriate	-10.2649
▁आयु	-10.2652
▁gets	-10.2652
▁प्राथमिक	-10.2655
▁immediately	-10.2658
पाल	-10.2665
▁heard	-10.2667
▁उपस्थिति	-10.2667
▁कहत	-10.2669
सु	-10.267
▁Check	-10.2678
▁weather	-10.2682
▁वांछित	-10.2683
▁warm	-10.2686
▁सिफारिश	-10.2688
▁लखनऊ	-10.2699
▁खड़ा	-10.2699
▁बतावत	-10.2699
▁फैंस	-10.2701
▁stuff	-10.2702
▁लड़ाई	-10.2704
▁जुड़ा	-10.2708
▁bottom	-10.271
▁करेगी	-10.2713
▁Windows	-10.2713
▁Jesus	-10.2717
▁सीजन	-10.2721
▁तनाव	-10.2725
▁करियर	-10.2728
▁White	-10.273
▁Internet	-10.2731
▁तीनों	-10.2734
▁सारा	-10.2739
▁कमरे	-10.2747
▁पुष्टि	-10.2748
▁gas	-10.2757
▁ग्रामीण	-10.2758
▁completed	-10.2761
▁eyes	-10.2764
▁बनाना	-10.277
▁सीमित	-10.2771
▁लक्षण	-10.2771
रण	-10.2773
▁होटल	-10.2778
▁हरियाणा	-10.2779
▁annual	-10.2782
▁पेट	-10.2784
▁आधिकारिक	-10.2788
▁ग्रहण	-10.2793
▁विशाल	-10.2793
▁Use	-10.2796
▁दान	-10.2798
▁highest	-10.28
▁इनका	-10.2802
▁mother	-10.2803
▁सामान	-10.2803
▁हाई	-10.2804
▁Association	-10.2804
▁सितंबर	-10.2804
▁challenge	-10.2814
▁window	-10.2816
▁वित्तीय	-10.2825
▁डा	-10.2832
▁वापसी	-10.2834
▁कइसे	-10.2837
▁prior	-10.2848
▁normal	-10.2849
▁income	-10.2858
▁Green	-10.2861
▁jobs	-10.2866
▁मेडिकल	-10.2869
▁evidence	-10.2871
▁मौजूदा	-10.2874
▁पाप	-10.2875
▁helping	-10.2877
▁होई	-10.2877
▁गेट	-10.2881
▁आबादी	-10.2881
▁लोकप्रिय	-10.2881
▁महाराष्ट्र	-10.2883
▁एक्ट्रेस	-10.2884
".	-10.2884
▁उसको	-10.2885
▁इलाके	-10.2891
▁शांति	-10.2892
▁पैटर्न	-10.2899
▁furniture	-10.2902
▁अनुरूप	-10.2904
▁disease	-10.2906
▁अधिनियम	-10.2911
▁studies	-10.2911
▁गै	-10.2914
▁repair	-10.2914
▁files	-10.2923
▁thanks	-10.293
▁remove	-10.2931
▁sun	-10.2933
▁gold	-10.2936
®	-10.2944
▁टिकट	-10.2946
▁जरिए	-10.2946
▁item	-10.2949
▁केंद्रित	-10.2956
way	-10.2957
▁शुद्ध	-10.2958
▁son	-10.2965
▁reasons	-10.2975
▁path	-10.2979
▁author	-10.2984
▁Europe	-10.2988
▁tour	-10.2988
▁dry	-10.299
▁पुनरावृत्ति	-10.2996
@	-10.2999
▁bank	-10.2999
li	-10.3002
▁स्त्री	-10.3004
▁पुराने	-10.3004
▁स्टार	-10.3006
▁उपाय	-10.3014
▁blue	-10.3021
▁नये	-10.3022
▁संरक्षण	-10.3025
▁trust	-10.303
ler	-10.3031
▁protect	-10.3033
rd	-10.3034
▁आखिरी	-10.3038
▁अनुकूल	-10.3039
▁हमार	-10.3043
▁लॉन्च	-10.3045
अप	-10.3049
▁extremely	-10.3054
▁रखी	-10.3054
▁strategy	-10.3062
▁प्रचार	-10.3064
ंस	-10.3069
é	-10.3072
▁powerful	-10.3077
▁स्वामी	-10.3079
mo	-10.3087
▁follows	-10.309
▁चली	-10.3092
▁button	-10.3092
▁जय	-10.3095
▁ईश्वर	-10.3096
▁वाक्यांश	-10.3096
▁maybe	-10.31
▁दिहिस	-10.3101
एल	-10.3105
▁models	-10.3106
ating	-10.3107
▁knew	-10.3111
▁update	-10.3113
▁दुकान	-10.3116
▁race	-10.3117
▁steps	-10.3117
▁300	-10.3123
▁plus	-10.3128
15	-10.313
▁मिलकर	-10.3131
पिता	-10.3133
▁ऐतिहासिक	-10.3134
▁परिणामस्वरूप	-10.3134
▁ऑस्ट्रेलिया	-10.3135
▁३०	-10.3136
ात्मक	-10.3141
ce	-10.3142
▁finally	-10.3145
▁War	-10.3146
▁काव्य	-10.3155
▁sea	-10.3164
▁Over	-10.3168
▁बाहरी	-10.317
▁पकड़	-10.3174
▁church	-10.3175
▁engine	-10.3177
▁नवंबर	-10.3178
▁बैठे	-10.3194
▁ब्रह्म	-10.3195
्या	-10.3195
▁During	-10.3198
▁claim	-10.3204
भाव	-10.3208
▁cold	-10.3208
▁जई	-10.3209
▁Australia	-10.3213
▁ओका	-10.3214
▁जुड़ी	-10.3216
▁१८	-10.3219
▁Yes	-10.322
▁turned	-10.3222
den	-10.3224
▁ब्लॉक	-10.3225
▁Love	-10.3226
▁February	-10.3228
▁भू	-10.3229
▁k	-10.323
▁Canada	-10.3231
▁cards	-10.3232
ac	-10.3234
▁teaching	-10.3235
sh	-10.3236
▁lines	-10.3242
ha	-10.3247
▁संयोजन	-10.3253
▁कहाँ	-10.3254
▁भेद	-10.3255
▁estate	-10.3255
▁कठिन	-10.326
org	-10.3262
▁देंगे	-10.3267
▁rules	-10.3268
▁compared	-10.3272
▁Act	-10.3273
▁गु	-10.3277
▁भले	-10.3278
▁बंगाल	-10.328
▁400	-10.329
▁ball	-10.3292
▁इन्हें	-10.3297
▁अवस्था	-10.3299
▁सारी	-10.33
▁प्रारूप	-10.3302
ke	-10.3306
▁Because	-10.3319
▁science	-10.3323
खा	-10.3329
▁changed	-10.3329
▁agree	-10.3332
▁wear	-10.3332
▁h	-10.3338
▁शारीरिक	-10.3343
▁एच	-10.3354
▁प्रसाद	-10.3356
▁greater	-10.3361
▁फिलहाल	-10.3362
im	-10.3368
ेस	-10.338
वत	-10.3384
▁भवन	-10.3386
▁मानसिक	-10.3392
25	-10.3393
▁पद्धति	-10.3398
▁Con	-10.3402
▁समस्याओं	-10.3404
www	-10.3405
▁माँ	-10.3408
▁वर्ल्ड	-10.3409
▁states	-10.3412
term	-10.3412
▁nearly	-10.3412
नाम	-10.3413
for	-10.3417
▁लाने	-10.3418
lo	-10.3423
▁pool	-10.3424
पि	-10.343
▁garden	-10.3433
▁connection	-10.3433
▁ऑब्जेक्ट	-10.3435
हर	-10.3439
▁लगाए	-10.344
▁खड़े	-10.3441
▁pieces	-10.3444
▁PM	-10.3447
▁helped	-10.3447
▁campaign	-10.3449
▁घ	-10.3453
▁Design	-10.3457
▁Council	-10.3459
▁विपरीत	-10.3459
▁अचानक	-10.3462
▁welcome	-10.3462
▁correct	-10.3464
▁reported	-10.3468
▁शुरुआती	-10.3481
▁दशक	-10.3485
▁saying	-10.3485
▁balance	-10.3486
▁इकाई	-10.3486
di	-10.349
▁Hindi	-10.3493
▁although	-10.3499
▁जोड़ा	-10.3499
▁larger	-10.3503
▁dark	-10.3509
▁विमान	-10.3511
▁established	-10.3514
▁चोरी	-10.352
सि	-10.352
टो	-10.3522
▁Have	-10.3523
▁reports	-10.3525
ent	-10.3526
▁homes	-10.3527
▁Office	-10.3527
▁समाचार	-10.3531
▁cancer	-10.3538
▁जिन्होंने	-10.3541
ite	-10.3542
▁चोट	-10.3545
▁numbers	-10.3548
स्त	-10.356
▁समारोह	-10.3563
▁served	-10.3572
▁रक्त	-10.3577
▁अनुक्रम	-10.3578
▁घरेलू	-10.3582
▁न्याय	-10.3583
▁अंग	-10.3584
▁पि	-10.3586
पूर्ण	-10.3589
der	-10.3593
हे	-10.3601
▁सेंटर	-10.3608
▁आये	-10.3608
▁किहिस	-10.3608
▁prevent	-10.361
▁हालत	-10.3613
▁पचे	-10.3615
दि	-10.3616
▁योगी	-10.3621
▁राहत	-10.3621
ard	-10.3623
▁वाई	-10.3626
ak	-10.3629
लाल	-10.363
▁बो	-10.3631
▁रहना	-10.364
▁परि	-10.3641
▁कथा	-10.3643
▁methods	-10.3644
▁camera	-10.3649
▁soft	-10.3652
▁Court	-10.3654
▁टाइप	-10.3656
▁David	-10.3657
▁host	-10.3659
▁नष्ट	-10.3659
▁चलता	-10.366
▁Research	-10.3663
▁संचार	-10.3663
▁रोकने	-10.3668
▁चारों	-10.3668
▁billion	-10.3674
▁हवाई	-10.3676
▁task	-10.3677
▁Monday	-10.3687
▁wine	-10.3687
▁ahead	-10.369
▁la	-10.3695
▁letter	-10.3695
▁आवश्यकताओं	-10.3701
▁हमले	-10.3704
▁allowed	-10.371
▁sharing	-10.3714
▁पो	-10.3714
▁शोध	-10.3714
▁tips	-10.3724
▁विदेश	-10.3727
▁बहु	-10.3729
▁शुभ	-10.3729
▁Will	-10.3734
▁deliver	-10.3735
▁बोल	-10.3736
दे	-10.3736
▁title	-10.3741
ber	-10.3746
टे	-10.3747
ial	-10.376
▁तंत्र	-10.3763
wood	-10.3765
▁opening	-10.3768
▁drop	-10.3773
▁निर्धारण	-10.3773
ष	-10.3773
▁middle	-10.3782
▁ब्रिटिश	-10.3786
▁generally	-10.3787
▁इनकी	-10.3789
▁l	-10.3792
▁lack	-10.3798
▁नव	-10.38
▁announced	-10.3801
▁act	-10.3804
▁रखत	-10.3807
▁मैट्रिक्स	-10.3812
▁पड़े	-10.3815
▁अज्ञात	-10.382
▁लंबा	-10.3829
▁sold	-10.383
▁police	-10.3831
▁band	-10.3842
▁रखै	-10.3843
▁सुन	-10.3845
▁शिकार	-10.385
सिंह	-10.3851
▁गे	-10.3854
▁Ka	-10.3863
▁official	-10.3869
▁फिल्मों	-10.3873
▁सफेद	-10.3874
▁sleep	-10.3874
▁views	-10.3874
▁लगावै	-10.3876
▁भूल	-10.3882
ाय	-10.3883
▁गोल	-10.3885
▁Ar	-10.3886
lin	-10.3886
▁cell	-10.3886
▁spot	-10.3886
▁पुस्तक	-10.3891
५	-10.3892
▁met	-10.3892
▁अरब	-10.3894
▁साधारण	-10.3896
बे	-10.3897
▁technical	-10.3898
▁finished	-10.3904
ise	-10.3907
▁अली	-10.3908
ex	-10.3912
▁कविता	-10.3913
▁समानता	-10.3917
ize	-10.3918
▁ड	-10.3919
▁Hi	-10.3922
ां	-10.3923
if	-10.3929
▁प्रतीक	-10.3929
▁requires	-10.3929
led	-10.393
ya	-10.3931
▁father	-10.3932
▁42	-10.3932
▁पहुंची	-10.3934
▁mid	-10.3936
▁enter	-10.3936
▁moved	-10.3937
In	-10.3938
▁Web	-10.394
▁fish	-10.3941
▁मुकाबले	-10.3941
▁teams	-10.3941
▁वितरण	-10.3944
▁आनंद	-10.3945
off	-10.3946
▁प्रेरित	-10.3947
▁Another	-10.3947
▁Take	-10.3948
▁Management	-10.395
ology	-10.395
▁अपराध	-10.3951
▁According	-10.3954
ana	-10.3966
▁ट्विटर	-10.3966
▁गवा	-10.3968
▁Add	-10.3975
▁maintain	-10.3977
▁followed	-10.3978
▁serious	-10.3978
▁आराम	-10.3979
▁communication	-10.3979
▁capital	-10.3981
▁fill	-10.3987
सो	-10.3987
▁बदलने	-10.3989
▁reviews	-10.399
▁loan	-10.3991
▁schedule	-10.4
▁इतने	-10.4
▁जिनके	-10.4001
▁miles	-10.4009
ee	-10.4009
▁खुशी	-10.4011
▁efforts	-10.4014
▁3,	-10.4015
▁print	-10.4017
he	-10.402
▁@	-10.402
न्	-10.4022
▁People	-10.4023
▁चलने	-10.4025
▁primary	-10.4031
▁owner	-10.4033
▁चुनौती	-10.4036
▁organizations	-10.4041
▁earlier	-10.4042
▁brain	-10.4052
▁Apple	-10.4057
▁alone	-10.4061
▁बॉक्स	-10.4062
जो	-10.4066
▁लोकसभा	-10.4067
▁looked	-10.4068
▁sweet	-10.4071
▁विभाजन	-10.4072
▁९	-10.4084
▁नोड	-10.409
▁fan	-10.4091
्र	-10.4091
▁एव	-10.4094
▁notice	-10.4097
▁voice	-10.4097
▁सुपर	-10.4097
▁experts	-10.4105
▁traffic	-10.411
▁developing	-10.4118
मु	-10.4118
▁advantage	-10.4119
▁वैश्विक	-10.412
▁driving	-10.4131
▁therefore	-10.4132
▁अद्वितीय	-10.4135
मि	-10.4135
▁Pre	-10.4137
▁shared	-10.4138
▁comment	-10.4141
▁मात्र	-10.4143
ba	-10.4147
▁क्लास	-10.4147
ier	-10.4149
▁respect	-10.415
तो	-10.4153
▁cleaning	-10.4156
so	-10.4158
▁सैन्य	-10.4161
▁appear	-10.4166
▁पु	-10.4168
▁सिटी	-10.4169
िल	-10.417
▁मो	-10.417
▁बताते	-10.4173
▁डाटा	-10.4175
▁150	-10.4176
▁En	-10.4177
▁सर्वर	-10.4181
▁standards	-10.4186
▁cross	-10.4188
▁कुशल	-10.419
▁कपड़े	-10.4192
▁खतरा	-10.42
▁तत्वन	-10.4207
▁वित्त	-10.4207
▁त्वचा	-10.4209
▁फीट	-10.4209
19	-10.421
▁challenges	-10.4212
▁छोड़कर	-10.4212
▁रणनीति	-10.4216
▁पड़ी	-10.4217
▁elements	-10.4224
▁perhaps	-10.4227
▁न्यू	-10.4235
▁tea	-10.4237
▁पुन	-10.4237
▁secure	-10.4243
▁दोपहर	-10.4243
▁carry	-10.4243
▁Any	-10.4245
▁परिकल्पना	-10.4246
▁holiday	-10.4247
▁स्वस्थ	-10.425
▁सुना	-10.425
फ़	-10.4255
▁गुना	-10.427
▁Bo	-10.4272
▁ओन	-10.4275
▁woman	-10.4279
▁remain	-10.4282
▁shopping	-10.4283
▁चीज	-10.4284
▁आउट	-10.429
▁covered	-10.4291
ीकरण	-10.4293
▁बल्लेबाज	-10.4295
ge	-10.4296
It	-10.4297
▁आवास	-10.4297
त्र	-10.43
▁अहइ	-10.43
▁प्रकट	-10.4303
रू	-10.4306
▁Club	-10.4312
▁assist	-10.4314
ah	-10.4315
▁progress	-10.4321
▁Life	-10.4323
▁finding	-10.4325
▁steel	-10.4326
बल	-10.4332
▁बुद्धि	-10.4336
घ	-10.4336
▁server	-10.4336
▁संसाधन	-10.4337
▁metal	-10.4341
▁statement	-10.4343
▁actual	-10.4345
ni	-10.4362
▁प्रगति	-10.4363
▁manage	-10.4367
▁जानत	-10.4377
▁stress	-10.4382
ंट	-10.4386
▁Every	-10.4386
▁दुनौ	-10.439
▁मानना	-10.439
▁कहने	-10.4391
▁अभिनेता	-10.4391
▁winter	-10.4394
▁सुंदर	-10.4396
ाव	-10.4397
३	-10.4401
▁स्वागत	-10.4401
▁El	-10.4403
▁onto	-10.4403
▁जोड़ें	-10.4406
▁session	-10.4407
▁रहेन	-10.4409
▁sort	-10.4412
▁determine	-10.4414
▁चाहती	-10.442
▁rich	-10.4423
ण्ड	-10.4424
em	-10.4424
▁हां	-10.4427
▁song	-10.4432
शा	-10.4432
▁फायदा	-10.4433
▁et	-10.4436
▁River	-10.4441
▁experiences	-10.4445
▁Call	-10.4446
नगर	-10.4448
▁जइसन	-10.4449
▁न्यायालय	-10.4451
▁foot	-10.4452
▁Institute	-10.4457
▁वस्तुओं	-10.446
▁पीड़ित	-10.4466
▁talking	-10.4467
▁सलमान	-10.4468
▁होनी	-10.4471
▁संबोधित	-10.4474
▁Washington	-10.4478
▁तट	-10.4479
▁2009	-10.4482
и	-10.4483
▁flow	-10.4484
▁33	-10.4485
ham	-10.4485
▁मित्र	-10.4485
▁नियंत्रित	-10.4487
▁listed	-10.4489
▁गिनती	-10.4489
▁डिजिटल	-10.449
▁force	-10.4493
▁जिम्मेदारी	-10.4498
▁हिंदी	-10.4499
▁wants	-10.4502
ेश	-10.4503
▁हा	-10.4506
▁करौ	-10.4509
▁parties	-10.451
▁handle	-10.4511
sa	-10.4513
चा	-10.4513
र्	-10.4513
▁जोड़ी	-10.4516
▁background	-10.4517
▁shape	-10.4519
▁बीते	-10.452
▁colors	-10.4521
▁चुनें	-10.4523
▁चैनल	-10.4523
▁dedicated	-10.4525
ists	-10.4526
▁movement	-10.4528
▁thank	-10.4529
▁critical	-10.4529
▁himself	-10.4533
▁target	-10.4535
▁friendly	-10.4548
▁exercise	-10.4552
▁सम्मेलन	-10.4561
▁संशोधन	-10.4562
▁मना	-10.4564
▁Whether	-10.4565
▁flat	-10.4565
▁मान्यता	-10.4567
▁values	-10.4567
रिया	-10.4572
tic	-10.4573
45	-10.4576
▁learned	-10.4579
▁बनाता	-10.4581
▁Water	-10.4583
▁पहुंचने	-10.4589
▁इंजन	-10.4593
▁master	-10.4599
▁अपेक्षा	-10.4599
ا	-10.4601
▁रास्ता	-10.4604
▁transfer	-10.4608
▁रुचि	-10.4609
▁professionals	-10.4609
▁2000	-10.4611
▁park	-10.4615
▁IT	-10.4616
शन	-10.4617
▁उक्त	-10.4619
▁उइ	-10.462
एक्स	-10.462
▁partner	-10.4624
-2	-10.4627
▁दौड़	-10.4632
▁आकर	-10.4633
=	-10.4636
▁wife	-10.464
24	-10.4642
▁$1	-10.4651
▁मह	-10.4656
▁copy	-10.4657
▁आंतरिक	-10.466
▁block	-10.4666
यर	-10.4666
▁Paul	-10.4669
▁गोली	-10.4671
tra	-10.4671
▁Road	-10.4676
▁सागर	-10.4677
▁वेतन	-10.4678
▁स्क्रिप्ट	-10.4681
▁केहू	-10.4685
▁देखभाल	-10.4685
ेंट	-10.4688
▁भीड़	-10.4694
डो	-10.4695
▁aren	-10.4697
▁कमजोर	-10.4699
▁कंपनियों	-10.4699
▁ताकत	-10.4704
▁पुरानी	-10.4711
▁prepared	-10.4712
▁अत्यधिक	-10.4714
▁रास्ते	-10.472
▁advanced	-10.472
▁ध	-10.4722
▁whose	-10.4722
▁Read	-10.4727
▁comments	-10.4732
▁Lake	-10.4732
▁factors	-10.4737
▁contains	-10.474
▁meaning	-10.4741
यन	-10.4744
▁मंच	-10.4744
▁links	-10.4745
▁पूछताछ	-10.4747
io	-10.4751
▁लोड	-10.4752
▁पक्षों	-10.4752
▁perform	-10.4754
▁French	-10.4758
▁British	-10.4758
field	-10.4758
▁गतिविधि	-10.4761
▁भरा	-10.4764
▁वर्ण	-10.4764
60	-10.4765
house	-10.4767
pm	-10.4771
▁tree	-10.4778
▁कारन	-10.4781
▁सफाई	-10.4783
▁facilities	-10.4783
▁लौट	-10.4785
▁मानते	-10.4788
ga	-10.479
▁सिद्धांत	-10.4791
▁संकट	-10.4793
▁seven	-10.4796
▁मंडल	-10.4799
▁comfort	-10.48
▁lose	-10.4801
▁Church	-10.4804
▁testing	-10.4806
▁produced	-10.4808
▁ten	-10.481
▁वायु	-10.4811
▁जिसने	-10.4813
▁press	-10.4824
▁करी	-10.4826
▁memory	-10.4827
▁प्रोटीन	-10.4829
dy	-10.4833
▁demand	-10.4835
▁audience	-10.4836
ence	-10.4837
▁solid	-10.484
आर	-10.4841
▁बोली	-10.4842
▁cells	-10.4843
लि	-10.4843
▁Find	-10.4844
▁जिम्मेदार	-10.4845
▁आदर्श	-10.4849
▁http	-10.4854
▁कोच	-10.4855
▁नागरिक	-10.486
▁हिंसा	-10.4862
▁दिखाया	-10.4863
▁पदों	-10.4865
▁guests	-10.4868
▁आखिर	-10.4868
▁Post	-10.4873
▁हाथों	-10.4874
गत	-10.4875
▁जु	-10.4878
▁spring	-10.4883
▁explore	-10.489
वां	-10.4895
▁separate	-10.4895
नाथ	-10.4897
▁cars	-10.4897
▁haven	-10.4899
free	-10.49
▁Christ	-10.4902
▁”	-10.4903
▁री	-10.4907
▁distance	-10.4907
▁एप्लिकेशन	-10.4911
▁vision	-10.4916
▁classic	-10.4917
▁club	-10.4919
▁कार्यान्वयन	-10.492
▁निष्पादित	-10.492
▁Other	-10.4922
▁धन्यवाद	-10.4926
les	-10.4927
▁इं	-10.4929
वाल	-10.4931
▁speak	-10.4932
▁plants	-10.4933
▁Di	-10.4934
धीरे	-10.4935
▁नेशनल	-10.4937
▁Open	-10.4939
▁techniques	-10.4941
▁शा	-10.4942
▁जड़	-10.4942
▁रहेंगे	-10.4945
▁हैंः	-10.4946
▁selected	-10.4947
▁plenty	-10.4948
▁मिट्टी	-10.4948
▁Un	-10.4949
▁दाम	-10.4949
side	-10.4952
▁contract	-10.4957
▁स्वतंत्र	-10.4958
au	-10.4961
):	-10.4961
▁century	-10.4963
▁classes	-10.4963
▁seeing	-10.4966
▁expert	-10.4966
▁population	-10.4968
▁कहां	-10.4978
▁चेहरे	-10.4978
▁placed	-10.4982
wa	-10.4984
▁named	-10.4984
▁discuss	-10.4986
\	-10.4987
▁updated	-10.4988
▁relevant	-10.4992
▁पश्चिमी	-10.4992
▁buying	-10.4996
▁मिलते	-10.4997
▁General	-10.4998
▁forms	-10.5001
▁leaders	-10.5004
▁एजेंसी	-10.5009
▁waste	-10.5014
▁core	-10.5025
स्क	-10.503
▁परिसर	-10.5031
ja	-10.5033
▁पुल	-10.5036
▁kept	-10.504
▁जानवर	-10.5042
▁score	-10.5048
ॅ	-10.5049
▁महामारी	-10.505
▁installation	-10.505
ान	-10.5051
▁यूरोपीय	-10.5056
▁स्मृति	-10.5057
ास	-10.5058
▁सोने	-10.5067
▁सेमी	-10.5071
▁operations	-10.5076
▁ऐ	-10.5078
▁समस्त	-10.508
▁Bank	-10.5082
▁होंगी	-10.5084
▁Bay	-10.5084
....	-10.5088
▁gain	-10.5089
▁passed	-10.5089
▁बहन	-10.509
▁cities	-10.5093
ron	-10.5095
ाना	-10.5097
▁Law	-10.5098
▁Florida	-10.5099
कल	-10.51
▁Mac	-10.5101
▁husband	-10.5102
दो	-10.511
▁Who	-10.5114
▁direction	-10.5117
▁वै	-10.5119
▁ग्रह	-10.5121
▁बीज	-10.5126
▁कश्मीर	-10.5127
▁अंतर्गत	-10.5127
▁लि	-10.513
▁evening	-10.5132
▁heavy	-10.5133
▁owners	-10.5137
▁ice	-10.5138
▁driver	-10.5144
िट	-10.5149
▁poor	-10.5149
▁maintenance	-10.515
ping	-10.5151
▁gone	-10.5151
▁essay	-10.5152
▁funds	-10.5158
▁status	-10.5159
▁चा	-10.5167
▁स्थानों	-10.5168
tro	-10.5169
▁तोड़	-10.5169
▁संसद	-10.5176
चर	-10.5183
▁famous	-10.5183
▁टॉप	-10.5186
▁central	-10.519
▁हटाने	-10.5194
ार्थ	-10.5197
▁length	-10.52
▁capacity	-10.5201
▁यादृच्छिक	-10.5206
%	-10.5209
▁पुनः	-10.5212
▁couldn	-10.5213
▁presented	-10.5213
▁smaller	-10.5219
ेंगे	-10.5223
▁भगवान्	-10.5223
▁धातु	-10.5225
▁अपील	-10.5225
▁प्रारंभिक	-10.5226
▁निगरानी	-10.5228
▁अन्त	-10.523
40	-10.5233
▁प्रभारी	-10.5239
▁मिलेगी	-10.5239
ring	-10.5242
▁घटनाओं	-10.5245
▁forget	-10.5246
▁proper	-10.5246
▁taste	-10.5247
▁strength	-10.5255
▁शब्दकोश	-10.5256
चरण	-10.5259
▁यहिमा	-10.5259
▁रहै	-10.526
▁Chinese	-10.5261
▁numerous	-10.5262
▁fee	-10.5268
▁USA	-10.527
▁बुरा	-10.5273
▁visitors	-10.5274
▁communities	-10.5278
▁आपूर्ति	-10.5278
▁initial	-10.5287
▁ठाकुर	-10.5288
▁कनेक्शन	-10.5297
▁ग्रुप	-10.5298
over	-10.5298
▁समितियों	-10.5305
▁biggest	-10.5307
▁keeping	-10.5312
ster	-10.5313
▁Last	-10.5314
▁बिलकुल	-10.5317
▁coverage	-10.5318
▁पशु	-10.5319
▁competition	-10.5328
▁उत्तरी	-10.5331
ville	-10.5334
▁यूरोप	-10.5336
▁इंच	-10.5341
ार	-10.5342
▁वर्षीय	-10.5345
▁adding	-10.5345
▁अंतरराष्ट्रीय	-10.5345
▁गंगा	-10.5347
▁कौनो	-10.5347
▁फ़ाइल	-10.535
▁reality	-10.5353
▁Indian	-10.5354
▁खाते	-10.5358
▁क्लब	-10.5359
▁plastic	-10.5359
▁हित	-10.536
▁changing	-10.536
▁Director	-10.5362
▁paint	-10.5364
back	-10.5367
*	-10.5368
▁पढ़ाई	-10.5376
▁vs	-10.5376
णा	-10.5377
▁खासकर	-10.5378
▁sector	-10.5379
▁Like	-10.5379
▁विज्ञापन	-10.538
▁हिसाब	-10.5384
▁दर्शाता	-10.5384
▁helpful	-10.5385
▁James	-10.5386
▁शताब्दी	-10.5387
▁director	-10.5387
18	-10.5387
▁alternative	-10.5396
▁rooms	-10.5398
▁connected	-10.5399
▁economy	-10.54
▁Mark	-10.5403
▁Texas	-10.5403
▁मुलाकात	-10.5409
▁bag	-10.5415
▁विशेषज्ञ	-10.5415
▁मालूम	-10.5419
▁conference	-10.5421
▁figure	-10.5422
▁साधन	-10.5427
▁concept	-10.5429
▁मतदान	-10.5429
▁Two	-10.543
▁Education	-10.5436
▁अध्यक्षता	-10.5447
▁थाने	-10.5448
▁Super	-10.5449
▁ex	-10.5451
▁mix	-10.5451
▁connect	-10.5454
▁जावास्क्रिप्ट	-10.5458
▁shot	-10.546
▁military	-10.5462
op	-10.547
यें	-10.5471
▁सांस्कृतिक	-10.5474
▁लंबी	-10.5474
▁रोज	-10.5474
net	-10.5479
▁जानने	-10.548
▁outdoor	-10.5484
▁fans	-10.5489
▁fuel	-10.5491
ut	-10.5493
ft	-10.5494
min	-10.5497
▁जिक्र	-10.5497
▁सवार	-10.5503
▁install	-10.5503
छ	-10.5504
▁खेला	-10.5505
▁जोखिम	-10.5506
▁सुप्रीम	-10.5507
▁दिहिन	-10.5508
▁drug	-10.5509
▁हाउस	-10.5512
▁साथी	-10.5518
▁सदा	-10.552
▁package	-10.5522
▁independent	-10.5523
▁Ha	-10.5523
▁Tuesday	-10.5523
▁परामर्श	-10.5526
▁straight	-10.5527
▁सका	-10.5528
▁संगठनों	-10.5529
▁बैग	-10.5532
▁properties	-10.5539
▁सुनवाई	-10.5539
▁तकनीकी	-10.5539
▁प्रेस	-10.5542
▁सटीक	-10.5543
▁अति	-10.5545
▁Lord	-10.5546
▁Thursday	-10.5546
▁बाधा	-10.5548
▁6.	-10.555
▁हिन्दू	-10.5555
▁वाक्यन	-10.5561
▁मरीज	-10.5561
▁temperature	-10.5564
▁वीर	-10.5566
▁ज्ञात	-10.5566
▁decide	-10.5568
red	-10.5569
ina	-10.5573
▁restaurant	-10.5577
▁आहार	-10.5578
▁परम	-10.558
▁combination	-10.5582
▁ऑपरेशन	-10.5584
▁ऑक्सीजन	-10.5584
▁डाला	-10.5591
▁Government	-10.5593
▁किमी	-10.5597
▁Star	-10.56
▁सेब	-10.5605
▁संबंधी	-10.5607
▁खात	-10.5608
▁36	-10.5612
▁बढ़ने	-10.5614
▁लीग	-10.562
▁संजय	-10.5621
ोप	-10.5624
▁जोड़ने	-10.5625
▁PC	-10.5629
▁eight	-10.5632
▁square	-10.5633
▁मिशन	-10.5634
लर	-10.5635
▁workers	-10.5641
▁beach	-10.5641
▁expensive	-10.5648
▁प्रोजेक्ट	-10.5648
▁Am	-10.5648
▁परेशानी	-10.565
▁टूट	-10.5652
▁slow	-10.5653
like	-10.5654
▁अगला	-10.5661
▁medium	-10.5666
▁१४	-10.5668
▁residents	-10.5669
▁रखे	-10.5671
▁Time	-10.5673
▁असली	-10.5674
▁पूर्वी	-10.5674
▁fantastic	-10.5676
▁त्याग	-10.5677
ey	-10.5677
bo	-10.568
▁आधा	-10.568
▁जिलों	-10.5685
▁dinner	-10.5686
▁बोला	-10.5687
mer	-10.5698
▁designs	-10.5699
स्	-10.5703
▁>	-10.5704
▁names	-10.5704
▁fight	-10.5709
▁academic	-10.5711
▁काय	-10.5711
▁efficient	-10.5712
▁एयर	-10.5712
▁waiting	-10.5714
▁रेखा	-10.5714
▁aware	-10.5714
▁star	-10.5719
▁लेबल	-10.5721
▁II	-10.5721
▁आकर्षक	-10.5726
Re	-10.5727
▁फाइनल	-10.573
izing	-10.5732
▁खून	-10.5736
▁diet	-10.5736
▁Online	-10.5739
all	-10.5741
▁operating	-10.5743
▁Africa	-10.5746
▁stone	-10.5749
▁लुक	-10.5749
▁कोहली	-10.5749
तु	-10.575
▁society	-10.575
▁लाग	-10.5756
▁व्यक्तियों	-10.5757
▁मरीजों	-10.576
▁निकाला	-10.5762
▁map	-10.5769
▁Project	-10.5771
ेल	-10.5774
▁फिट	-10.5774
▁पैकेज	-10.5775
▁practices	-10.5775
▁रोल	-10.5775
▁तिथि	-10.5776
▁इंटरनेट	-10.5786
▁rock	-10.5787
▁संग	-10.5792
13	-10.5793
रु	-10.5794
▁Note	-10.5795
pa	-10.5797
▁बनाये	-10.5798
▁whatever	-10.5799
▁mission	-10.5804
▁माल	-10.5805
▁दिख	-10.5806
▁sugar	-10.5806
▁updates	-10.5806
▁otherwise	-10.581
TM	-10.5813
▁कलाकार	-10.5818
▁leader	-10.5819
▁King	-10.5819
▁पत्थर	-10.5822
▁beauty	-10.5823
▁federal	-10.5823
▁documents	-10.5826
▁ते	-10.5827
▁Gold	-10.5828
▁casino	-10.5829
▁becomes	-10.5829
▁auto	-10.5834
▁टेक्स्ट	-10.5834
▁100%	-10.5839
▁नमूना	-10.5849
▁भार	-10.585
▁di	-10.5851
▁सेल	-10.5853
▁document	-10.5855
▁तत्वों	-10.5857
▁processes	-10.586
▁format	-10.5862
▁अफ्रीका	-10.5863
िनी	-10.5865
▁mentioned	-10.5866
▁पाँच	-10.5866
▁identify	-10.5869
▁processing	-10.5871
▁frame	-10.5872
▁महाराज	-10.5872
▁corporate	-10.5873
▁www	-10.5877
▁संतुलन	-10.588
▁सेकंड	-10.5881
▁भौतिक	-10.5882
▁चौधरी	-10.589
▁खुलासा	-10.589
▁interview	-10.5892
▁कहता	-10.5892
▁Amazon	-10.5895
▁radio	-10.5895
▁agreement	-10.5898
▁34	-10.59
▁जहाज	-10.59
▁सुर	-10.5904
▁award	-10.5904
port	-10.5904
ang	-10.5906
▁artist	-10.5907
▁continued	-10.5909
▁प्रतिनिधि	-10.591
▁चक्र	-10.591
▁हु	-10.5914
-20	-10.592
▁43	-10.592
▁प्रासंगिक	-10.5922
▁जम्मू	-10.5924
▁फॉर्म	-10.5925
▁scale	-10.5932
ING	-10.5933
▁Science	-10.594
▁Michael	-10.5952
▁अवैध	-10.5957
▁बुनियादी	-10.5958
▁न्यूज	-10.5958
ho	-10.5962
▁कड़ी	-10.5963
▁characters	-10.5964
pe	-10.597
▁खिलाड़ियों	-10.5971
▁स्वाद	-10.5971
▁older	-10.5972
▁दौर	-10.5978
▁विराट	-10.5981
▁अहम	-10.599
▁साहब	-10.5993
ंक	-10.6
my	-10.6003
>	-10.6004
▁बटन	-10.6006
▁चलाने	-10.6008
▁पढ़ने	-10.601
oc	-10.6011
▁fair	-10.6022
▁अर्थव्यवस्था	-10.6023
▁होम	-10.6027
ward	-10.6027
▁recipe	-10.6031
▁Year	-10.6031
▁applied	-10.6032
▁दुःख	-10.6037
▁cheap	-10.6041
▁2008	-10.6042
▁Download	-10.6043
▁happens	-10.6051
▁sit	-10.6051
▁inter	-10.6056
▁दु	-10.6058
▁अभि	-10.6059
▁फील्ड	-10.6062
▁रखता	-10.6063
▁truth	-10.6066
▁becoming	-10.6067
▁समझने	-10.6069
▁showing	-10.6075
▁fear	-10.6076
▁पढ़ें	-10.6076
▁street	-10.608
▁Top	-10.608
▁fees	-10.6081
▁नो	-10.6084
▁रेड	-10.6086
▁ऋण	-10.6088
▁जंगल	-10.6088
▁अवश्य	-10.6091
▁परिजनों	-10.6094
▁units	-10.61
▁खोजै	-10.6102
▁thus	-10.6103
▁दस्तावेज	-10.6103
▁dream	-10.6105
▁Trump	-10.6115
▁रहेगी	-10.6118
▁leadership	-10.6119
▁हिस्से	-10.6119
▁System	-10.6121
▁एशिया	-10.6124
▁कवर	-10.6124
▁Data	-10.6133
▁sources	-10.6135
▁album	-10.6135
▁described	-10.6137
▁बैठ	-10.614
▁Wednesday	-10.6147
▁prepare	-10.6149
▁५०	-10.6153
▁sounds	-10.6154
▁(19	-10.6155
▁संस्कृत	-10.6159
▁पैराग्राफ	-10.616
▁जि	-10.6163
▁एकमात्र	-10.6164
▁train	-10.6167
▁awesome	-10.6167
▁इत्यादि	-10.6167
▁मुस्लिम	-10.6168
▁Their	-10.617
कु	-10.617
▁maximum	-10.6171
▁दुख	-10.6172
▁जाई	-10.6175
▁ट्रैक	-10.6175
▁सुन्दर	-10.6177
▁o	-10.6178
▁वहिके	-10.6178
▁गज	-10.6178
▁exciting	-10.6181
▁menu	-10.6181
▁minimum	-10.6184
▁Ko	-10.6188
▁bathroom	-10.6189
▁videos	-10.619
कि	-10.619
▁Blue	-10.6191
िस्ट	-10.6194
▁Ho	-10.6196
कारी	-10.6196
▁Both	-10.6197
▁फैसले	-10.6198
▁Team	-10.62
▁discover	-10.6201
▁काट	-10.6201
फा	-10.6201
▁आकाश	-10.6205
▁मेहनत	-10.6205
▁station	-10.6216
▁facility	-10.6219
▁स्वतंत्रता	-10.6219
▁जावा	-10.6222
▁अमित	-10.6222
▁ऑफिस	-10.6229
मय	-10.6233
भा	-10.6238
▁मछली	-10.624
ti	-10.624
टर	-10.6241
▁देखता	-10.6242
▁देखना	-10.6247
▁आईपीएल	-10.6247
▁interior	-10.625
▁भय	-10.6252
▁बताई	-10.6259
करण	-10.6264
▁बचा	-10.6264
▁संक्षिप्त	-10.6264
▁120	-10.6271
ोस	-10.6275
कै	-10.6277
▁Development	-10.6279
▁६०	-10.628
▁fashion	-10.6281
▁pop	-10.6282
▁TO	-10.6284
▁happened	-10.629
▁Sa	-10.6291
▁records	-10.6293
▁बनाएं	-10.6296
▁बर	-10.6305
▁रोशनी	-10.6307
▁excited	-10.6307
▁decisions	-10.6308
एच	-10.6308
दान	-10.6309
light	-10.6311
▁अस्तित्व	-10.6312
▁accept	-10.6314
▁remains	-10.6315
▁claims	-10.6316
▁थोड़ी	-10.6317
!!!	-10.6322
▁तउ	-10.6322
▁चुना	-10.6324
▁daughter	-10.6327
▁runs	-10.6333
▁गईं	-10.6339
▁Big	-10.634
▁लगने	-10.6344
▁तमाम	-10.6345
▁treat	-10.6346
▁जनरल	-10.6348
▁England	-10.6349
तर	-10.635
▁edge	-10.635
शी	-10.6359
▁ब्राह्मण	-10.636
▁operation	-10.636
▁dining	-10.636
▁गणित	-10.6361
▁president	-10.6365
▁prefer	-10.6366
▁टिप्पणी	-10.6366
▁enjoyed	-10.6366
▁Book	-10.6373
▁स्वभाव	-10.6373
▁affordable	-10.6374
▁wrote	-10.6377
▁कंसोल	-10.6381
▁toward	-10.6381
▁assistance	-10.6392
▁thousands	-10.6394
हम	-10.6394
▁caused	-10.6395
▁centre	-10.6396
▁focused	-10.6396
न्त	-10.64
▁जमकर	-10.6403
▁माहौल	-10.6406
▁हिंदू	-10.6409
रत	-10.6414
▁Central	-10.6416
▁w	-10.6418
▁48	-10.6419
▁Lo	-10.6423
▁properly	-10.6425
▁pattern	-10.6425
▁wind	-10.6425
▁आरोपियों	-10.6429
▁एसिड	-10.6431
▁ज्यादातर	-10.6433
▁ऑर्डर	-10.6435
▁मिलियन	-10.6439
▁panel	-10.644
▁reference	-10.644
▁टैग	-10.6442
500	-10.6446
▁पासवर्ड	-10.6448
▁opened	-10.6449
ाया	-10.6449
▁ride	-10.6452
▁performed	-10.6452
▁majority	-10.6454
▁hospital	-10.6462
▁कार्बन	-10.6463
▁भक्ति	-10.6463
▁मुद्दे	-10.6466
▁Social	-10.6468
▁रोजगार	-10.6477
▁snow	-10.648
▁यूनिट	-10.6481
रस	-10.6485
▁इन्होंने	-10.6487
▁fruit	-10.6488
▁दोष	-10.649
▁साइट	-10.6491
▁Power	-10.6493
▁ब्रांड	-10.6496
▁मैचों	-10.6498
र्म	-10.6499
▁detail	-10.6502
▁बच	-10.6505
▁निर्देशिका	-10.6507
▁रु	-10.6507
▁minute	-10.6509
▁bought	-10.6515
▁निदेशक	-10.6517
▁अस	-10.6521
पति	-10.6521
यां	-10.6524
uk	-10.6524
ED	-10.6526
ide	-10.6528
ning	-10.6529
▁Hall	-10.6529
▁manner	-10.6532
▁policies	-10.6534
▁courses	-10.6535
▁7.	-10.6536
▁55	-10.6542
ci	-10.6545
▁absolutely	-10.6547
▁sets	-10.6548
▁विरुद्ध	-10.6558
▁निकाय	-10.656
▁Up	-10.6563
चार	-10.6574
▁सूत्रों	-10.6577
▁presence	-10.6581
▁selling	-10.6583
▁closed	-10.6587
▁बोले	-10.6588
▁animals	-10.6591
▁calls	-10.6596
▁65	-10.6598
▁नाटक	-10.6601
ability	-10.6603
▁detailed	-10.6605
▁died	-10.6605
हार	-10.6609
▁Ethics	-10.661
▁walking	-10.6611
ung	-10.6612
▁roof	-10.6613
▁automatically	-10.6614
वाला	-10.6615
▁Foundation	-10.6617
▁relationships	-10.6618
po	-10.6619
▁पहुँच	-10.6619
▁भाषण	-10.6621
▁injury	-10.6624
▁दैनिक	-10.6639
▁किहेन	-10.6642
▁components	-10.6642
▁बहुतै	-10.6646
▁अंतरिक्ष	-10.6646
▁theme	-10.6647
ship	-10.6658
▁यात्री	-10.6661
▁रोहित	-10.6661
▁cream	-10.6663
▁teachers	-10.6665
▁याचिका	-10.6666
▁serving	-10.6671
▁फसल	-10.6672
ium	-10.6674
▁installed	-10.6675
▁बोर्डों	-10.6675
▁बैंड	-10.6682
▁आस	-10.6685
▁रानी	-10.6688
▁Where	-10.669
▁विद्या	-10.6694
▁spread	-10.6697
▁कैंसर	-10.6697
▁भोग	-10.6698
▁spending	-10.67
▁जाएं	-10.6705
▁तुम्हें	-10.6707
▁leaving	-10.6708
▁शुल्क	-10.6709
▁वीं	-10.6709
▁नामांकन	-10.6709
▁प्लान	-10.6714
▁अनिवार्य	-10.6715
▁actions	-10.6718
▁Island	-10.6718
ative	-10.6719
▁वेद	-10.672
-3	-10.672
29	-10.6721
▁foreign	-10.6721
▁recommended	-10.6722
▁doctor	-10.6723
▁artists	-10.6727
▁Next	-10.6727
▁smart	-10.6729
▁संदर्भित	-10.673
▁approximately	-10.6732
▁हि	-10.6732
▁lifestyle	-10.6735
▁छ	-10.6737
▁आवृत्ति	-10.6739
▁दा	-10.6739
▁नियुक्त	-10.674
▁battery	-10.6742
▁अंतर्राष्ट्रीय	-10.6745
▁2006	-10.6749
tion	-10.6749
▁यहोवा	-10.6756
▁ताजा	-10.6759
▁environmental	-10.6761
▁climate	-10.6762
▁४०	-10.6764
▁ध्वनि	-10.6764
▁topic	-10.6768
ल्ड	-10.677
▁lovely	-10.6771
▁teacher	-10.6771
▁exchange	-10.6772
▁clearly	-10.6772
▁देखें	-10.6779
डि	-10.6781
▁Before	-10.6782
ator	-10.6791
▁जितना	-10.6793
▁markets	-10.6794
▁suitable	-10.6798
▁परिषदों	-10.6798
▁पहल	-10.6799
▁प्राधिकरण	-10.68
not	-10.6801
▁खाता	-10.6804
▁शांत	-10.6804
▁department	-10.6806
▁Public	-10.6807
▁senior	-10.6809
▁खेत	-10.6812
ाल	-10.6812
▁बह	-10.6815
▁तीसरा	-10.6819
▁Care	-10.6823
▁Information	-10.6824
▁websites	-10.6826
ors	-10.683
▁net	-10.6831
▁attack	-10.6832
▁faith	-10.6835
्म	-10.6838
ंद	-10.6841
▁manager	-10.6846
▁स्वर	-10.6846
▁ingredients	-10.6849
▁pet	-10.6849
fi	-10.685
▁typically	-10.6851
▁leaves	-10.6854
▁डबल	-10.686
▁खरीदने	-10.6861
▁wouldn	-10.6862
▁संविधान	-10.6863
▁allowing	-10.6864
▁Ad	-10.6872
▁bill	-10.6873
▁audio	-10.6875
▁सीटों	-10.6878
▁Committee	-10.6878
▁strategies	-10.6878
▁debt	-10.6881
▁द्वीप	-10.6881
▁परिभाषा	-10.6882
▁managed	-10.6888
▁पटना	-10.689
▁locations	-10.6895
▁pan	-10.6898
▁expertise	-10.6901
▁गाँव	-10.6902
ities	-10.6902
▁peace	-10.6903
▁concerns	-10.6907
▁advance	-10.6908
ab	-10.6911
▁तु	-10.6915
▁पल	-10.6915
▁चेतावनी	-10.6915
▁visual	-10.6917
▁कट	-10.6923
लिया	-10.6926
▁आचार्य	-10.6926
▁संवाद	-10.6928
▁एक्सप्रेस	-10.6931
▁species	-10.6934
▁thoughts	-10.6935
▁बातों	-10.6936
▁unless	-10.6937
▁प्रभु	-10.6938
▁negative	-10.6939
▁निर्माता	-10.6941
▁न्यूयॉर्क	-10.6941
▁Program	-10.6942
र्न	-10.6942
▁मि	-10.6943
▁bedroom	-10.6945
▁तीसरी	-10.6946
iv	-10.695
ng	-10.6952
▁internal	-10.6952
▁विद्युत	-10.6952
▁funding	-10.6955
तः	-10.6957
▁category	-10.6962
▁तैनात	-10.6962
▁posts	-10.6962
▁eating	-10.6962
▁रहीं	-10.6963
▁provider	-10.6964
▁delicious	-10.6975
▁अनुसंधान	-10.6975
▁दिखा	-10.6977
▁showed	-10.6981
▁खोल	-10.6983
गंज	-10.6985
▁वार	-10.6989
▁increasing	-10.6991
▁practical	-10.7001
▁उल्लेखनीय	-10.7002
▁registered	-10.7002
▁मध्यम	-10.7003
▁प्राप्ति	-10.7004
▁girl	-10.7006
▁यूक्रेन	-10.7007
100	-10.7009
वाले	-10.701
▁windows	-10.7014
▁विरोधी	-10.7014
▁बढ़ती	-10.7021
▁trees	-10.7022
▁रोगी	-10.7024
▁stores	-10.7025
▁generation	-10.7029
22	-10.7029
▁माहिर	-10.7031
▁previously	-10.7032
▁lunch	-10.7037
ेश्वर	-10.7037
▁info	-10.7037
▁द्वितीय	-10.7041
▁continues	-10.7042
▁seat	-10.7043
▁नींद	-10.7044
21	-10.7044
गढ़	-10.7045
▁बचे	-10.7045
▁लगाई	-10.7048
car	-10.7052
ze	-10.7053
▁tend	-10.7053
▁दौरा	-10.7054
▁तुम्हारे	-10.7056
▁suggest	-10.7056
▁सेवाओं	-10.7056
▁Music	-10.7065
▁संस्था	-10.7067
▁pair	-10.7068
▁लिखे	-10.7069
17	-10.707
▁agency	-10.707
▁अशोक	-10.707
▁लकड़ी	-10.7071
▁Microsoft	-10.7073
16	-10.7078
▁Beach	-10.7079
▁combined	-10.7081
िम	-10.7081
32	-10.7086
▁जगत	-10.7092
▁दौरे	-10.7094
▁shipping	-10.7096
▁धारण	-10.7099
ger	-10.7104
▁गुप्त	-10.7104
▁specifically	-10.7105
▁Community	-10.7106
▁Policy	-10.7108
▁निम्न	-10.7109
▁mine	-10.711
▁technologies	-10.7111
▁संक्रमित	-10.7112
▁CA	-10.7113
▁संक्षेप	-10.7114
ino	-10.7117
nt	-10.7119
ging	-10.7121
▁corner	-10.7122
▁प्राण	-10.7123
▁instance	-10.7127
▁गुप्ता	-10.7129
▁श्र	-10.713
▁filled	-10.713
▁परिचय	-10.7131
▁हिमाचल	-10.7134
ko	-10.7137
ap	-10.714
▁तस्वीरें	-10.7156
▁obtain	-10.7156
▁winning	-10.7158
use	-10.7161
▁प्रजाति	-10.7162
▁अमर	-10.7162
▁हथियार	-10.7165
▁गिरावट	-10.7173
▁ढेर	-10.7173
गु	-10.7182
▁brings	-10.7184
▁industrial	-10.7186
▁पाते	-10.7189
▁discussion	-10.719
▁कराई	-10.7193
▁रत्न	-10.7195
▁बिग	-10.7199
▁व्यवस्थित	-10.7199
▁dance	-10.7201
गर	-10.7203
▁importance	-10.7203
▁smooth	-10.7204
▁रिटर्न	-10.7207
▁iPhone	-10.7207
▁क्रमशः	-10.7207
▁बंधन	-10.721
",	-10.721
▁कथित	-10.7211
▁बनाते	-10.7213
▁एकल	-10.7214
हो	-10.7217
▁आगामी	-10.722
▁responsibility	-10.7223
▁कार्यवृत्त	-10.7223
▁ग्रन्थ	-10.7224
वो	-10.7225
दास	-10.7226
▁depending	-10.7228
▁vote	-10.7229
पूर्वक	-10.723
▁nation	-10.723
▁pull	-10.7239
▁volume	-10.7251
26	-10.7252
▁database	-10.7252
▁मकान	-10.7256
▁joined	-10.7257
39	-10.726
▁reliable	-10.7261
▁अउ	-10.7263
▁पावर	-10.7264
▁Jo	-10.7265
han	-10.7266
▁micro	-10.7269
▁पहलुओं	-10.7269
▁श्रम	-10.7274
▁इसलिये	-10.7276
▁जर्मन	-10.7282
▁प्राइम	-10.7285
▁प्रिय	-10.7285
ure	-10.7285
धा	-10.7289
▁कहिन	-10.7291
▁launch	-10.7293
▁Only	-10.7294
▁पड़ेगा	-10.7294
▁drink	-10.7295
IT	-10.7295
धर्म	-10.7296
वल	-10.73
▁क्यू	-10.7301
▁कर्नाटक	-10.7301
▁मुख	-10.7302
▁Sea	-10.7304
▁vehicles	-10.7305
▁Pa	-10.7305
▁बचाने	-10.7307
वान	-10.7308
▁slightly	-10.7309
▁OF	-10.7313
▁scene	-10.7313
▁limit	-10.7316
▁partners	-10.7316
▁mental	-10.732
सम	-10.7321
▁रासायनिक	-10.7323
▁जवान	-10.7324
िता	-10.7324
▁बनाइए	-10.7324
▁फीचर	-10.7327
मल	-10.7327
▁Christian	-10.7328
▁Per	-10.7328
▁११	-10.733
▁श्रा	-10.7335
▁जेड	-10.7336
▁घरों	-10.7336
▁error	-10.7338
▁Twitter	-10.7341
▁मोहम्मद	-10.7341
▁starts	-10.7343
▁layer	-10.7346
▁busy	-10.7351
िय	-10.7359
▁r	-10.7362
▁शास्त्र	-10.7363
▁उपयोगी	-10.7365
95	-10.7365
▁जाये	-10.7366
▁Da	-10.7367
board	-10.7369
▁CO	-10.7373
▁hearing	-10.7377
▁feedback	-10.7378
▁विद्यालय	-10.738
▁अवधारणा	-10.7381
मैं	-10.7383
well	-10.7384
▁France	-10.7385
▁quarter	-10.7392
00	-10.7394
▁पढ़ा	-10.7395
ong	-10.7397
▁डेटासेट	-10.7399
▁Bill	-10.74
DNPA	-10.7401
▁अनुदेशों	-10.7402
▁स्निपेट	-10.7405
था	-10.7408
▁अभिनेत्री	-10.7409
▁bus	-10.7413
▁देखै	-10.7414
▁गाने	-10.7415
▁trading	-10.7417
▁मारे	-10.7418
▁ताईं	-10.7418
▁innovative	-10.7421
▁aspects	-10.7424
let	-10.7427
▁south	-10.7432
▁colour	-10.7435
▁रेटिंग	-10.7435
65	-10.7435
▁grade	-10.7436
▁किरदार	-10.7437
▁boat	-10.7439
▁Contact	-10.7439
▁attempt	-10.744
▁जिंदगी	-10.7442
▁-1	-10.7445
▁counter	-10.7445
▁cultural	-10.745
▁प्रत्यक्ष	-10.745
▁शाखा	-10.745
mail	-10.7452
▁proud	-10.7456
▁चौक	-10.7457
▁छात्रन	-10.7458
▁लीन	-10.7459
▁केतना	-10.746
▁enable	-10.747
▁चरणों	-10.7471
▁promote	-10.7476
▁rain	-10.7479
▁German	-10.7485
▁एकत्रित	-10.7486
▁जोड़त	-10.7486
▁180	-10.749
▁साम्राज्य	-10.7495
▁Na	-10.7496
▁2003	-10.7497
▁miss	-10.7498
▁मैक	-10.7498
▁एकत्र	-10.7499
▁AND	-10.7499
▁खुली	-10.7501
▁comprehensive	-10.7504
▁बदले	-10.7506
▁parking	-10.7507
q	-10.7508
▁दशा	-10.7509
क्	-10.7509
▁स्क्रीन	-10.7513
▁leads	-10.7516
ड़े	-10.7516
▁motor	-10.7518
▁हफ्ते	-10.752
▁उतना	-10.7521
▁असेंबली	-10.7524
▁District	-10.7524
▁टैक्स	-10.7525
▁उत्कृष्ट	-10.7525
▁delivered	-10.7529
ible	-10.7533
▁अजीब	-10.7536
▁सम्मानित	-10.7539
▁sample	-10.7541
▁anywhere	-10.7541
▁ट्रक	-10.7544
▁हादसे	-10.7548
ions	-10.755
▁सालों	-10.7552
▁स्कूलों	-10.7555
नु	-10.7555
▁Valley	-10.7556
▁functions	-10.756
our	-10.7561
SA	-10.7566
▁फॉर	-10.7566
▁एपीआई	-10.7568
▁लगते	-10.7571
▁वाहनों	-10.7573
▁प्राथमिकता	-10.7574
▁guys	-10.7574
▁दास	-10.7576
ाने	-10.7576
▁लाइफ	-10.7577
ig	-10.7578
▁library	-10.7578
▁भरोसा	-10.7583
▁१३	-10.7584
▁notes	-10.7584
▁Show	-10.7586
▁39	-10.7588
▁आकर्षित	-10.7591
▁football	-10.7592
िव	-10.7592
▁प्रतिदिन	-10.7592
▁व्रत	-10.7592
▁totally	-10.7592
▁guarantee	-10.7593
▁फेंक	-10.7599
▁Ne	-10.76
▁बाबा	-10.7603
▁मोड	-10.7604
कों	-10.7606
▁Su	-10.7606
▁attend	-10.7608
▁गरीब	-10.7612
lan	-10.7615
▁गौरतलब	-10.7615
▁लगाकर	-10.7622
▁mostly	-10.7623
▁टाइम	-10.7624
▁rise	-10.7624
चे	-10.7625
▁ourselves	-10.7627
▁प्रतियोगिता	-10.7631
▁जायेगा	-10.7636
▁कार्यकर्ताओं	-10.7637
▁ended	-10.7637
▁जग	-10.764
ेगा	-10.7641
art	-10.7642
▁दम	-10.7642
▁अजय	-10.7643
▁समन्वय	-10.7644
▁लिखी	-10.7644
▁पवित्र	-10.7644
आईडी	-10.7645
▁संहिता	-10.7651
▁articles	-10.7652
▁rule	-10.7654
▁इसको	-10.7655
▁purposes	-10.7655
▁पटेल	-10.7656
ray	-10.7658
▁उत्पादों	-10.766
▁Long	-10.7661
▁faster	-10.7664
▁आव	-10.7667
▁२५	-10.7669
▁खेती	-10.7671
▁रेंज	-10.7671
▁raised	-10.7671
▁खेले	-10.7674
▁fix	-10.7674
▁measures	-10.7677
▁देखे	-10.7679
▁respond	-10.768
▁चाय	-10.7681
▁affect	-10.7682
▁putting	-10.7683
▁mode	-10.7684
▁लेन	-10.7685
▁उतार	-10.7686
▁watching	-10.7687
▁राजस्व	-10.7689
▁Play	-10.7693
पो	-10.7694
▁उपयोगकर्ताओं	-10.7695
her	-10.7695
▁catch	-10.7696
▁चालक	-10.77
▁earth	-10.7707
▁appears	-10.7707
▁प्रौद्योगिकी	-10.7713
▁worry	-10.7713
▁वनडे	-10.7713
▁युवाओं	-10.7715
▁ओनका	-10.7716
▁Society	-10.7716
ten	-10.7718
35	-10.772
▁Ben	-10.7723
४	-10.7724
▁Android	-10.7725
▁die	-10.7728
बर	-10.7732
▁कानूनी	-10.7733
▁aid	-10.7736
▁Those	-10.7736
▁Security	-10.7738
▁Plus	-10.7739
▁Centre	-10.7742
देश	-10.7748
त्	-10.775
लोक	-10.7752
90	-10.7757
▁मुकाबला	-10.7757
▁Master	-10.7757
▁profile	-10.7757
▁island	-10.7758
▁स्थिरता	-10.7758
va	-10.7759
ज्ञान	-10.776
▁supported	-10.776
▁contain	-10.776
ised	-10.7764
▁ship	-10.7765
▁2001	-10.7766
ची	-10.7769
▁त्रि	-10.777
▁encourage	-10.7771
▁पर्वत	-10.7771
▁निरीक्षण	-10.7771
▁जानता	-10.7774
▁वेक्टर	-10.7775
पे	-10.7776
▁suit	-10.778
▁object	-10.7783
▁कसी	-10.7785
▁seek	-10.7791
▁committed	-10.7794
▁meal	-10.7794
ल्स	-10.7796
झ	-10.7797
कुल	-10.7798
▁opinion	-10.78
ran	-10.7807
▁ड्राइवर	-10.7809
▁प्रवाह	-10.781
▁१००	-10.7812
▁स्टेट	-10.7812
▁अंश	-10.7813
▁laws	-10.7814
▁अभाव	-10.7815
▁realize	-10.7816
▁जीतने	-10.782
▁iron	-10.7822
मत	-10.7827
▁Ro	-10.783
▁इधर	-10.7831
▁survey	-10.7832
▁दिमाग	-10.7834
▁Wi	-10.7835
▁AM	-10.7836
▁factor	-10.7842
80	-10.7843
च्छ	-10.7843
▁ति	-10.7844
▁लगती	-10.7847
▁brands	-10.785
▁Men	-10.7852
▁ब्लैक	-10.7854
▁Vi	-10.7861
vo	-10.7864
▁Sun	-10.7866
▁Mc	-10.7868
▁परंतु	-10.7869
▁परमेस्सर	-10.7877
▁replace	-10.7879
▁flight	-10.7881
ंज	-10.7882
▁valuable	-10.7883
▁प्रार्थना	-10.7883
▁थ	-10.7886
▁गलती	-10.7894
▁प्रतीत	-10.7895
▁निरंतर	-10.7895
▁holding	-10.7895
▁confidence	-10.7895
▁extensive	-10.79
▁girls	-10.7901
▁knows	-10.7902
▁context	-10.7904
▁2004	-10.7905
▁ग्राहकों	-10.7905
▁participants	-10.7908
▁competitive	-10.791
व्य	-10.7912
▁अपलोड	-10.7917
▁salt	-10.792
ंडा	-10.7924
-4	-10.7924
▁returned	-10.7929
▁fabric	-10.7931
ek	-10.7931
▁चलो	-10.795
▁despite	-10.7954
िए	-10.796
▁appreciate	-10.7962
23	-10.7966
▁तत्काल	-10.7967
▁निशान	-10.7967
ऊ	-10.797
▁अग्नि	-10.7971
▁उठाया	-10.7974
▁meant	-10.7976
▁डिवाइस	-10.7979
▁तर	-10.798
za	-10.7983
▁अनुपात	-10.7983
▁सार	-10.7985
▁सूरज	-10.7987
▁छा	-10.7988
▁बचाव	-10.7988
▁खेलने	-10.7988
▁सरकारों	-10.799
▁reached	-10.799
hu	-10.7991
▁settings	-10.7992
▁employee	-10.7993
क्ष	-10.7993
▁fat	-10.7994
▁रजिस्टर	-10.7995
▁adults	-10.7998
श्च	-10.7999
▁providers	-10.7999
▁38	-10.8
▁dead	-10.8005
▁खड़ी	-10.8009
▁accounts	-10.8012
▁पारंपरिक	-10.8016
si	-10.802
▁रेस्तरां	-10.802
but	-10.8021
▁पेशेवर	-10.8023
▁बर्फ	-10.8025
▁trial	-10.8038
▁मुद्रा	-10.8042
▁दर्शकों	-10.8043
▁Using	-10.8044
ph	-10.8045
▁Minister	-10.805
▁ID	-10.8052
▁अणु	-10.8053
▁signed	-10.8054
▁load	-10.8054
down	-10.8057
▁आना	-10.8057
▁visiting	-10.8058
▁guess	-10.8059
▁songs	-10.806
▁यात्रियों	-10.8062
▁influence	-10.8063
धर	-10.8064
▁rent	-10.8064
▁कहे	-10.8064
▁ग्राफ	-10.8064
▁बैठा	-10.8064
▁Head	-10.8065
▁seconds	-10.8065
िश	-10.8066
▁सुविधाओं	-10.8069
▁पाउंड	-10.8071
हु	-10.8071
▁roll	-10.8073
▁resolution	-10.8076
▁possibly	-10.8077
gen	-10.8081
apos	-10.8083
िग	-10.8084
▁Out	-10.8087
▁Media	-10.8089
▁टुकड़े	-10.8091
▁clinical	-10.8092
स्थ	-10.8096
34	-10.8098
▁approved	-10.8098
▁लीटर	-10.81
▁Keep	-10.8101
bar	-10.8103
▁missing	-10.8103
work	-10.8105
▁मजबूर	-10.8107
▁passion	-10.8108
▁उल्लंघन	-10.8108
▁अर्जुन	-10.8108
▁choices	-10.8109
▁लिखित	-10.811
▁सन	-10.8111
गल	-10.8112
वास	-10.8114
▁cast	-10.8116
▁distribution	-10.8117
▁emergency	-10.8118
▁गतिविधियों	-10.8121
▁resource	-10.8123
ंत	-10.8124
▁स्थायी	-10.8125
▁collect	-10.8129
▁advertising	-10.8129
▁विद्यमान	-10.8129
▁नमक	-10.8134
▁bike	-10.8136
▁दूसरों	-10.8136
▁संचालित	-10.8136
▁उत्साह	-10.8136
ow	-10.8137
▁दीवार	-10.8138
▁consumers	-10.814
ped	-10.8142
▁Under	-10.8142
▁inspired	-10.8142
▁कंप्यूटर	-10.8148
▁युक्त	-10.8148
▁doors	-10.815
▁asking	-10.815
▁पेट्रोल	-10.8151
▁लोगो	-10.8151
ford	-10.8154
ach	-10.8156
ER	-10.8158
▁श्रद्धा	-10.8158
▁Place	-10.8159
▁गूगल	-10.8159
▁entertainment	-10.8159
▁41	-10.8159
▁लहर	-10.8163
▁mention	-10.8165
▁फैला	-10.8169
▁introduced	-10.8176
▁वचन	-10.818
▁removed	-10.8181
▁शहरों	-10.8183
▁मुंह	-10.8189
▁आलोचना	-10.8189
न्न	-10.8191
▁birth	-10.8191
▁संकल्प	-10.8194
▁Party	-10.8197
▁doubt	-10.8197
▁replacement	-10.8199
▁निर्	-10.8202
लिन	-10.8202
▁फ़िल्म	-10.8202
kin	-10.8204
▁administration	-10.8206
▁कमेटी	-10.821
▁प्रयोजन	-10.821
▁educational	-10.8212
ver	-10.8213
▁प्रेरणा	-10.8218
TS	-10.822
▁tickets	-10.8221
▁flowers	-10.8222
▁draw	-10.8229
▁politics	-10.823
▁निश्चय	-10.8231
▁हरि	-10.8232
▁fixed	-10.8232
▁consumer	-10.8233
▁Family	-10.8234
र्ट	-10.8238
▁मनाया	-10.8239
यह	-10.8241
▁एल्बम	-10.8248
▁breakfast	-10.8248
▁जीवित	-10.8254
▁२४	-10.8257
▁वर	-10.8259
▁एंटी	-10.8267
▁मोह	-10.827
▁कार्यवाही	-10.827
bi	-10.8271
▁सपना	-10.8271
▁restaurants	-10.8272
▁hire	-10.8273
▁निर्यात	-10.8274
कभी	-10.8278
▁उम्मीदवारों	-10.8281
▁कैलिफोर्निया	-10.8282
▁Rock	-10.8283
▁IN	-10.8283
▁exam	-10.8287
▁प्रारंभ	-10.8294
▁चेतना	-10.8295
▁अगली	-10.83
▁housing	-10.8304
▁बौद्ध	-10.8305
hi	-10.8306
▁यो	-10.8307
▁measure	-10.831
▁transport	-10.8315
ware	-10.832
▁योजनाओं	-10.832
टन	-10.8321
▁सुनकर	-10.8329
▁deals	-10.833
▁जानी	-10.8332
ानी	-10.8333
▁raise	-10.8337
▁shower	-10.8338
▁novel	-10.8339
▁Fire	-10.8341
▁52	-10.8342
▁लॉग	-10.8343
▁register	-10.8345
head	-10.8354
▁बल्लेबाजी	-10.8357
▁desire	-10.836
▁सेंट	-10.8365
▁listen	-10.8365
ात	-10.8366
▁electronic	-10.8368
▁feed	-10.8369
▁फ्रांस	-10.8374
▁Peter	-10.8375
▁improved	-10.8377
▁cheese	-10.8381
que	-10.8384
▁bright	-10.8384
र्क	-10.8391
▁5,	-10.8391
▁मंगल	-10.8394
▁eventually	-10.8395
▁electric	-10.8397
▁Medical	-10.8399
▁कार्यकर्ता	-10.84
म्प	-10.8401
▁एआई	-10.8404
▁sand	-10.8404
▁सहमति	-10.8408
ik	-10.8409
▁Technology	-10.8412
AL	-10.8413
▁north	-10.8413
▁जापान	-10.8416
▁lights	-10.8417
▁afternoon	-10.842
▁मैक्स	-10.8424
▁58	-10.8425
▁chicken	-10.8425
▁आनन्द	-10.8426
▁अंततः	-10.8426
▁एसपी	-10.8429
▁chair	-10.8435
▁explain	-10.8435
▁चंद्र	-10.8436
ins	-10.8441
▁मूर्ति	-10.8444
▁rental	-10.8444
qui	-10.8445
▁सराहना	-10.8446
▁coach	-10.8447
▁सहज	-10.8449
▁Does	-10.845
▁संख्याओं	-10.845
▁विधान	-10.8451
07	-10.8453
▁z	-10.8454
याँ	-10.8455
▁बढ़ते	-10.8457
▁आवा	-10.8457
▁Its	-10.8457
ंच	-10.8459
▁kit	-10.8462
▁Food	-10.8464
▁महीना	-10.8466
▁साउथ	-10.8468
▁दोनो	-10.8472
▁फुटबॉल	-10.8472
37	-10.8476
ST	-10.8487
▁Lu	-10.8487
▁बालों	-10.8489
▁परिवर्तित	-10.849
▁गिरफ्तारी	-10.8496
▁ch	-10.85
▁Du	-10.8501
▁monthly	-10.8503
▁commitment	-10.8504
▁j	-10.8507
▁वैक्सीन	-10.8507
▁इंटर	-10.8509
▁Jan	-10.8509
▁उड़ान	-10.8513
▁Instead	-10.8514
त्य	-10.8517
▁lighting	-10.8518
▁port	-10.8519
47	-10.8519
vi	-10.8521
▁procedure	-10.8521
▁Real	-10.8521
▁शूटिंग	-10.8522
▁output	-10.8523
▁प्रोत्साहित	-10.8525
▁स्मार्टफोन	-10.8525
▁CD	-10.8529
▁प्रवृत्ति	-10.8531
ura	-10.8532
▁छत्तीसगढ़	-10.8535
▁animal	-10.8536
▁switch	-10.8538
ious	-10.854
box	-10.854
▁देह	-10.8541
▁dogs	-10.8541
▁purchased	-10.8542
book	-10.8544
▁खुले	-10.8545
▁cloud	-10.8545
▁द्रव्य	-10.8546
▁therapy	-10.8547
▁accurate	-10.8547
▁सूक्ष्म	-10.8549
▁familiar	-10.8551
▁अकेले	-10.8556
▁कृपा	-10.8559
▁Manager	-10.856
▁झारखंड	-10.856
▁intended	-10.8565
्यु	-10.8568
▁Miss	-10.8571
▁Commission	-10.8571
▁license	-10.8571
▁Oh	-10.8573
▁लड़के	-10.8573
▁Japan	-10.8573
▁birthday	-10.8574
▁मास्टर	-10.8579
▁2002	-10.858
▁appearance	-10.858
▁bio	-10.8586
▁route	-10.8591
▁meat	-10.8591
▁Se	-10.8592
▁माने	-10.8592
▁बुरी	-10.8593
01	-10.8596
▁मिश्रण	-10.8596
can	-10.8599
▁संभाल	-10.8602
▁उत्तराखंड	-10.8604
▁पृष्ठभूमि	-10.8605
तम	-10.861
▁Learn	-10.8615
▁launched	-10.8619
▁George	-10.862
▁Wall	-10.862
▁readers	-10.8621
ीन	-10.8621
▁effectively	-10.8622
▁ऑटो	-10.8624
▁बु	-10.8627
▁हस्ताक्षर	-10.8629
▁सू	-10.8631
▁जलवायु	-10.8631
▁250	-10.8634
▁कभौ	-10.8637
▁पीने	-10.8637
▁वार्ड	-10.8639
tor	-10.8648
▁सपा	-10.8649
▁स्टॉक	-10.865
▁dress	-10.8652
▁एड	-10.8652
▁sitting	-10.8654
▁]	-10.8654
आई	-10.8656
▁Work	-10.8664
▁मल	-10.8665
▁Grand	-10.8665
▁fields	-10.8667
▁covers	-10.8667
▁हेड	-10.8668
▁Union	-10.867
);	-10.867
▁दक्षता	-10.8673
▁revenue	-10.8673
▁रूट	-10.8673
▁वर्मा	-10.8675
▁ब्रिटेन	-10.8676
▁निर्देशन	-10.8676
▁Maybe	-10.8676
▁हैः	-10.8677
▁किलो	-10.8678
▁fund	-10.8678
▁वैकल्पिक	-10.868
▁रिजल्ट	-10.868
▁paying	-10.868
▁काले	-10.868
▁agent	-10.8682
णी	-10.8683
27	-10.8685
▁अन्तर	-10.8688
▁domain	-10.8689
▁Set	-10.869
▁View	-10.869
▁bowl	-10.8695
▁apps	-10.8695
▁आधे	-10.8695
▁बिजनेस	-10.8697
▁आवै	-10.8701
▁Market	-10.8702
▁निकालने	-10.8702
▁उन्नत	-10.8702
निक	-10.8702
▁chocolate	-10.8707
▁लाया	-10.871
▁उधर	-10.8712
▁regularly	-10.8712
▁Award	-10.8714
▁टूर्नामेंट	-10.8716
▁करण	-10.8716
▁फैल	-10.8721
▁शासित	-10.8723
▁Women	-10.8723
▁इंडियन	-10.8724
▁registration	-10.8725
▁लौटावत	-10.8725
▁participate	-10.8726
▁count	-10.8733
▁इंस्टाग्राम	-10.8734
▁भरे	-10.8736
▁कमाई	-10.8737
▁infrastructure	-10.8738
▁dumpster	-10.8738
▁प्रदेशों	-10.8739
▁बनाओ	-10.874
▁secret	-10.8745
▁bringing	-10.8745
▁विविध	-10.8746
▁नेपाल	-10.8748
▁Live	-10.8751
ps	-10.8751
▁अकाउंट	-10.8752
▁Mary	-10.8757
▁Hill	-10.8757
▁Press	-10.876
▁देखी	-10.8761
▁breaking	-10.8762
▁2018.	-10.8764
▁१७	-10.8764
▁wild	-10.8765
▁surrounding	-10.8766
▁reduced	-10.8767
▁behavior	-10.8769
▁निर्मित	-10.8771
▁creation	-10.8771
▁काला	-10.8776
tin	-10.8777
▁Cup	-10.8777
▁push	-10.8777
▁except	-10.8777
▁mis	-10.8779
▁enhance	-10.8782
▁शक्तिशाली	-10.8783
nes	-10.8788
MP	-10.879
ay	-10.879
▁यथा	-10.879
▁spirit	-10.8791
ably	-10.8793
▁देवता	-10.8795
जैसे	-10.8795
▁Li	-10.8796
▁goods	-10.8796
ney	-10.88
▁saving	-10.8801
▁उजागर	-10.8801
▁Germany	-10.8801
ोर	-10.8802
▁cutting	-10.8802
▁nor	-10.8803
▁उपन्यास	-10.8805
▁Light	-10.8806
▁उदय	-10.8808
▁इमारत	-10.8812
▁chain	-10.8814
▁सीधा	-10.8817
▁lived	-10.882
▁मी	-10.8821
▁बचने	-10.8822
▁element	-10.8827
▁शि	-10.8833
लिंग	-10.8835
▁cook	-10.8838
▁discovered	-10.884
42	-10.8841
▁पंच	-10.8841
▁carried	-10.8842
▁विपक्ष	-10.8842
▁Control	-10.885
▁फेसबुक	-10.8851
gov	-10.8853
▁supplies	-10.8855
▁गठबंधन	-10.8855
▁Journal	-10.8857
▁knowing	-10.8858
▁शु	-10.8858
योग	-10.8858
▁रोकथाम	-10.886
▁Western	-10.886
▁वकील	-10.8861
▁बतावा	-10.8871
▁प्रयत्न	-10.8873
▁$2	-10.8873
▁मिश्रा	-10.8873
▁क्षेत्रीय	-10.8873
▁लंदन	-10.8873
which	-10.8876
▁भरी	-10.8878
▁retail	-10.8881
ix	-10.8882
▁डांस	-10.8882
▁q	-10.8882
▁manufacturing	-10.8884
▁नज़र	-10.8884
ising	-10.8885
ue	-10.8887
▁hundreds	-10.889
▁Ltd	-10.8892
▁समुद्री	-10.8893
▁हद	-10.8893
▁Hotel	-10.8898
▁interests	-10.8899
▁seemed	-10.8904
▁आइ	-10.8905
▁जेन	-10.8907
एम	-10.8911
▁battle	-10.8915
▁crusher	-10.8919
▁दीपक	-10.892
▁whom	-10.8921
▁इलाकों	-10.8924
▁seeking	-10.8925
▁पीठ	-10.8926
▁surgery	-10.8926
▁receiving	-10.8928
ical	-10.893
▁efficiency	-10.8932
▁mini	-10.8932
▁tough	-10.8933
▁पदार्थों	-10.8933
▁विचारों	-10.8934
ुआ	-10.8935
ोन	-10.8936
▁African	-10.8936
▁tests	-10.894
▁milk	-10.8942
▁farm	-10.8943
▁सदन	-10.8943
▁conversation	-10.8946
▁पढ़	-10.8946
▁Museum	-10.8946
▁धमकी	-10.8947
▁examples	-10.8947
▁teeth	-10.8948
्वा	-10.8948
▁प्रतिभा	-10.8953
▁buildings	-10.8954
▁लौटाता	-10.8955
”,	-10.8956
▁solar	-10.8957
▁se	-10.8961
79	-10.8965
▁बुक	-10.8969
▁उत्पत्ति	-10.8969
▁recovery	-10.8971
▁calling	-10.8972
▁हालात	-10.8975
pro	-10.8976
▁Global	-10.8978
▁external	-10.8979
ker	-10.898
▁मांस	-10.8981
▁mark	-10.8982
▁signs	-10.8985
ज्ज	-10.8986
lu	-10.8987
33	-10.8988
▁बदला	-10.8989
▁significantly	-10.899
▁appointment	-10.8993
▁पाल	-10.8993
▁chosen	-10.8994
लाइन	-10.8995
▁पूछ	-10.8995
▁Brown	-10.8997
ny	-10.9006
ries	-10.9007
ष्ट	-10.9009
▁चमक	-10.9009
▁परिस्थिति	-10.9009
▁Asia	-10.901
▁करवा	-10.9011
▁कैमरा	-10.9011
▁कुकीज	-10.9015
▁छुट्टी	-10.9015
▁walls	-10.9016
स्टर	-10.9019
ाइड	-10.9019
▁प्रियंका	-10.902
AS	-10.9024
द्र	-10.9026
▁नयी	-10.9027
▁लर्निंग	-10.9029
36	-10.9032
▁identified	-10.9034
▁landscape	-10.9035
▁नियुक्ति	-10.9036
▁श्रीलंका	-10.9036
▁channel	-10.9038
▁instructions	-10.9041
ud	-10.9041
▁नागरिकों	-10.9042
▁जोड़े	-10.9043
▁अन्यथा	-10.9044
ji	-10.9045
▁स्टेडियम	-10.9052
▁पेपर	-10.9054
▁manual	-10.9058
▁नोटिस	-10.9058
bit	-10.9059
sen	-10.9059
स्प	-10.9062
▁sizes	-10.9067
▁cent	-10.9069
▁guest	-10.9072
▁Watch	-10.9076
▁HD	-10.908
▁वर्षा	-10.9081
▁सकेंगे	-10.9083
▁भवा	-10.9085
▁Plan	-10.9086
▁गायब	-10.9088
▁MP	-10.9091
▁1979	-10.9091
▁symptoms	-10.9092
28	-10.9095
▁Chicago	-10.9096
▁बांध	-10.9099
▁संस्कार	-10.9101
▁greatest	-10.9101
भर	-10.9103
▁Ver	-10.9104
▁mass	-10.9106
▁पैमाने	-10.9108
▁मुख्यालय	-10.9109
▁Ke	-10.9109
ढ	-10.9112
▁डिज़ाइन	-10.9113
िये	-10.9113
▁yes	-10.9113
▁करैं	-10.9115
▁निशाना	-10.9123
▁क्षण	-10.9125
चि	-10.9125
▁Royal	-10.9129
▁guy	-10.913
▁प्रतिबंध	-10.913
▁matters	-10.9133
▁अत्यन्त	-10.9136
▁kinds	-10.9138
▁10.	-10.9139
▁assets	-10.9143
▁feels	-10.915
▁command	-10.9153
▁drivers	-10.9155
▁साइन	-10.9156
▁Israel	-10.9156
▁एक्टर	-10.9161
▁नवीन	-10.9161
▁Russian	-10.9163
Having	-10.9164
▁Travel	-10.9166
see	-10.9169
▁ठंडा	-10.917
▁Ex	-10.9172
▁नीतीश	-10.9173
▁ब्याज	-10.9173
▁ring	-10.9177
gi	-10.9178
▁विषयों	-10.9179
▁निधन	-10.9183
▁Land	-10.9183
▁remaining	-10.9187
ID	-10.9189
▁cup	-10.919
र्थ	-10.9191
▁महीनों	-10.9194
▁Bible	-10.9195
▁कम्प्यूटर	-10.9197
▁willing	-10.9197
▁रद्द	-10.9199
▁संस्थापक	-10.9201
▁sides	-10.9203
▁लव	-10.9203
ding	-10.9205
ंगी	-10.9205
▁presentation	-10.9207
▁पौधा	-10.9207
▁cooking	-10.9208
▁असम	-10.9209
▁Part	-10.9214
▁foods	-10.9214
▁ran	-10.9214
▁aim	-10.9215
▁लॉकडाउन	-10.9216
▁favourite	-10.9216
▁nine	-10.9216
▁पर्यटन	-10.922
IC	-10.9222
▁उत्तम	-10.9225
-10	-10.9225
▁प्री	-10.9227
▁input	-10.9227
▁PA	-10.923
▁सटीकता	-10.9237
▁मुद्दा	-10.9239
▁समझौता	-10.924
▁transition	-10.9241
▁Los	-10.9241
▁topics	-10.9244
▁treated	-10.9247
▁पत्रकार	-10.9248
▁परमेश्वर	-10.9249
.00	-10.925
▁Old	-10.9252
▁सिद्धान्त	-10.9254
▁कपड़ा	-10.9255
▁Video	-10.9257
▁महिलाएं	-10.9259
▁district	-10.9261
▁wonder	-10.9269
▁व्यायाम	-10.9272
▁CEO	-10.9274
▁protein	-10.9276
▁acid	-10.9277
▁sp	-10.9281
▁charges	-10.9282
▁houses	-10.9283
लैंड	-10.9284
▁बधाई	-10.9286
▁बताने	-10.9293
▁अधीन	-10.9294
▁teach	-10.9295
▁League	-10.9296
▁मेमोरी	-10.9296
▁डाउनलोड	-10.9296
▁वर्गीकरण	-10.9298
▁discount	-10.9299
▁incredible	-10.9301
▁समायोजित	-10.9301
▁अक्षय	-10.9306
▁glad	-10.9306
▁हुये	-10.9307
▁मुनि	-10.9311
▁रूम	-10.9312
मर	-10.9314
▁garage	-10.9315
▁डो	-10.9315
▁नर	-10.9319
▁औद्योगिक	-10.9323
▁सीखने	-10.9324
ons	-10.9324
लेट	-10.9324
▁Wood	-10.9326
▁Har	-10.9328
▁equal	-10.9329
▁लक्षित	-10.933
▁Earth	-10.9335
▁causes	-10.9336
▁represent	-10.9339
▁brown	-10.9339
▁inspiration	-10.9342
▁determined	-10.9344
▁निवास	-10.9346
▁नदारद	-10.9348
▁लाइसेंस	-10.9348
▁issued	-10.9348
▁considering	-10.9349
CA	-10.9349
▁occur	-10.9349
▁motion	-10.935
▁supporting	-10.9352
▁dollars	-10.9356
▁cat	-10.9356
▁privacy	-10.9358
ृ	-10.9358
कृत	-10.9361
▁परिदृश्य	-10.9362
▁Therefore	-10.9363
▁पौधे	-10.9366
GB	-10.9366
▁दुर्घटना	-10.9366
▁निकट	-10.9366
od	-10.9367
▁organic	-10.9368
▁brother	-10.9372
sp	-10.9374
▁mom	-10.9376
▁मशहूर	-10.9377
▁upper	-10.9379
▁youth	-10.9384
▁owned	-10.9384
top	-10.9388
▁इंटरनेशनल	-10.9391
▁affected	-10.9392
▁Auto	-10.9394
▁Ca	-10.9395
▁perfectly	-10.9395
▁ब्रेक	-10.9398
▁पहचाना	-10.9402
▁decades	-10.9402
▁App	-10.9402
▁carefully	-10.9405
▁दोस्तों	-10.9406
रों	-10.9407
ara	-10.9407
▁ठोस	-10.941
▁अध्याय	-10.9411
▁Dis	-10.9413
▁अनुकूलन	-10.9414
▁पाता	-10.9414
▁Finally	-10.9417
▁तरल	-10.9417
▁वर्गीकृत	-10.942
ade	-10.9423
▁broken	-10.9425
▁dating	-10.9431
▁बाढ़	-10.9431
▁engineering	-10.9432
युक्त	-10.9432
▁लड़का	-10.9433
▁Students	-10.9436
▁leather	-10.9439
▁सोचा	-10.944
ुल	-10.944
▁Which	-10.9441
▁मस्तिष्क	-10.9441
▁ण	-10.9442
▁रुक	-10.9447
hr	-10.9451
▁Network	-10.9451
ice	-10.9453
▁university	-10.9453
▁प्राइवेट	-10.9453
▁सारांश	-10.9454
▁writer	-10.9454
▁edition	-10.9456
जीत	-10.9457
शास्त्र	-10.9457
▁छाया	-10.9457
▁खतरनाक	-10.9458
▁Australian	-10.9458
▁Room	-10.9459
्ट	-10.9464
▁Sam	-10.9464
▁बांग्लादेश	-10.9466
▁रू	-10.9471
▁Arts	-10.9473
▁Smith	-10.9473
▁sauce	-10.9478
▁conduct	-10.9478
▁Sometimes	-10.9482
▁historical	-10.9485
▁luxury	-10.9487
▁painting	-10.9491
▁engage	-10.9492
▁failure	-10.9492
▁जर्मनी	-10.9493
ani	-10.9493
न्स	-10.9494
▁Congress	-10.9496
▁भविष्यवाणी	-10.9497
▁भोपाल	-10.9502
▁Special	-10.9505
▁leg	-10.9505
▁Did	-10.9509
▁सॉफ्टवेयर	-10.9511
istic	-10.9512
▁उड़	-10.9513
▁truck	-10.9513
▁झ	-10.9513
▁bath	-10.9515
▁दलों	-10.9521
▁हजारों	-10.9526
▁standing	-10.9529
▁शेर	-10.953
▁tasks	-10.9536
▁समझै	-10.9537
▁Full	-10.9538
▁Table	-10.9539
▁bi	-10.9539
▁trouble	-10.954
▁विष्णु	-10.954
▁बाइनरी	-10.9541
▁OR	-10.9543
▁बाएं	-10.9548
▁Back	-10.955
▁मुक्ति	-10.955
▁तिल	-10.9551
▁छत	-10.9552
▁cycle	-10.9557
▁सैनिकों	-10.9562
▁sheet	-10.9563
▁0,	-10.9563
▁बढ़ी	-10.9565
▁उद्घाटन	-10.9565
▁exact	-10.9565
▁व्यक्तित्व	-10.9566
नेट	-10.9566
▁reasonable	-10.957
▁कारणों	-10.9573
▁payments	-10.9574
▁ई०	-10.9574
▁कोलकाता	-10.9575
▁Canadian	-10.9575
▁accident	-10.9577
▁Tom	-10.9578
▁0.	-10.9579
वेल	-10.958
▁signal	-10.958
41	-10.9581
▁पाद	-10.9586
▁फा	-10.9588
▁successfully	-10.9591
▁सेक्टर	-10.9592
▁सैनिक	-10.9594
▁submit	-10.9598
▁लड़कियों	-10.9599
▁Ma	-10.9601
▁धरती	-10.9605
पत्र	-10.9606
हीन	-10.9606
▁चौड़ाई	-10.9608
▁silver	-10.9609
ala	-10.9609
▁प्रवक्ता	-10.9609
कर्म	-10.9611
▁celebrate	-10.9616
्यो	-10.9619
▁स्टाफ	-10.962
▁phase	-10.9621
town	-10.9623
▁रेट	-10.9623
▁धारणा	-10.9623
स्व	-10.9624
▁बेहतरीन	-10.9625
▁rear	-10.9627
▁contemporary	-10.9628
▁arm	-10.9629
▁पॉजिटिव	-10.9633
▁proposed	-10.9636
▁studio	-10.9637
▁shares	-10.9638
▁married	-10.9638
▁जिम	-10.9638
▁premium	-10.9639
▁employment	-10.9643
▁plate	-10.9646
वाई	-10.9647
▁trained	-10.9647
▁gear	-10.9649
▁अनिल	-10.965
75	-10.965
▁सैन	-10.965
▁भावनाओं	-10.9653
▁गाय	-10.9655
▁collaboration	-10.9658
▁template	-10.9659
▁arrived	-10.9669
▁portion	-10.967
▁हवै	-10.9671
US	-10.9671
▁investors	-10.9672
▁मुद्दों	-10.9673
▁assessment	-10.9677
▁अभिनय	-10.9678
MS	-10.968
▁क्षेत्रन	-10.968
▁earn	-10.968
लिस्ट	-10.9686
▁rare	-10.9687
▁दि	-10.9689
▁जयपुर	-10.9691
▁प्रशिक्षित	-10.9691
▁Series	-10.9692
▁चीजों	-10.9696
mi	-10.9696
▁द्वार	-10.9701
▁village	-10.9705
▁साथै	-10.9706
▁चौहान	-10.9707
gar	-10.9712
▁patterns	-10.9714
▁तारीफ	-10.9719
set	-10.9724
▁EU	-10.9727
▁shoes	-10.9731
This	-10.9731
ita	-10.9732
▁Dan	-10.9732
▁mortgage	-10.9732
▁बुद्ध	-10.9732
ight	-10.9735
▁concerned	-10.9736
▁bigger	-10.9738
▁44	-10.9741
fer	-10.9741
-6	-10.9745
stone	-10.9747
▁Search	-10.9747
▁लक्ष्मी	-10.9748
▁mountain	-10.9752
▁Very	-10.9753
▁चम्मच	-10.9757
ned	-10.9761
▁sessions	-10.9767
85	-10.9769
▁मोड़	-10.9771
▁ticket	-10.9772
र्ड	-10.9774
▁प्लेट	-10.9774
ज्ञ	-10.9776
▁सांस	-10.9778
▁64	-10.9779
▁adult	-10.9784
▁agencies	-10.9786
don	-10.9787
▁अहमद	-10.9791
▁ईंधन	-10.9791
▁river	-10.9796
▁मार्क	-10.9797
form	-10.9798
▁रनों	-10.9803
57	-10.9803
▁remote	-10.9807
▁answers	-10.9811
▁लिखें	-10.9811
▁foundation	-10.9812
▁पुरुषों	-10.9813
▁कोण	-10.9814
▁जीरो	-10.9816
▁Japanese	-10.9816
▁twice	-10.9821
▁messages	-10.9823
▁चीजें	-10.9824
▁log	-10.9825
▁Review	-10.9825
▁Key	-10.9825
▁mouth	-10.9826
▁diverse	-10.9827
▁stick	-10.9827
▁ease	-10.9827
▁joy	-10.9828
▁circumstances	-10.9828
▁Conference	-10.9836
▁एसोसिएशन	-10.9836
▁Children	-10.9836
▁crew	-10.9838
रन	-10.9838
▁defined	-10.9843
▁जीन	-10.9843
▁कॉफी	-10.9846
▁candidates	-10.9851
▁butter	-10.9852
▁appeared	-10.9852
▁Robert	-10.9854
टाइम	-10.9854
द्	-10.9856
mar	-10.9857
▁उठ	-10.9857
▁par	-10.9858
nic	-10.9861
▁रूपरेखा	-10.9864
▁लाइट	-10.9864
▁perspective	-10.9865
▁परस्पर	-10.9865
▁जानना	-10.9865
▁हानि	-10.9867
tu	-10.9869
▁cap	-10.9872
▁लड़	-10.9874
▁emotional	-10.9875
▁expand	-10.9877
ery	-10.9877
31	-10.9882
▁About	-10.9882
फल	-10.9882
▁pack	-10.9883
PA	-10.9885
सार	-10.9885
64	-10.9885
▁implementation	-10.9889
▁boy	-10.989
▁beat	-10.9891
▁बेस	-10.9892
ck	-10.9893
▁awareness	-10.9895
ep	-10.9896
▁अनुच्छेद	-10.9897
▁चौथे	-10.9898
▁hardware	-10.9898
▁कठोर	-10.9902
▁एकीकृत	-10.9903
▁pot	-10.9907
▁बॉस	-10.9918
▁प्रोग्रामिंग	-10.9918
घर	-10.992
▁जिनकी	-10.9922
▁residential	-10.9922
▁खूबसूरत	-10.9922
▁integrated	-10.9926
▁डेट	-10.9928
▁लिंग	-10.9929
▁टीका	-10.993
▁accessible	-10.9933
OR	-10.9936
▁parent	-10.9938
▁भक्त	-10.9948
▁massive	-10.9948
ris	-10.9948
धि	-10.9948
▁ऑन	-10.9951
▁NOT	-10.9951
▁उन्होने	-10.9952
▁chat	-10.9953
▁गहराई	-10.9954
▁worldwide	-10.9958
▁machines	-10.9958
▁constantly	-10.9961
▁challenging	-10.9967
▁केजरीवाल	-10.9972
▁कीवर्ड	-10.9972
▁एजेंट	-10.9973
▁MA	-10.9973
▁relatively	-10.9976
▁सड़कों	-10.9978
▁बहस	-10.9979
▁frequently	-10.998
86	-10.998
▁मृतक	-10.9985
ip	-10.9986
▁बैक	-10.999
▁procedures	-10.9992
▁recorded	-10.9998
▁forces	-10.9998
▁कहती	-11
▁cake	-11
▁बेटा	-11
म्ब	-11.0002
▁धक	-11.0004
▁चर्च	-11.0004
▁camp	-11.0005
▁election	-11.0006
▁चेन्नई	-11.0008
▁vacation	-11.0013
PS	-11.0016
▁इकट्ठा	-11.0019
▁भाषाओं	-11.0027
र्ग	-11.0029
पास	-11.003
▁भरने	-11.003
▁चाल	-11.0034
ification	-11.0036
▁ईरान	-11.0038
▁सत्यापन	-11.0039
▁सम्पूर्ण	-11.0044
You	-11.005
▁1000	-11.0051
▁उतर	-11.0053
▁तिवारी	-11.0054
act	-11.0057
▁MS	-11.0058
▁exclusive	-11.0058
▁qualified	-11.006
ङ्ग	-11.0061
▁काली	-11.0061
▁कैसा	-11.0064
▁यहै	-11.0066
▁failed	-11.0066
room	-11.0067
▁accepted	-11.0067
▁साधु	-11.0072
▁soil	-11.0072
▁अद्भुत	-11.0074
बि	-11.0075
ile	-11.0078
▁domestic	-11.0079
▁जन्मदिन	-11.008
शि	-11.008
▁योग्यता	-11.0083
▁closely	-11.0084
▁flexible	-11.0085
▁खतरे	-11.0087
-7	-11.0087
▁default	-11.0088
▁stunning	-11.009
▁Tri	-11.0094
▁तुर्की	-11.0094
mb	-11.0095
-12	-11.01
▁चेहरा	-11.01
▁पाठक	-11.0103
▁अनुपालन	-11.0105
ns	-11.0109
▁पक्षी	-11.0109
▁stated	-11.011
▁अग्रवाल	-11.0111
▁trend	-11.0115
▁freedom	-11.0116
▁Support	-11.0121
▁ऑपरेटर	-11.0121
▁interface	-11.0121
▁मृत	-11.0122
▁vital	-11.0125
▁भ्रष्टाचार	-11.0126
▁अत	-11.0126
▁कंट्रोल	-11.0127
▁engagement	-11.0128
▁जीता	-11.013
दूसरे	-11.0131
▁प्रायः	-11.0138
▁situations	-11.014
▁विटामिन	-11.0141
point	-11.0146
▁पसंदीदा	-11.0146
ل	-11.0151
▁दया	-11.0152
ological	-11.0153
king	-11.0154
tle	-11.0154
▁इंडस्ट्री	-11.0155
▁aspect	-11.0158
श्री	-11.0158
फी	-11.0159
▁browser	-11.0164
▁प्रतिष्ठित	-11.0167
pr	-11.0169
्यू	-11.0171
▁fourth	-11.0171
▁skill	-11.0171
▁स्वचालित	-11.0172
वीर	-11.0173
▁grown	-11.0177
▁Italian	-11.0177
▁लूट	-11.0179
ेर	-11.0179
▁Martin	-11.018
क्त	-11.0181
▁जोड़ै	-11.0186
▁सूचित	-11.0188
▁yellow	-11.019
▁Price	-11.019
▁mo	-11.0192
▁ऐलान	-11.0193
▁Start	-11.0193
▁description	-11.0194
70	-11.0195
▁चरणन	-11.0195
ven	-11.0197
▁preparation	-11.0198
▁सबके	-11.0202
▁taught	-11.0203
▁राग	-11.0205
▁सदी	-11.0207
▁ग्रीन	-11.0209
▁planned	-11.0209
▁cable	-11.0211
iz	-11.0214
▁Ta	-11.0217
▁Trust	-11.0221
fa	-11.0222
ens	-11.0224
गन	-11.0224
▁golf	-11.0225
▁मारा	-11.0228
▁innovation	-11.0231
▁expectations	-11.0233
▁रै	-11.0236
▁जाँच	-11.0237
▁improvement	-11.0238
▁concern	-11.0242
▁imagine	-11.0242
▁agreed	-11.0245
▁extended	-11.0246
ru	-11.0248
▁पड़ती	-11.0249
▁फरार	-11.0252
SC	-11.0252
▁सर्विस	-11.0253
▁le	-11.0253
▁ज़	-11.0255
▁institutions	-11.0255
▁सोचत	-11.0258
▁Town	-11.0259
▁दोबारा	-11.0261
▁खुल	-11.0261
पद	-11.0261
▁impressive	-11.0261
▁Ch	-11.0262
▁लाखों	-11.0263
▁कारोबार	-11.0265
▁sport	-11.0265
▁na	-11.0268
▁protected	-11.0269
▁officials	-11.0269
▁searching	-11.027
▁पिछली	-11.0271
▁शक	-11.0271
▁appeal	-11.0273
▁इलेक्ट्रिक	-11.0275
▁Bio	-11.0275
om	-11.0277
▁holds	-11.0278
55	-11.0279
har	-11.0279
▁regional	-11.028
log	-11.0281
▁conducted	-11.0281
▁spiritual	-11.0286
▁शिक्षकों	-11.0289
▁क्षेत्रफल	-11.029
▁गुणांक	-11.0291
ांग	-11.0296
▁destination	-11.0299
▁बचत	-11.0299
De	-11.03
लू	-11.03
▁प्रोफाइल	-11.0303
▁गले	-11.0305
▁typical	-11.0306
▁Academy	-11.0308
▁आयाम	-11.0313
▁चे	-11.0315
ov	-11.0315
▁स्नान	-11.0318
▁orders	-11.0319
▁पड़ोसी	-11.0322
▁उठाने	-11.0326
▁लिखने	-11.0326
▁theory	-11.0327
▁विशेषताओं	-11.0327
▁डायरेक्टर	-11.0327
▁भ्रम	-11.0328
▁exposure	-11.0329
▁Mi	-11.0329
▁शतक	-11.0331
धी	-11.0331
▁8.	-11.0332
६	-11.0332
▁फ़ील्ड	-11.0337
टू	-11.0339
▁everyday	-11.034
▁गहरी	-11.034
▁मंजूरी	-11.0342
▁केरल	-11.0343
▁कब्जा	-11.0344
▁operate	-11.0345
धारा	-11.0348
▁serves	-11.035
▁native	-11.035
▁outstanding	-11.0362
che	-11.0368
▁Step	-11.0369
▁positions	-11.0369
्त	-11.037
▁चढ़	-11.037
▁शिखर	-11.0371
र्ज	-11.0372
with	-11.0374
▁रखकर	-11.0374
▁सीख	-11.0374
▁झील	-11.0376
▁दिलचस्प	-11.0377
▁लॉ	-11.0377
▁स्तंभ	-11.0381
द्ध	-11.0393
▁बीमा	-11.0394
स्थान	-11.0395
▁du	-11.0397
▁identity	-11.0397
▁लौटा	-11.0398
▁99	-11.04
▁नै	-11.0403
▁अरे	-11.0405
▁परम्परा	-11.0406
▁Dec	-11.0412
▁television	-11.0413
▁honor	-11.0414
ified	-11.0414
कर्ता	-11.0415
▁plays	-11.0415
▁closer	-11.0416
▁movies	-11.0419
▁जेम्स	-11.0419
▁featured	-11.042
▁quiet	-11.0421
48	-11.0422
▁Looking	-11.0424
▁रिश्ता	-11.0424
▁नारायण	-11.0424
ot	-11.0425
▁exist	-11.0426
▁removal	-11.0429
▁सख्त	-11.043
▁IP	-11.0431
▁रिश्ते	-11.0432
99	-11.0432
ag	-11.0434
▁प्रसन्न	-11.0434
water	-11.0437
▁scientific	-11.0437
▁agents	-11.0438
हन	-11.0438
▁executive	-11.0439
▁Middle	-11.044
▁यूजर्स	-11.0442
जर	-11.0444
▁vi	-11.0445
▁depth	-11.0446
ming	-11.0447
▁हरा	-11.0447
▁बदलै	-11.0448
IA	-11.0448
▁electrical	-11.0451
▁इंसान	-11.0451
▁killed	-11.0451
आधारित	-11.0458
▁speaking	-11.0459
▁Festival	-11.0461
▁begins	-11.0463
▁styles	-11.0465
▁नृत्य	-11.0469
▁criminal	-11.0469
▁गहरा	-11.047
▁प्रोफेसर	-11.0472
▁bottle	-11.0477
▁मास्क	-11.0477
▁वैध	-11.0479
▁Buy	-11.0481
▁न्यूजीलैंड	-11.0488
▁माप	-11.049
▁बिन	-11.0495
38	-11.0498
▁हिरासत	-11.0498
Pro	-11.0499
▁reflect	-11.0507
▁Fund	-11.0507
▁meetings	-11.0508
▁क्रोध	-11.051
▁फ्री	-11.051
▁upcoming	-11.0511
▁Game	-11.0511
04	-11.0513
▁जाओ	-11.0513
▁£	-11.0513
ेंस	-11.0516
▁सहयोगी	-11.0516
▁Human	-11.0517
▁डाक्टर	-11.0521
▁वार्षिक	-11.0523
▁compare	-11.0528
46	-11.053
▁प्रदूषण	-11.053
▁mail	-11.0532
▁आग्रह	-11.0533
▁बढ़ता	-11.0533
▁personally	-11.0534
▁संज्ञा	-11.0534
▁इवेंट	-11.0536
▁नाव	-11.0538
है	-11.0542
▁कागज	-11.0544
▁संत	-11.0544
▁pen	-11.0548
▁कमल	-11.0552
▁hosting	-11.0553
▁उपदेश	-11.0553
▁banks	-11.0554
69	-11.0555
▁wheel	-11.0556
▁reduction	-11.0558
▁turns	-11.0559
▁objects	-11.0559
▁टू	-11.0559
▁जोड़कर	-11.0564
▁loans	-11.0564
pur	-11.0565
▁happening	-11.0565
प्स	-11.0566
▁सव	-11.0569
▁fell	-11.0569
▁scheduled	-11.0572
▁programme	-11.0574
▁आयन	-11.0574
▁ग्रामीणों	-11.0575
▁पश्चात्	-11.0576
▁जापानी	-11.0577
ai	-11.0578
▁लगाते	-11.058
▁बढ़कर	-11.0582
09	-11.0585
ियर	-11.0587
▁boost	-11.0588
▁एक्शन	-11.0588
▁मनोरंजन	-11.059
▁clothes	-11.0591
51	-11.0591
▁01	-11.0592
▁recognized	-11.0593
▁defense	-11.0594
ini	-11.0596
▁supports	-11.06
▁informed	-11.0601
▁हरी	-11.0601
▁धूप	-11.0607
▁माया	-11.0608
▁da	-11.061
▁mixed	-11.061
जु	-11.0611
▁ma	-11.0613
pi	-11.0615
▁Card	-11.062
▁apartment	-11.0622
▁membership	-11.0623
▁pm	-11.0624
▁व्यावहारिक	-11.0627
▁महात्मा	-11.0628
ok	-11.0629
▁बीमार	-11.063
मार	-11.063
▁प्रारम्भ	-11.0631
▁ऋषि	-11.0632
▁सौंप	-11.0632
▁51	-11.0636
▁नित्य	-11.064
▁noise	-11.0644
▁ग्रंथ	-11.0644
▁Te	-11.0644
▁गौतम	-11.0649
▁मुफ्त	-11.065
तक	-11.0651
▁लै	-11.0655
▁यज्ञ	-11.0656
▁Fa	-11.0656
▁ad	-11.0662
CC	-11.0663
▁बिंदुओं	-11.0663
▁Through	-11.0665
ाब	-11.0668
▁worse	-11.0669
▁विवेक	-11.0671
▁u	-11.0675
न्द	-11.0675
▁मारने	-11.0676
▁चौ	-11.0676
▁resume	-11.0676
▁चुने	-11.0677
▁अधि	-11.0678
▁Hospital	-11.0681
▁adventure	-11.0683
43	-11.0687
▁trail	-11.0689
▁मन्दिर	-11.0692
▁atmosphere	-11.0693
▁authority	-11.0695
▁implement	-11.0697
▁para	-11.0698
▁airport	-11.07
▁राज्यपाल	-11.07
▁savings	-11.07
▁capable	-11.0705
67	-11.0705
tal	-11.0709
▁एरिया	-11.0709
▁healthcare	-11.071
▁formed	-11.0712
▁1960	-11.0712
▁component	-11.0718
▁partnership	-11.0721
▁गेंदबाज	-11.0721
▁खबरों	-11.0722
▁keeps	-11.0724
▁architecture	-11.0725
▁manufacturer	-11.0727
▁Thomas	-11.0731
56	-11.0732
▁दोषी	-11.0736
▁convenient	-11.0743
▁joint	-11.0744
▁ऊपरी	-11.0746
▁cute	-11.0746
्व	-11.0747
▁युवती	-11.0747
पु	-11.0749
▁RE	-11.0752
▁End	-11.0753
lar	-11.0754
▁नाइ	-11.0755
▁रैली	-11.0759
▁मुझसे	-11.076
05	-11.0762
▁female	-11.0765
▁किशोर	-11.0766
▁Line	-11.0767
▁पहाड़	-11.077
ple	-11.077
▁sister	-11.0771
ever	-11.0773
▁entirely	-11.0774
▁स्वाभाविक	-11.0775
▁टन	-11.0775
▁height	-11.0776
▁लेखन	-11.0777
▁apart	-11.0778
▁technique	-11.0781
ाम	-11.0781
▁आजादी	-11.0781
▁कउनो	-11.0782
▁entered	-11.0782
▁स्टाइल	-11.0782
▁ओकरे	-11.0784
▁पारित	-11.0785
▁concrete	-11.0786
▁Police	-11.0786
▁पोषण	-11.0789
▁पदक	-11.079
▁comparison	-11.0791
▁alcohol	-11.0793
▁व्य	-11.0793
ES	-11.0796
भाषा	-11.08
▁पोर्ट	-11.08
low	-11.0801
▁आंखों	-11.0801
▁संबंधों	-11.0806
▁विजेता	-11.0807
दु	-11.081
▁बेल	-11.0817
▁परिस्थितियों	-11.0819
▁featuring	-11.0819
अपने	-11.082
▁expression	-11.0821
▁generate	-11.0823
▁Store	-11.0825
▁Ab	-11.0827
▁वृक्ष	-11.0836
▁Russia	-11.0837
site	-11.0838
▁चित्त	-11.0845
▁pleased	-11.0846
tel	-11.0847
▁finance	-11.0847
▁अखिलेश	-11.0847
▁gun	-11.0852
63	-11.0852
▁स्	-11.0852
list	-11.0853
▁surprise	-11.0857
▁virtual	-11.0861
AM	-11.0861
▁gifts	-11.0863
▁AC	-11.0864
▁अपवाद	-11.0865
त्त	-11.0865
▁honest	-11.0871
▁carpet	-11.0875
▁शहरी	-11.0879
▁facing	-11.0882
▁degrees	-11.0885
▁guidance	-11.0885
▁बम	-11.0886
MA	-11.0887
▁Paris	-11.0888
▁ममता	-11.0891
▁collected	-11.0892
▁गुणों	-11.0893
▁slot	-11.0894
ct	-11.0899
▁नम्बर	-11.0901
▁सर्वश्रेष्ठ	-11.0902
▁नायक	-11.0903
▁William	-11.0904
▁Sp	-11.0904
▁Energy	-11.0904
▁लेंगे	-11.0906
▁पेंशन	-11.0907
▁पैक	-11.0908
▁Chris	-11.0909
▁डालने	-11.091
▁करिहैं	-11.0911
▁चावल	-11.0912
▁Class	-11.0915
▁बन्द	-11.0915
▁लगावा	-11.0917
▁पात्रन	-11.0919
षा	-11.0919
▁medicine	-11.092
pt	-11.092
▁असंभव	-11.0925
-5	-11.0925
▁कलर	-11.0927
▁वक्र	-11.0928
▁drugs	-11.0928
▁भाग्य	-11.0929
▁improving	-11.093
▁contribute	-11.093
200	-11.0935
▁टक्कर	-11.0935
▁Look	-11.0938
gu	-11.0941
▁strategic	-11.0941
▁bread	-11.0944
▁जाम	-11.0944
▁regulations	-11.0944
ern	-11.0945
▁Enjoy	-11.0947
▁सावधानी	-11.0948
▁जेहि	-11.095
ल्ट	-11.0952
▁कंटेनर	-11.0952
▁बच्ची	-11.0953
▁nearby	-11.0954
हू	-11.0955
▁इसीलिए	-11.0958
▁planet	-11.096
▁मोटर	-11.096
▁फॉलो	-11.0962
▁प्लेटफॉर्म	-11.0963
▁शीघ्र	-11.0964
▁missed	-11.0965
▁dealing	-11.0968
▁Guide	-11.0968
▁caught	-11.0969
▁सिनेमा	-11.097
cha	-11.097
▁powder	-11.0971
▁बढ़िया	-11.0974
▁समर्पित	-11.0975
▁resistance	-11.0977
▁घुस	-11.0977
▁आपसे	-11.0978
▁returns	-11.098
▁छोड़ने	-11.0982
▁Report	-11.0983
▁कन्या	-11.0986
▁choosing	-11.0986
▁बढ़ोतरी	-11.0986
▁Visit	-11.0987
▁शर्त	-11.0988
▁सुनने	-11.0989
▁53	-11.099
▁Chief	-11.0991
▁बैटरी	-11.0992
▁इंजीनियरिंग	-11.0993
▁monitoring	-11.0997
▁सोना	-11.0999
res	-11.1001
fe	-11.1001
72	-11.1002
▁crucial	-11.1003
03	-11.1003
▁जंग	-11.1005
▁Small	-11.1006
▁संदेह	-11.1009
▁solve	-11.1009
▁रेडियो	-11.1011
▁establish	-11.1016
▁डेविड	-11.102
chi	-11.1022
▁चार्ट	-11.1023
िटी	-11.1025
▁प्रेमी	-11.1025
yl	-11.1027
▁bonus	-11.1029
ेंद्र	-11.103
▁Pat	-11.103
▁deck	-11.1035
भी	-11.1035
▁सकेगा	-11.1037
▁moments	-11.1037
▁spaces	-11.1038
▁49	-11.104
▁Po	-11.1042
▁सर्च	-11.1042
▁craft	-11.1042
ations	-11.1043
▁noticed	-11.1047
▁soul	-11.1048
▁Mexico	-11.105
यी	-11.1051
▁महल	-11.1055
▁मैन	-11.1062
▁Pan	-11.1064
▁certified	-11.1065
▁लिमिटेड	-11.107
▁(1	-11.1073
▁सुनील	-11.1076
▁भूत	-11.1076
▁label	-11.1078
▁इंट	-11.1078
▁पंडित	-11.108
vin	-11.1081
▁oven	-11.1082
▁बुलाया	-11.1089
▁noted	-11.109
ug	-11.109
▁Spring	-11.1091
▁पुस्तकालय	-11.1093
▁Thus	-11.1094
▁stopped	-11.1094
▁रहस्य	-11.1096
▁winner	-11.1096
▁राह	-11.1097
▁भट्ट	-11.1099
▁समझना	-11.1099
▁600	-11.1099
▁झा	-11.11
▁attached	-11.1103
▁मानो	-11.1107
▁po	-11.1109
1.	-11.1109
▁सिविल	-11.111
▁गहन	-11.111
▁dental	-11.1111
▁आश्चर्य	-11.1116
▁booking	-11.1118
▁lessons	-11.1118
आप	-11.112
▁लेती	-11.112
▁trends	-11.1121
▁स्मार्ट	-11.1121
▁ancient	-11.1123
▁Spanish	-11.1124
िड	-11.1126
क्रम	-11.1128
-8	-11.1129
▁कनाडा	-11.1131
▁IS	-11.1135
▁investigation	-11.1137
berg	-11.1138
▁Despite	-11.1138
▁द्रव्यमान	-11.1139
▁सकी	-11.114
▁समा	-11.114
▁पॉइंट	-11.1142
▁शिक्षण	-11.1143
▁Professional	-11.1145
▁औषध	-11.1146
▁कं	-11.1147
▁इनकार	-11.1152
ju	-11.1153
▁निकलने	-11.1155
▁अंजाम	-11.1156
OS	-11.1156
▁ends	-11.1157
ose	-11.1158
▁increases	-11.116
▁musical	-11.116
▁निकले	-11.1162
▁अन्तर्गत	-11.1164
med	-11.1165
▁earned	-11.1166
▁समाजवादी	-11.1166
▁Shop	-11.1167
▁रवि	-11.1171
▁फार्म	-11.1174
▁achieved	-11.1174
TA	-11.1177
▁सफलतापूर्वक	-11.1179
▁consistent	-11.118
len	-11.118
▁yesterday	-11.1184
▁घंटों	-11.1184
▁सफर	-11.1184
▁घट	-11.1185
▁सहमत	-11.1186
▁religious	-11.1187
dis	-11.1187
▁शाहरुख	-11.119
▁usual	-11.1195
▁निष्पादन	-11.1196
गण	-11.1196
▁घाट	-11.1198
▁लगाना	-11.1202
▁Chi	-11.1204
▁charged	-11.1204
▁कमरा	-11.1205
▁पुरान	-11.1205
▁सृष्टि	-11.1206
▁तप	-11.1207
▁throw	-11.121
SE	-11.1211
▁Times	-11.1212
▁टैंक	-11.1212
▁एक्ट	-11.1212
AC	-11.1219
▁Unfortunately	-11.122
▁tested	-11.1221
▁धो	-11.1222
▁tables	-11.1223
you	-11.1223
▁जैक	-11.1224
▁fellow	-11.1224
▁यातायात	-11.1224
▁प्लास्टिक	-11.1224
▁obvious	-11.1226
▁dangerous	-11.1226
▁जाहिर	-11.1228
▁designer	-11.1229
▁networks	-11.1229
▁risks	-11.1229
ase	-11.1231
▁दोन	-11.1238
▁देखो	-11.124
▁desk	-11.1242
▁revealed	-11.1242
related	-11.1242
▁1990	-11.1243
▁बादल	-11.1243
▁monitor	-11.1247
▁परियोजनाओं	-11.1251
▁speech	-11.1251
▁बिल्ली	-11.1253
ble	-11.1255
▁https	-11.1256
▁graduate	-11.1258
▁सर्वे	-11.1264
▁grew	-11.1265
96	-11.1265
▁researchers	-11.1266
▁उमर	-11.1267
▁capture	-11.1268
▁transportation	-11.1272
▁वर्णित	-11.1274
▁im	-11.1274
▁2019.	-11.1278
▁कहेस	-11.128
▁LED	-11.1282
▁equipped	-11.1283
▁grand	-11.1285
डर	-11.1285
▁Order	-11.1286
तन	-11.1287
▁शख्स	-11.1288
▁expenses	-11.1288
▁poker	-11.1289
▁dish	-11.1293
ki	-11.1295
▁stands	-11.13
▁inches	-11.13
▁History	-11.1305
▁स्वर्ण	-11.1305
▁जताई	-11.1306
▁Instagram	-11.1307
▁organized	-11.1309
सेट	-11.1309
tri	-11.131
▁राजकुमार	-11.1313
▁zone	-11.1314
▁fly	-11.1315
▁wire	-11.1315
▁Test	-11.1316
▁प्रशंसा	-11.1317
▁valid	-11.1318
▁wearing	-11.1318
भूत	-11.1321
▁प्रत्याशी	-11.1323
LE	-11.1323
▁भेजे	-11.1323
▁कोर्स	-11.1324
▁केन्द्रीय	-11.1326
▁mainly	-11.1328
▁tiny	-11.133
▁निर्देशित	-11.1331
hand	-11.1334
▁reputation	-11.1334
▁हैदराबाद	-11.1334
▁धोनी	-11.1336
▁लाइव	-11.1337
▁2017.	-11.1337
▁turning	-11.1338
SP	-11.1338
▁logo	-11.1339
▁चिन्ह	-11.1339
▁candidate	-11.134
▁रसायन	-11.134
▁कष्ट	-11.1344
▁grant	-11.1346
▁गाना	-11.1347
▁स्तरों	-11.1347
▁jump	-11.135
ात्	-11.1352
रिस	-11.1355
▁मुँह	-11.1357
▁gorgeous	-11.1358
ada	-11.1358
▁contest	-11.1358
tain	-11.1361
▁Inter	-11.1361
ल्ला	-11.1366
▁1999	-11.1367
▁campus	-11.1368
59	-11.1368
बो	-11.1373
पल	-11.1374
ेन्द्र	-11.1375
▁साइकिल	-11.1375
▁obtained	-11.1377
▁खुला	-11.138
▁बॉडी	-11.1383
▁अधिकतर	-11.1383
▁talent	-11.1384
▁पोल	-11.1386
▁discussed	-11.1386
▁Should	-11.1389
▁आकलन	-11.1392
▁1949	-11.1394
▁Right	-11.1394
▁bags	-11.1395
बद्ध	-11.1398
ants	-11.1398
▁border	-11.1398
▁मारपीट	-11.1399
▁इनसे	-11.1399
du	-11.1402
▁इन्द्र	-11.1403
▁filed	-11.1403
▁neck	-11.1404
Co	-11.1404
▁debate	-11.1405
▁पहाड़ी	-11.1409
गार	-11.1416
▁जितनी	-11.1416
▁फायर	-11.1417
▁framework	-11.1417
▁वकल्प	-11.1418
sk	-11.1418
▁हनुमान	-11.1422
▁लघु	-11.1422
▁linked	-11.1423
▁इंडेक्स	-11.1427
▁Ni	-11.1427
▁प्रताप	-11.1428
▁अनुमानित	-11.1429
्ज	-11.143
▁Come	-11.1431
az	-11.1432
▁प्लॉट	-11.1436
▁जटिलता	-11.1436
▁normally	-11.1438
स्ट्रिंग	-11.144
▁ongoing	-11.1441
▁quote	-11.1446
▁stars	-11.1447
▁labor	-11.1448
▁दिनांक	-11.1448
▁workshop	-11.1449
▁carbon	-11.145
▁स्पेशल	-11.145
▁unable	-11.145
▁arrive	-11.1456
sy	-11.1457
CO	-11.1457
ub	-11.1459
ou	-11.146
▁citizens	-11.1462
▁managing	-11.1463
oo	-11.1464
sc	-11.1465
▁dynamic	-11.1468
▁मुकदमा	-11.1469
▁खारिज	-11.1469
▁$3	-11.1471
▁मार्केट	-11.1472
IS	-11.1474
ूर	-11.1474
▁creates	-11.1475
▁liquid	-11.1478
सेन	-11.1478
शक्ति	-11.1479
▁गुस्सा	-11.1481
▁officer	-11.1483
▁vary	-11.1483
▁Welcome	-11.1483
$	-11.1488
▁picked	-11.1489
▁आदेशों	-11.1489
▁कर्ज	-11.149
▁Sub	-11.149
bb	-11.1492
भाग	-11.1493
▁horse	-11.1494
▁प्रतिमा	-11.1496
▁Help	-11.1499
▁चालू	-11.15
▁ages	-11.1502
▁Digital	-11.1502
ET	-11.1503
ks	-11.1504
▁जनपद	-11.1504
▁4-	-11.1504
▁crisis	-11.151
▁अंतराल	-11.1511
शील	-11.1512
▁दवाओं	-11.1513
▁बैंकों	-11.1516
▁कार्मिक	-11.1516
ेक	-11.1517
ev	-11.1517
more	-11.1518
▁civil	-11.1521
▁gallery	-11.1522
टिक	-11.1522
▁भावनात्मक	-11.1522
▁committee	-11.1524
ंगे	-11.1525
▁उपाध्यक्ष	-11.1528
▁ट्रेनिंग	-11.1529
▁आर्य	-11.153
▁आएगा	-11.153
▁urban	-11.1531
▁resulting	-11.1532
▁जगहों	-11.1534
06	-11.1534
▁मास	-11.1535
▁प्रावधान	-11.1536
▁फुट	-11.1536
89	-11.1538
73	-11.154
71	-11.1541
▁prove	-11.1542
▁generated	-11.1543
ib	-11.1546
▁fishing	-11.1546
▁Try	-11.1546
▁माँग	-11.155
▁evaluation	-11.155
▁गेंदों	-11.1551
▁whenever	-11.1551
▁रवाना	-11.1552
▁papers	-11.1553
St	-11.1553
▁originally	-11.1553
▁Cat	-11.1554
▁टेलीविजन	-11.1558
▁दिक्कत	-11.1558
▁गौरव	-11.1558
▁पहुँचा	-11.1559
▁पवन	-11.1563
▁पुण्य	-11.1563
▁printed	-11.1565
mon	-11.1567
▁shift	-11.1568
class	-11.157
▁उपज	-11.1571
▁क्रांति	-11.1575
▁formal	-11.1575
▁मार्गदर्शन	-11.1576
▁बनकर	-11.1578
▁भागीदारी	-11.1579
▁communicate	-11.1579
रिक	-11.158
▁नी	-11.1581
▁tech	-11.1583
▁consultation	-11.1583
53	-11.1584
▁km	-11.1585
▁शैक्षिक	-11.1587
68	-11.1589
▁किंतु	-11.159
rate	-11.1592
RA	-11.1592
▁AS	-11.1595
▁शान्ति	-11.1595
▁संख्यात्मक	-11.1596
▁चि	-11.1597
▁ओपन	-11.1598
66	-11.16
▁chief	-11.1601
ाः	-11.1601
08	-11.1602
war	-11.1605
▁जगत्	-11.1606
▁attorney	-11.1608
और	-11.1608
▁Such	-11.1609
▁pure	-11.1612
ून	-11.1612
▁lift	-11.1614
▁arts	-11.1617
▁मेट्रो	-11.162
▁Site	-11.1621
▁filter	-11.1622
▁स्वर्ग	-11.1622
िकल	-11.1622
▁लेय	-11.1625
▁लु	-11.1626
ंडी	-11.163
▁Mike	-11.1633
▁फिल्टर	-11.1635
▁indeed	-11.1635
▁टीमों	-11.1635
छोट	-11.1637
▁minor	-11.1638
▁fitness	-11.1638
uff	-11.1639
▁संभवतः	-11.1642
▁constant	-11.1643
▁specialist	-11.1643
lon	-11.1646
धन	-11.1647
▁Hu	-11.1647
▁रैखिक	-11.1649
▁Join	-11.1651
▁ordered	-11.1654
▁portfolio	-11.1659
▁मूवी	-11.166
▁attractive	-11.166
level	-11.1661
rie	-11.1663
▁पइ	-11.1663
▁परिवारों	-11.1663
▁Cross	-11.1663
▁स्थानांतरित	-11.1665
▁Lee	-11.1665
▁हिस्सों	-11.1669
▁विधायकों	-11.1669
▁Col	-11.1671
▁relief	-11.1671
▁tells	-11.1671
▁मोल	-11.1672
▁पीछा	-11.1672
▁photography	-11.1673
▁listening	-11.1675
▁चुन	-11.1677
बिट	-11.1678
▁घास	-11.1679
वाली	-11.168
▁dates	-11.168
▁wash	-11.1684
▁बचपन	-11.1685
av	-11.1687
61	-11.1687
▁3-	-11.1688
आउट	-11.1691
▁Sha	-11.1692
▁बाबू	-11.1693
▁possibility	-11.1695
निया	-11.1696
▁DC	-11.1698
▁Second	-11.1699
▁जायगा	-11.1699
▁सभ्यता	-11.1699
▁व्यय	-11.1701
▁beer	-11.1703
▁tight	-11.1705
▁ग्रे	-11.1705
▁एकता	-11.1706
▁broad	-11.1706
▁रहित	-11.1706
▁स्पेनिश	-11.1707
▁इष्टतम	-11.1713
98	-11.1714
▁यौन	-11.1714
▁Though	-11.1714
ंडर	-11.1718
▁ST	-11.172
ियम	-11.1721
ell	-11.1725
▁अफगानिस्तान	-11.1725
▁explained	-11.1726
▁देगी	-11.1726
▁stored	-11.1728
▁ग्रेड	-11.1729
▁historic	-11.173
▁tip	-11.173
▁profit	-11.1731
▁brief	-11.1734
▁72	-11.1736
▁वादा	-11.1737
▁महोदय	-11.1738
▁कस्टम	-11.174
कू	-11.1742
▁समीक्षक	-11.1743
▁Cor	-11.1744
प्प	-11.1744
▁proof	-11.1744
▁दिखाने	-11.1745
AP	-11.1746
▁मोहन	-11.1751
▁निपटने	-11.1751
▁Farm	-11.1752
ौर	-11.1753
▁Local	-11.1753
▁conflict	-11.1754
▁बैठकों	-11.1755
▁forced	-11.1756
▁फ्रेंच	-11.1756
▁पाठ्यक्रम	-11.1756
▁हरे	-11.1757
▁Santa	-11.1759
▁thin	-11.176
▁manufacturers	-11.1762
▁Com	-11.1764
▁उपहार	-11.1764
▁th	-11.1767
▁राव	-11.1767
▁सब्जी	-11.1768
▁सीरियल	-11.1769
हिं	-11.1773
▁सीबीआई	-11.1775
zo	-11.1775
tz	-11.1775
▁Ga	-11.1776
sis	-11.1779
▁गायक	-11.1779
▁Little	-11.1779
▁visited	-11.178
▁sustainable	-11.178
ारा	-11.1782
▁अंडे	-11.1783
▁Americans	-11.1784
▁समझते	-11.1784
ोव	-11.1784
▁खींच	-11.1785
▁संदिग्ध	-11.1786
▁Three	-11.1786
▁Yet	-11.1787
▁flavor	-11.1789
▁आएंगे	-11.179
▁Van	-11.179
▁Port	-11.1791
▁क्रेडिट	-11.1792
▁shoot	-11.1793
▁मुला	-11.1795
▁Par	-11.1795
▁गरम	-11.1796
ving	-11.1797
▁हाईकोर्ट	-11.1798
54	-11.18
▁चन्द्र	-11.1802
▁Being	-11.1805
ette	-11.1806
ena	-11.1807
▁भरपूर	-11.181
▁औरत	-11.1812
▁Mill	-11.1814
▁shops	-11.1815
▁Obama	-11.1816
▁west	-11.1819
62	-11.182
▁समृद्ध	-11.1821
क्यू	-11.1824
▁मिश्र	-11.1829
▁UN	-11.1829
▁Ra	-11.183
सल	-11.1831
pre	-11.1833
▁असफल	-11.1833
ane	-11.1833
▁गेंदबाजी	-11.1834
py	-11.184
Fi	-11.1841
▁पुराना	-11.1842
▁communications	-11.1843
▁boys	-11.1844
▁पायलट	-11.1848
▁चार्ज	-11.1849
▁95	-11.185
▁deposit	-11.185
▁800	-11.1855
▁दरवाजा	-11.1859
▁Jersey	-11.1859
▁vast	-11.186
44	-11.186
▁Gar	-11.1862
▁डब्ल्यू	-11.1865
▁चलाया	-11.1866
▁साइड	-11.1869
▁Building	-11.187
▁Insurance	-11.1871
▁marriage	-11.1871
▁reader	-11.1873
▁निक	-11.1873
nie	-11.1874
▁reporting	-11.1875
▁extension	-11.1876
52	-11.1877
▁impossible	-11.1878
▁क्योकि	-11.1878
▁accessories	-11.1878
▁Additionally	-11.188
▁घाटी	-11.1882
▁supposed	-11.1882
▁चोर	-11.1882
].	-11.1884
▁कटौती	-11.1884
?"	-11.1885
▁Ge	-11.1887
▁कैबिनेट	-11.189
▁9.	-11.189
▁क्रॉस	-11.1897
▁Angeles	-11.1898
▁Italy	-11.1898
▁उपकरणों	-11.19
▁आरंभ	-11.19
▁उर्फ	-11.1901
▁बनता	-11.1901
▁telling	-11.1903
▁47	-11.1903
▁कपिल	-11.1904
▁Tu	-11.1904
88	-11.1905
▁सुनाई	-11.1909
▁platforms	-11.1911
▁neighborhood	-11.1912
▁mining	-11.1913
▁Area	-11.1913
76	-11.1914
quality	-11.1915
▁आक्रमण	-11.1915
▁तुम्हारी	-11.1917
प्रति	-11.1919
▁mixture	-11.1921
▁तरंग	-11.1922
▁पर्व	-11.1922
ez	-11.1922
▁सबको	-11.1924
▁हिल	-11.1925
▁आशंका	-11.1927
ella	-11.1933
app	-11.1936
58	-11.1936
▁Richard	-11.1939
▁recording	-11.1939
▁Boston	-11.1939
▁मनोज	-11.1941
▁देरी	-11.1941
▁narrow	-11.1945
▁films	-11.1947
▁इलेक्ट्रॉन	-11.195
▁निर	-11.1951
▁calendar	-11.1951
▁विद्यार्थियों	-11.1951
▁सबूत	-11.1954
▁हॉल	-11.1955
▁recognize	-11.1956
▁Machine	-11.1957
▁justice	-11.1958
▁east	-11.1959
mit	-11.196
▁Tour	-11.196
▁approval	-11.1961
isation	-11.1962
▁भव्य	-11.1963
▁लगाएं	-11.1963
▁clothing	-11.1964
ath	-11.1966
▁SP	-11.1967
▁जाया	-11.1968
▁आतंकी	-11.1968
zi	-11.1969
▁firms	-11.1969
▁होली	-11.1974
▁Cha	-11.1975
▁अस्थायी	-11.1976
▁कुत्ते	-11.1976
▁Remember	-11.1977
▁chemical	-11.1977
▁बालक	-11.1979
▁hang	-11.198
▁निभा	-11.1984
▁Systems	-11.1984
▁झूठ	-11.1985
He	-11.1985
▁proven	-11.1988
ero	-11.1989
▁सेल्सियस	-11.1989
87	-11.1989
गुण	-11.199
▁चुनावों	-11.1992
▁46	-11.1993
स्स	-11.1995
ाचार्य	-11.1995
▁Need	-11.1996
▁tank	-11.1996
▁लायक	-11.1996
▁Scott	-11.1997
▁suggested	-11.1997
▁आदत	-11.2001
▁विपक्षी	-11.2002
▁Mobile	-11.2003
न्ति	-11.2005
▁वंश	-11.2006
eg	-11.2006
▁scheme	-11.2007
▁desired	-11.2012
▁guitar	-11.2012
ानु	-11.2013
▁performing	-11.2018
92	-11.202
77	-11.2022
▁LA	-11.2025
▁Pe	-11.2026
▁split	-11.2026
▁password	-11.2026
▁inner	-11.2027
▁confident	-11.2028
▁अंतर्निहित	-11.2032
ms	-11.2035
▁PDF	-11.2038
▁रोटी	-11.2038
▁realized	-11.2042
▁परिणामी	-11.2043
▁dust	-11.2047
ola	-11.2047
▁परिचित	-11.2051
▁referred	-11.2054
▁tape	-11.2054
▁taxes	-11.2054
▁primarily	-11.2057
▁एहसास	-11.2057
▁हैरान	-11.206
▁उपलब्धि	-11.206
▁;	-11.2068
▁नोडल	-11.207
pp	-11.2071
▁बढ़ावै	-11.2071
▁Library	-11.2072
▁करवाया	-11.2073
मेट	-11.2073
शु	-11.2075
▁नाग	-11.2076
▁पीढ़ी	-11.2076
▁सौंपा	-11.2079
▁टेक	-11.2079
▁गणेश	-11.208
▁hotels	-11.2084
long	-11.2085
७	-11.2087
नर	-11.209
्ल	-11.2091
▁Pay	-11.2093
▁पोषक	-11.2095
▁Executive	-11.2096
▁folks	-11.2098
▁5-	-11.21
▁ड्रेस	-11.21
▁invest	-11.2101
cho	-11.2104
▁drawing	-11.2104
▁राजीव	-11.2104
▁tap	-11.2105
▁Sports	-11.2105
▁मिलै	-11.2106
star	-11.2106
▁आयुक्त	-11.2106
▁pleasure	-11.2107
▁treatments	-11.2109
NA	-11.2109
ash	-11.2109
▁bridge	-11.2109
▁versions	-11.211
हरा	-11.2113
▁घन	-11.2113
ob	-11.2114
▁टुकड़ा	-11.2116
IN	-11.2119
▁Page	-11.2119
mp	-11.2122
ren	-11.2124
ual	-11.2126
▁applicable	-11.2126
ari	-11.2126
▁आकर्षण	-11.2127
भि	-11.2128
IP	-11.2128
▁sink	-11.2129
jo	-11.213
▁जला	-11.213
ick	-11.2131
▁none	-11.2132
style	-11.2132
▁बायो	-11.2134
▁contrast	-11.2134
▁rice	-11.2138
▁enables	-11.2139
▁बाप	-11.2139
▁Zealand	-11.2145
▁industries	-11.2145
▁YouTube	-11.2145
▁फैशन	-11.2145
▁कानपुर	-11.215
▁लड़ने	-11.2151
▁ocean	-11.2151
als	-11.2152
▁बैठकें	-11.2153
▁express	-11.2154
▁stream	-11.2155
▁मेन	-11.2155
49	-11.2155
▁मिस	-11.2157
▁represents	-11.216
▁प्रतिरोध	-11.2161
सरकारी	-11.2163
▁Still	-11.2164
टल	-11.2167
new	-11.2168
▁letters	-11.2168
▁heating	-11.2168
▁रोमन	-11.2169
▁आध्यात्मिक	-11.217
▁आंकड़ों	-11.217
▁meals	-11.2178
▁Pet	-11.2178
▁fairly	-11.2179
1,	-11.218
▁रीति	-11.2181
▁weekly	-11.2181
▁गुजर	-11.2184
▁पड़ने	-11.2187
▁भूख	-11.2188
?”	-11.2192
▁sum	-11.2193
▁attended	-11.2197
▁बाग	-11.2198
▁Virginia	-11.2199
▁ratio	-11.2199
▁authorities	-11.2202
83	-11.2202
▁functional	-11.2203
▁statements	-11.2204
▁इंजीनियर	-11.2206
ढ़	-11.2207
▁निर्वाचन	-11.2208
▁founded	-11.2208
▁Young	-11.2212
▁देब	-11.2215
▁yard	-11.2217
▁Personal	-11.2218
▁शपथ	-11.2221
यु	-11.2222
▁codes	-11.2223
▁NY	-11.2224
▁Bur	-11.2227
▁अयोध्या	-11.2227
▁रिसर्च	-11.2227
▁Carolina	-11.2227
▁जमानत	-11.2228
▁Website	-11.2228
▁निकला	-11.2229
▁(1)	-11.223
▁Select	-11.2231
▁प्लेटफार्म	-11.2234
▁Training	-11.2238
▁यूआरएल	-11.224
▁forest	-11.2241
▁episode	-11.2242
▁league	-11.2245
▁डिफ़ॉल्ट	-11.2246
▁हस्तक्षेप	-11.2246
▁Hand	-11.2249
▁वार्ता	-11.2251
▁पहलू	-11.2251
▁Federal	-11.2253
▁भूकंप	-11.2253
▁असल	-11.2253
800	-11.2253
TC	-11.2253
▁describe	-11.2253
▁प्रकरण	-11.2255
▁priority	-11.2255
wi	-11.2256
▁मू	-11.2257
▁महज	-11.2257
▁कीजिए	-11.2259
▁permission	-11.226
▁तूफान	-11.2262
▁(2	-11.2265
▁certification	-11.2266
ec	-11.2267
▁principles	-11.2269
▁फ़	-11.2271
▁तार्किक	-11.2272
▁आदित्यनाथ	-11.2278
▁Section	-11.2278
▁पब्लिक	-11.228
लन	-11.2281
▁व्याकरण	-11.2283
▁mat	-11.2284
#	-11.2284
▁magazine	-11.2287
▁lock	-11.2287
▁लॉस	-11.2289
▁Camp	-11.229
▁रणाम	-11.2291
▁Terms	-11.2292
प्त	-11.2294
▁index	-11.2296
▁replaced	-11.2297
▁differences	-11.2297
▁हाथी	-11.2298
▁गर्व	-11.2299
▁1980	-11.23
▁king	-11.23
▁availability	-11.2301
▁गिल	-11.2302
▁54	-11.2302
▁आजकल	-11.2303
▁satisfaction	-11.2304
▁इंदौर	-11.2304
▁पैदल	-11.2305
cc	-11.2305
▁व्यंजन	-11.2306
▁enterprise	-11.2306
▁Engineering	-11.2307
▁कण	-11.2308
▁immediate	-11.2312
▁muscle	-11.2313
▁chapter	-11.2313
▁मंत्र	-11.2313
▁juice	-11.2317
लु	-11.2318
▁अनंत	-11.2319
▁फर	-11.2319
▁दाखिल	-11.2319
▁routine	-11.2321
▁जरा	-11.2322
▁ढांचे	-11.2323
▁एपिसोड	-11.2323
LA	-11.2326
वत्	-11.2329
▁हार्मोन	-11.2329
▁hurt	-11.2331
friendly	-11.2333
▁Word	-11.2333
▁sin	-11.2337
▁Southern	-11.2337
▁हल्के	-11.2337
2.	-11.2338
▁मोक्ष	-11.234
▁स्वच्छ	-11.2342
▁माइक्रो	-11.2342
▁raw	-11.2343
▁cookies	-11.2345
▁transaction	-11.2345
▁फंड	-11.2347
▁invited	-11.2348
▁requests	-11.2349
भारत	-11.2351
▁structures	-11.2354
▁crowd	-11.2355
्न	-11.2355
▁डीईएफ	-11.2355
▁superior	-11.2355
▁Photo	-11.2357
▁Cal	-11.2359
▁प्रकाशन	-11.2363
▁Si	-11.2363
भू	-11.2364
▁thick	-11.2366
000	-11.237
ball	-11.237
माल	-11.2371
▁कामयाब	-11.2371
▁डाय	-11.2373
ency	-11.2374
▁afford	-11.2374
▁violence	-11.2375
300	-11.2375
▁बढ़ाया	-11.2375
▁प्रख्यात	-11.2376
▁DO	-11.2377
▁compliance	-11.2378
MC	-11.2379
▁मानी	-11.2381
▁consideration	-11.2381
▁van	-11.2382
▁मिलावट	-11.2382
▁authors	-11.2384
▁array	-11.2387
▁बिगड़	-11.2387
▁Easy	-11.2387
▁आत्महत्या	-11.2388
▁losing	-11.239
▁जाइ	-11.2391
row	-11.2392
▁Hot	-11.2392
▁चुनावी	-11.2393
▁1.5	-11.2394
▁अपेक्षित	-11.2394
▁फिटनेस	-11.2394
▁male	-11.2395
▁तरीकों	-11.2396
▁साक्षात्कार	-11.2397
▁Comp	-11.2397
▁lay	-11.2397
▁chose	-11.2398
▁eligible	-11.24
▁हेल्थ	-11.24
▁आंकड़ा	-11.24
▁व्यापारी	-11.2403
▁प्रतिष्ठा	-11.2403
IST	-11.2407
▁sat	-11.2408
▁min	-11.2408
▁root	-11.241
▁प्रभावशाली	-11.2414
▁0.5	-11.2414
▁पाएंगे	-11.2415
ory	-11.2416
▁Happy	-11.2419
▁pricing	-11.242
▁crime	-11.2421
▁दिग्गज	-11.2422
ाक	-11.2423
▁inform	-11.2423
▁प्रबंधक	-11.2424
▁ultimately	-11.2424
ज़ा	-11.2424
▁kid	-11.2426
▁healing	-11.2427
▁forever	-11.2427
▁severe	-11.2428
▁रखती	-11.243
▁Sh	-11.2432
▁महत्त्वपूर्ण	-11.2433
▁surprised	-11.2435
▁festival	-11.2436
वेद	-11.2437
▁thread	-11.2438
▁हैलो	-11.2438
▁भु	-11.2438
▁printing	-11.2439
des	-11.2442
▁२००	-11.2447
tech	-11.2447
▁recipes	-11.2449
▁fail	-11.2449
▁नीला	-11.245
▁तत्त्व	-11.245
▁Perhaps	-11.2452
▁खुराक	-11.2452
▁56	-11.2453
▁04	-11.2455
gue	-11.2456
▁मजदूर	-11.2457
▁Ru	-11.2458
▁Model	-11.2459
▁permanent	-11.2464
ाइन	-11.2465
78	-11.2466
▁boxes	-11.2468
▁Stone	-11.2469
▁extent	-11.2469
rt	-11.247
▁खिताब	-11.2472
▁Marketing	-11.2475
▁Bi	-11.2477
▁आपत्ति	-11.2478
▁liked	-11.2478
▁अतिथि	-11.2479
▁2016.	-11.2481
LY	-11.2481
▁विरासत	-11.2485
▁तारा	-11.2489
▁producing	-11.2491
▁इंटरव्यू	-11.2491
ात्मा	-11.2493
▁भव	-11.2493
▁passing	-11.2496
▁percentage	-11.2498
▁figures	-11.2498
ets	-11.2499
वर्ष	-11.2502
▁स्नातक	-11.2504
▁abuse	-11.2506
▁नाक	-11.2508
▁usage	-11.2509
▁depends	-11.2509
▁Kitchen	-11.2511
▁हंस	-11.2512
▁sky	-11.2513
97	-11.2513
८	-11.2515
▁duty	-11.2515
▁county	-11.2517
▁हट	-11.2517
PC	-11.2521
▁Steve	-11.2522
▁ha	-11.2522
▁अंडर	-11.2524
▁introduction	-11.2524
▁मिर्च	-11.2524
▁widely	-11.2525
law	-11.2527
▁वरना	-11.253
▁संभालने	-11.2531
▁11.	-11.2531
सू	-11.2532
▁सॉर्ट	-11.2533
▁नजदीक	-11.2534
▁luck	-11.2535
▁Ph	-11.2537
▁पारिवारिक	-11.2537
▁connections	-11.2538
era	-11.254
▁फुल	-11.2543
To	-11.2544
▁स्प	-11.2544
▁सीटें	-11.2548
▁Ideas	-11.2556
▁flower	-11.2557
तू	-11.2558
▁कर्तव्य	-11.256
▁ईसाई	-11.2563
▁अत्यंत	-11.2563
▁KB	-11.2572
▁बै	-11.2573
▁तीव्र	-11.2578
Mo	-11.2581
▁recommendations	-11.2581
▁Games	-11.2583
▁कार्यकाल	-11.2583
▁घड़ी	-11.2584
▁अनन्त	-11.2585
For	-11.2585
▁शोक	-11.2586
▁sending	-11.2587
▁wooden	-11.2587
▁व्यस्त	-11.2588
▁देई	-11.2588
▁अन्दर	-11.2589
▁पावै	-11.2589
DS	-11.2589
ata	-11.259
[	-11.259
▁submitted	-11.259
▁era	-11.2593
▁hoping	-11.2595
▁इसिलए	-11.2596
▁plot	-11.2598
ठा	-11.2599
▁inch	-11.26
▁Box	-11.26
▁आधी	-11.2601
▁wireless	-11.2601
▁decade	-11.2602
▁आमंत्रित	-11.2603
▁वितरित	-11.2603
▁महासागर	-11.2603
▁आरम्भ	-11.2603
right	-11.2605
▁offices	-11.2606
▁खपत	-11.2607
▁जुड़	-11.2608
▁sight	-11.2608
▁hidden	-11.2609
▁Access	-11.2614
▁टीचर	-11.2615
▁Ireland	-11.2616
▁OS	-11.2619
▁रोका	-11.262
▁संवेदनशील	-11.2622
▁consists	-11.2622
▁elegant	-11.2623
▁reducing	-11.2623
▁उन्हीं	-11.2624
▁पावा	-11.2624
▁saved	-11.2626
▁Ja	-11.2627
▁smile	-11.2627
▁channels	-11.2629
▁मुसलमान	-11.263
▁anyway	-11.2631
▁दक्षिणी	-11.2632
उँ	-11.2633
▁refer	-11.2633
ken	-11.2633
▁कालेज	-11.2634
▁setup	-11.2635
▁capabilities	-11.2636
▁स्किन	-11.2639
▁पूछे	-11.2639
▁यि	-11.2641
ग्राम	-11.2642
▁पाकिस्तानी	-11.2642
ाइ	-11.2642
▁सत्यापित	-11.2643
▁LLC	-11.2643
▁अरविंद	-11.2643
▁increasingly	-11.2644
▁ultimate	-11.2645
▁confirmed	-11.2651
▁slowly	-11.2652
▁sensitive	-11.2652
जू	-11.2653
IM	-11.2655
ika	-11.2658
▁उलट	-11.2661
▁Garden	-11.2662
▁pride	-11.2664
▁List	-11.2666
▁निर्देशक	-11.2666
▁चित्रित	-11.2667
▁Coast	-11.2667
▁अपर	-11.2668
400	-11.2669
▁सामूहिक	-11.2669
पुरा	-11.2671
▁adds	-11.2672
▁Space	-11.2674
▁कोरिया	-11.2675
▁filling	-11.2676
▁फायदेमंद	-11.2676
▁करार	-11.2676
▁संरक्षित	-11.2676
▁फर्म	-11.2679
▁सचिन	-11.2679
▁displayed	-11.2683
▁कीमतों	-11.2684
▁newly	-11.2685
▁pace	-11.2685
कट	-11.2685
▁भरत	-11.2686
▁favor	-11.2687
दन	-11.2688
▁गीता	-11.2689
▁भेजने	-11.2689
▁मध्यप्रदेश	-11.2689
RI	-11.2692
▁Has	-11.2692
▁tradition	-11.2692
▁SEO	-11.2694
▁विस्फोट	-11.2694
▁हिंया	-11.2696
▁नाश	-11.2697
▁अमृत	-11.2697
▁Ti	-11.2698
▁इस्तीफा	-11.2702
पूर्व	-11.2704
क्या	-11.2704
▁धूल	-11.2704
▁चु	-11.2705
▁राउंड	-11.2706
og	-11.2706
▁संतुष्ट	-11.2707
▁extreme	-11.2708
▁applying	-11.2709
▁आज्ञा	-11.2711
▁समक्ष	-11.2712
▁कब्जे	-11.2712
▁मस्जिद	-11.2716
play	-11.2716
▁अनाज	-11.2718
▁chart	-11.2719
▁प्रजनन	-11.2722
▁इस्लाम	-11.2724
▁Ball	-11.2726
▁Nov	-11.2727
▁खोलने	-11.273
▁कर्मियों	-11.2731
bu	-11.2735
▁भयानक	-11.2736
▁estimated	-11.2742
▁developers	-11.2744
▁Jack	-11.2747
▁regions	-11.2748
▁चीफ	-11.2748
धारी	-11.2749
▁suffer	-11.2749
▁बोलने	-11.275
▁मन्त्र	-11.2753
▁guidelines	-11.2753
▁trans	-11.2754
▁wet	-11.2754
▁Color	-11.2755
▁Oil	-11.2756
▁whilst	-11.2756
▁bear	-11.2756
▁suffering	-11.276
▁awarded	-11.2761
▁categories	-11.2762
▁purchasing	-11.2762
ीं	-11.2764
▁छू	-11.2766
▁tab	-11.2768
▁रिजर्व	-11.277
▁मानत	-11.277
▁Financial	-11.2771
▁fundamental	-11.2771
▁injuries	-11.2776
▁पकड़ा	-11.2777
No	-11.2777
▁इलेक्ट्रॉनिक	-11.2777
▁चीज़	-11.2778
▁हई	-11.2778
▁मानने	-11.2781
▁incredibly	-11.2783
▁सौर	-11.2783
▁यूनियन	-11.2783
▁धार	-11.2784
एफ	-11.2787
▁तंत्रिका	-11.2787
▁खरीदारी	-11.2787
▁ho	-11.2788
▁FOR	-11.279
▁मंडी	-11.279
lt	-11.2791
lam	-11.2791
▁involves	-11.2792
▁परमात्मा	-11.2792
▁lucky	-11.2793
▁pink	-11.2796
▁मासिक	-11.2797
▁officers	-11.2799
▁रेस	-11.28
▁परंपरा	-11.2801
▁Casino	-11.2803
▁क़	-11.281
▁शोर	-11.2811
▁BE	-11.2811
rk	-11.2813
eb	-11.2813
ky	-11.2814
▁मैरी	-11.2819
▁2-	-11.2819
▁मानों	-11.2824
▁उठाए	-11.2825
ther	-11.2825
▁Summer	-11.2827
▁amounts	-11.2828
ग्र	-11.2828
▁खेली	-11.2829
ग्	-11.283
▁अखबार	-11.2831
▁लोन	-11.2836
84	-11.2836
▁श्रेष्ठ	-11.2839
af	-11.2841
▁Matt	-11.2842
▁प्रशासनिक	-11.2842
▁facts	-11.2843
▁राजपूत	-11.2843
▁ensuring	-11.2843
▁posting	-11.2843
▁promise	-11.2846
▁younger	-11.2848
Do	-11.2848
ax	-11.2848
▁हार्दिक	-11.285
▁Off	-11.2852
ese	-11.2852
▁प्लांट	-11.2855
▁shooting	-11.2856
▁एयरपोर्ट	-11.2857
न्य	-11.2858
▁शहीद	-11.286
▁भो	-11.286
बू	-11.2862
▁इति	-11.2863
▁समीप	-11.2864
▁grass	-11.2864
▁पांडा	-11.2865
▁चलती	-11.2866
▁बिस्तर	-11.2867
▁चक्कर	-11.287
▁रकम	-11.2871
▁मचा	-11.2871
▁देशन	-11.2873
▁ऑ	-11.2874
▁aside	-11.2874
▁handling	-11.2875
▁ठ	-11.2876
▁एप	-11.2877
▁memories	-11.2877
air	-11.2878
▁जितने	-11.2878
▁पैन	-11.288
▁आगरा	-11.2882
▁कूद	-11.2883
▁तुम्हारा	-11.2884
▁bodies	-11.2884
▁commonly	-11.2887
▁कॉपी	-11.2887
▁integration	-11.2891
▁tomorrow	-11.2891
▁आंशिक	-11.2891
▁हटावै	-11.2892
▁alongside	-11.2893
▁पकड़ने	-11.2897
ैया	-11.2897
▁एंट्री	-11.2898
▁सपने	-11.2906
▁संस्थानों	-11.2907
▁lo	-11.2908
▁वारदात	-11.2915
▁attacks	-11.2915
▁बलों	-11.2915
▁हू	-11.2916
▁गत	-11.2916
▁Stay	-11.2917
▁विकार	-11.2918
▁concerning	-11.2919
Con	-11.2921
▁ठंड	-11.2921
▁magic	-11.2925
▁मतभेद	-11.2925
▁लेषण	-11.2926
▁जज	-11.2926
▁Night	-11.2926
▁1998	-11.2927
▁Plant	-11.2929
▁डालें	-11.293
▁arms	-11.2932
making	-11.2934
ments	-11.2935
▁streets	-11.2935
▁behalf	-11.2937
▁उपभोक्ता	-11.2939
▁Hope	-11.2939
▁potentially	-11.2939
▁Would	-11.2942
▁sofa	-11.2945
▁maintaining	-11.2945
▁सर्जरी	-11.2952
▁कलेक्टर	-11.2952
▁clock	-11.2953
▁controlled	-11.2954
▁कृत	-11.2955
चल	-11.2959
▁Professor	-11.2959
▁Airport	-11.296
▁अदा	-11.296
▁covering	-11.296
▁बीमारियों	-11.2961
▁Image	-11.2961
▁2015.	-11.2962
१०	-11.2963
िक्स	-11.2963
▁Modern	-11.2966
▁समझौते	-11.2966
▁ceiling	-11.2968
6%	-11.2969
▁पौधों	-11.2969
▁वयस्क	-11.2969
▁mill	-11.297
▁seriously	-11.297
▁bird	-11.2972
▁बेन	-11.2976
8%	-11.2977
▁writers	-11.2977
cy	-11.298
▁हिट	-11.2983
▁टि	-11.2983
▁buyers	-11.2984
▁Form	-11.2985
▁प्रस्तावित	-11.2986
▁SO	-11.2986
▁हैंडल	-11.2987
Ma	-11.2989
▁वाराणसी	-11.2989
▁प्रसार	-11.2991
▁भंडार	-11.2992
▁बोतल	-11.2992
▁सम्मिलित	-11.2993
▁दुर्लभ	-11.2993
▁seats	-11.2994
▁Mal	-11.2995
74	-11.2997
▁अमीर	-11.2999
▁रोजाना	-11.3001
▁samples	-11.3001
▁coast	-11.3003
▁wave	-11.3003
▁बिट	-11.3004
▁hundred	-11.3004
81	-11.3008
▁गंभीरता	-11.3008
▁Roman	-11.3011
▁loves	-11.3011
▁Mon	-11.3014
▁नाइट	-11.3016
पू	-11.3016
▁managers	-11.3019
▁entrance	-11.3021
▁भंडारण	-11.3022
▁pp	-11.3022
▁row	-11.3024
▁बुला	-11.3025
▁graphics	-11.3025
▁मरम्मत	-11.3027
▁डॉक्टरों	-11.303
ट्स	-11.3031
▁exceptional	-11.3032
5%	-11.3032
क़	-11.3032
▁साधना	-11.3033
ati	-11.3034
ff	-11.3035
▁सत	-11.3036
▁flash	-11.3037
▁71	-11.3038
▁enjoying	-11.304
▁outcomes	-11.3041
▁तुमने	-11.3041
▁सोवियत	-11.3041
▁bone	-11.3045
ama	-11.3045
ंगा	-11.3046
▁चंद	-11.3047
ians	-11.3048
▁सबइ	-11.3048
▁Prime	-11.3052
▁recognition	-11.3055
▁स्थिरीकरण	-11.3056
▁giant	-11.3056
▁Rose	-11.3057
▁लू	-11.3057
OL	-11.3062
▁Ten	-11.3064
▁तोहार	-11.3066
द्य	-11.3067
▁visible	-11.3068
▁तिमाही	-11.3069
▁प्रतिरक्षा	-11.307
▁महावीर	-11.3071
▁नम	-11.3071
▁Division	-11.3076
▁Ram	-11.3076
▁बड़	-11.3076
dic	-11.3077
▁Fair	-11.3077
▁Mad	-11.3081
▁मैनेजर	-11.3085
▁एकर	-11.3087
▁दर्जन	-11.3088
▁causing	-11.309
BC	-11.3091
▁somewhere	-11.3093
▁मान्य	-11.3094
▁kick	-11.3095
▁joining	-11.3095
▁requirement	-11.3095
▁उत्सव	-11.3097
▁श्लोक	-11.3097
▁२१	-11.3097
▁st	-11.3102
▁प्रजा	-11.3107
▁tall	-11.3108
▁breath	-11.3109
नियमावली	-11.311
▁conversion	-11.3111
▁राकेश	-11.3111
▁ज़्यादा	-11.3116
ld	-11.3116
Le	-11.3117
▁कहकर	-11.3119
▁resort	-11.3121
नीय	-11.3121
▁चट्टान	-11.3122
▁जॉर्ज	-11.3122
▁14.	-11.3123
▁सर्वेक्षण	-11.3124
फर	-11.3125
▁somewhat	-11.3127
made	-11.3128
▁बांट	-11.3129
▁swimming	-11.3131
▁सर्वाधिक	-11.3134
▁पुष्प	-11.3135
▁SC	-11.3135
▁पृ०	-11.3137
▁continuing	-11.3138
Me	-11.3139
ute	-11.3139
▁intelligence	-11.314
▁टो	-11.314
▁79	-11.3141
▁प्ले	-11.3142
▁काटने	-11.3143
▁तन	-11.3144
▁USB	-11.3144
▁अभिषेक	-11.3145
▁आरोपित	-11.3148
▁Joe	-11.3149
▁NO	-11.315
क्क	-11.3151
िर	-11.3153
▁Ed	-11.3154
vis	-11.3155
▁stable	-11.3155
RC	-11.3158
▁Ohio	-11.316
eh	-11.316
cl	-11.3164
cent	-11.3164
▁डालकर	-11.3166
▁residence	-11.3166
ंध	-11.3167
▁छिपा	-11.3168
▁dishes	-11.3169
ula	-11.317
कश्मीर	-11.3173
▁नवीनतम	-11.3173
▁साझेदारी	-11.3175
ged	-11.3176
▁शिविर	-11.3177
▁Northern	-11.3181
▁household	-11.3182
▁careful	-11.3183
▁smoke	-11.3193
▁expansion	-11.3194
▁वाशिंगटन	-11.3194
.49	-11.3198
▁दायर	-11.3199
▁observed	-11.32
▁गोद	-11.32
▁सम्भव	-11.3201
!"	-11.3205
94	-11.3207
▁Pi	-11.3207
▁दर्शक	-11.3208
2,	-11.3208
▁worst	-11.3208
▁SA	-11.3208
▁Drive	-11.3208
▁अल्लाह	-11.3209
▁डीजल	-11.321
▁सहारा	-11.321
vers	-11.321
▁करइ	-11.3212
▁पूल	-11.3213
▁Michigan	-11.3215
शे	-11.3215
▁Software	-11.3215
life	-11.3216
▁Fort	-11.3216
▁Smart	-11.3217
▁Che	-11.3217
▁ski	-11.3218
▁लोकतंत्र	-11.3222
▁preferred	-11.3223
oon	-11.3224
▁dreams	-11.3224
▁कमेंट	-11.3225
▁blocks	-11.3226
▁डेस्क	-11.3227
▁तालाब	-11.3228
▁Way	-11.3229
▁गुणन	-11.3229
▁शत्रु	-11.3235
▁objective	-11.3236
ica	-11.3236
▁Agreement	-11.3237
▁अर्जित	-11.3237
▁न्यायाधीश	-11.324
▁ढूंढ	-11.324
▁HP	-11.324
▁पत्रिका	-11.324
▁राजेश	-11.3242
▁brilliant	-11.3243
▁मनीष	-11.3244
ेगी	-11.3246
▁खिला	-11.3246
▁प्रसंस्करण	-11.3257
▁अधीक्षक	-11.3258
▁सूचीबद्ध	-11.326
ric	-11.3261
▁script	-11.3261
▁टॉम	-11.3261
SI	-11.3262
डेटा	-11.3263
▁पहेली	-11.3264
▁6,	-11.3265
▁जाल	-11.3267
▁मानता	-11.3271
▁यहीं	-11.3273
प्रो	-11.3273
▁चयनित	-11.3274
▁विशेषज्ञों	-11.3275
▁मच	-11.3276
▁controls	-11.3279
▁Main	-11.3281
02	-11.3282
are	-11.3282
डल	-11.3287
▁struggle	-11.3289
▁जबरदस्त	-11.329
▁लेनदेन	-11.3293
▁हीं	-11.3298
्टी	-11.3299
▁प्रचलित	-11.33
▁Medicine	-11.33
▁till	-11.3303
▁चिकित्सक	-11.3304
gan	-11.3304
▁rose	-11.3305
कम	-11.3306
▁consumption	-11.3307
▁spray	-11.3307
▁सूजन	-11.3307
▁Change	-11.3308
▁खरीदे	-11.3309
▁62	-11.3313
▁rating	-11.3313
▁Senior	-11.3314
▁गुर	-11.3315
▁पुर	-11.3316
हित	-11.3317
ett	-11.3318
▁सेहत	-11.332
▁वस्त्र	-11.3321
▁तत्कालीन	-11.3321
▁चुनने	-11.3322
▁mm	-11.3323
▁checking	-11.3325
▁relax	-11.3328
▁गोल्ड	-11.333
▁दुश्मन	-11.3335
▁संतोष	-11.3335
▁सदस्यता	-11.3336
ाबाद	-11.3338
▁शंकर	-11.3339
▁sc	-11.3339
▁अर्	-11.334
▁नीले	-11.3341
91	-11.3345
▁गतिशील	-11.3345
▁स्थिरांक	-11.3346
▁तव	-11.3347
▁formula	-11.3348
ene	-11.3349
ali	-11.335
▁herself	-11.3351
▁आपस	-11.3352
▁hole	-11.3355
ोंके	-11.3355
▁Made	-11.3355
▁opposite	-11.3356
चन्द्र	-11.3357
▁साक्ष्य	-11.3357
ीज	-11.3359
▁errors	-11.3359
▁holidays	-11.336
▁तस्वीरों	-11.336
▁स्क	-11.3361
▁viewed	-11.3362
val	-11.3362
▁Gen	-11.3363
▁टीकाकरण	-11.3364
▁दिव्य	-11.3366
7%	-11.3367
▁Sign	-11.3368
▁स्पर्श	-11.3368
▁59	-11.3369
्प	-11.337
▁Win	-11.3372
▁wealth	-11.3374
▁presents	-11.3375
▁तल	-11.3375
▁पैरों	-11.3376
▁रफ्तार	-11.3378
▁डूब	-11.3378
▁टे	-11.3378
▁Johnson	-11.338
▁तीर्थ	-11.3381
▁venture	-11.3381
▁फिल्में	-11.3382
▁driven	-11.3384
▁Studies	-11.3385
▁Quality	-11.3385
▁bars	-11.3385
▁Francisco	-11.3385
▁Williams	-11.3386
ii	-11.3387
▁ca	-11.3387
▁spa	-11.3387
Be	-11.3395
ties	-11.3395
-11	-11.3396
धार	-11.3398
▁Sch	-11.3399
▁प्रोफेशनल	-11.3399
▁सचमुच	-11.3399
ुर	-11.3399
aw	-11.3399
▁श्रीकृष्ण	-11.34
▁Jim	-11.3401
lock	-11.3404
▁खाए	-11.3406
▁shouldn	-11.3406
▁YOU	-11.3406
▁टोकन	-11.3407
मात्र	-11.3407
ौली	-11.3408
▁(2)	-11.3409
▁पॉल	-11.3413
▁श्याम	-11.3414
▁pump	-11.3415
▁definition	-11.3416
▁कोशिकाओं	-11.3417
▁victory	-11.3421
विन	-11.3421
▁२२	-11.3425
▁सबका	-11.3426
▁confirm	-11.3427
▁ज़रूरत	-11.3427
▁लेवल	-11.3428
▁निचले	-11.3428
▁legs	-11.3428
▁स्वादिष्ट	-11.3428
▁occasion	-11.3431
▁Anti	-11.3431
▁पावत	-11.3431
▁तहसील	-11.3433
gate	-11.3435
▁Son	-11.3435
▁professor	-11.3435
▁factory	-11.3436
▁Bridge	-11.3436
▁blend	-11.3437
▁circuit	-11.3437
▁fighting	-11.3438
▁जब्त	-11.344
▁पाइप	-11.3441
▁गांवों	-11.3441
▁Living	-11.3442
▁crazy	-11.3442
▁suppliers	-11.3444
▁वर्क	-11.3447
▁एकदम	-11.345
▁दीपिका	-11.345
▁कन	-11.3451
▁upgrade	-11.3452
▁सीता	-11.3454
▁जम	-11.3456
अर	-11.3456
्ज़	-11.3458
▁डिस्क	-11.3459
▁दश	-11.3459
▁pin	-11.346
▁पकड़े	-11.3461
्टर	-11.3463
▁गिरा	-11.3463
▁faculty	-11.3464
▁फोकस	-11.3465
पट	-11.3465
▁programming	-11.3465
▁Jones	-11.3466
sch	-11.3466
णि	-11.3467
ाइट	-11.3468
ान्तर	-11.3469
▁अक	-11.3469
▁File	-11.347
▁सवारी	-11.3474
▁सम्	-11.3474
▁zero	-11.348
▁आपदा	-11.348
▁millions	-11.3482
PM	-11.3483
▁believed	-11.3484
▁commission	-11.3486
▁सपोर्ट	-11.3487
mal	-11.3487
▁प्रमाणित	-11.349
▁sa	-11.3492
▁साढ़े	-11.3493
▁dropped	-11.3493
▁Frank	-11.3493
▁Four	-11.3493
▁भागों	-11.3495
yn	-11.3496
▁suggestions	-11.3496
inch	-11.35
▁BA	-11.3503
▁approaches	-11.3503
▁scored	-11.3504
▁directed	-11.3506
!)	-11.3509
▁Mountain	-11.3509
▁बर्तन	-11.3509
ient	-11.351
▁वैदिक	-11.3511
▁Silver	-11.3511
▁लिखै	-11.3512
▁adjust	-11.3514
▁मंजिल	-11.3514
▁स्टूडियो	-11.3514
▁liability	-11.3514
▁जीते	-11.3514
As	-11.3514
▁0.1	-11.3516
▁relative	-11.3516
▁कौ	-11.3517
▁प्रांत	-11.3518
▁naturally	-11.3519
▁sections	-11.3521
▁suggests	-11.3521
▁अनुसरण	-11.3521
▁concepts	-11.3522
▁Ki	-11.3523
▁volunteer	-11.3527
▁ग्रा	-11.3528
fully	-11.3528
▁आलू	-11.3529
मुख	-11.3529
▁इमरान	-11.3529
विक	-11.353
▁८०	-11.3535
▁महासचिव	-11.3536
▁फ्रंट	-11.354
▁engaged	-11.354
▁जोन	-11.3541
▁ज्योतिष	-11.3541
▁सैकड़ों	-11.3543
▁FREE	-11.3544
▁lake	-11.3546
▁टा	-11.3547
▁तोहरे	-11.3549
▁eggs	-11.3549
▁टमाटर	-11.355
▁प्राणी	-11.355
▁aircraft	-11.3551
▁everywhere	-11.3552
ट्र	-11.3553
▁Ser	-11.3554
▁arrival	-11.3558
▁examination	-11.356
▁कायम	-11.3562
▁Sky	-11.3565
▁diseases	-11.3565
वाह	-11.3566
▁चीजन	-11.3566
▁forum	-11.3568
br	-11.3569
▁Pen	-11.357
▁बेचने	-11.357
▁anxiety	-11.3572
▁mirror	-11.3573
▁debut	-11.3574
▁अतीत	-11.358
▁hate	-11.3581
What	-11.3582
▁घटा	-11.3582
▁Mel	-11.3585
▁module	-11.3587
▁अन्न	-11.3587
▁electricity	-11.3588
▁भेंट	-11.3588
▁पेंट	-11.359
▁मरने	-11.3593
▁Spirit	-11.3594
▁पोस्टमार्टम	-11.3594
▁सर्वोच्च	-11.3594
uc	-11.3594
▁Kingdom	-11.3594
▁retirement	-11.3594
▁marks	-11.3594
par	-11.3594
0,0	-11.3597
कन	-11.3597
▁Save	-11.3599
▁$5	-11.36
▁लगेगा	-11.3603
▁फिन	-11.3604
▁harm	-11.3605
▁Brand	-11.3605
AD	-11.3605
▁tag	-11.3611
▁चाह	-11.3612
▁rely	-11.3615
▁empty	-11.3616
▁नील	-11.3619
▁Army	-11.3619
▁spoke	-11.3621
▁Wa	-11.3625
▁2.0	-11.3625
▁स्मरण	-11.3626
▁random	-11.3626
▁रचनात्मक	-11.3626
पत	-11.3627
२०	-11.3628
key	-11.3628
▁MD	-11.363
cher	-11.3631
▁outcome	-11.3633
▁फीस	-11.3633
zy	-11.3635
▁provision	-11.3639
▁humans	-11.3641
ेव	-11.3641
▁egg	-11.3643
▁शिमला	-11.3645
▁awards	-11.3646
▁Pass	-11.3646
▁damaged	-11.3649
▁स्लाइस	-11.3652
प्रा	-11.3653
▁पॉप	-11.3657
▁licensed	-11.3658
▁Charles	-11.3659
▁Colorado	-11.366
EL	-11.366
▁orange	-11.366
▁चुनौ	-11.366
▁extend	-11.3664
▁माइकल	-11.3664
ski	-11.3665
▁packages	-11.3666
▁प्रक्रियाओं	-11.3666
▁थोड़े	-11.3667
▁stuck	-11.3667
▁दादा	-11.3669
▁Bob	-11.3672
▁नाराज	-11.3674
▁Samsung	-11.3674
▁इंगित	-11.3674
▁Andrew	-11.3676
▁nuclear	-11.3679
▁फूड	-11.3679
▁मिस्र	-11.3681
▁criteria	-11.3682
▁division	-11.3683
▁बारह	-11.3687
▁AI	-11.3689
▁SE	-11.3689
▁सोम	-11.3689
▁Point	-11.369
gra	-11.3693
▁बेस्ट	-11.3697
▁रिवर्स	-11.3698
▁Limited	-11.3699
▁moves	-11.3702
▁Without	-11.3703
00,000	-11.3703
▁ओलंपिक	-11.3704
▁false	-11.3704
▁shots	-11.3705
▁इसने	-11.3705
▁assess	-11.3706
PO	-11.3707
▁warning	-11.3708
ग्न	-11.3711
▁अभ्यावेदन	-11.3711
▁telephone	-11.3711
▁delivering	-11.3712
▁प्रथा	-11.3713
▁स्पेस	-11.3715
▁कैद	-11.3717
▁Catholic	-11.3719
▁उल्टा	-11.3719
▁funny	-11.372
▁warranty	-11.3721
ाइज	-11.3722
▁अंदाज	-11.3725
पथ	-11.3726
▁combine	-11.3727
▁der	-11.3728
illa	-11.373
ME	-11.3731
▁दोस्ती	-11.3733
▁religion	-11.3733
▁vegetables	-11.3734
▁Ba	-11.3734
ल्ल	-11.3735
including	-11.3736
▁आत	-11.374
▁मीटिंग	-11.3742
-9	-11.3743
वाँ	-11.3744
▁50%	-11.3747
▁bound	-11.3748
▁रवतन	-11.3748
lic	-11.3749
▁Product	-11.3749
BA	-11.3749
▁विनियमों	-11.3749
▁peak	-11.3757
▁judge	-11.3759
ux	-11.376
▁जानवरों	-11.3762
▁birds	-11.3763
▁Film	-11.3764
▁Del	-11.3764
▁Turn	-11.3765
जल	-11.3766
▁Jewish	-11.377
बु	-11.377
▁घूम	-11.3771
▁शुरूआत	-11.3771
▁basically	-11.3772
▁initiative	-11.3772
धान	-11.3772
table	-11.3773
▁मुसलमानों	-11.3774
▁मौलिक	-11.3778
वासी	-11.3778
▁semi	-11.3778
क्षा	-11.378
▁limits	-11.3781
िमा	-11.3781
▁शिष्य	-11.3783
▁Em	-11.3783
▁decrease	-11.3785
▁सम्राट	-11.3785
▁NC	-11.3785
▁necessarily	-11.3785
▁chronic	-11.3785
▁वाकई	-11.3786
▁walked	-11.3786
▁roles	-11.3787
▁Chair	-11.3789
▁गुलाब	-11.379
▁Asian	-11.3792
▁Administration	-11.3793
▁छेद	-11.3793
▁एंजाइम	-11.3793
▁indicate	-11.3794
▁कैंडी	-11.3796
▁ads	-11.3797
▁Steel	-11.3799
▁compensation	-11.38
▁volunteers	-11.38
द्द	-11.3802
▁accommodation	-11.3802
▁classroom	-11.3803
▁Vol	-11.3803
van	-11.3804
▁feelings	-11.3805
▁council	-11.3807
▁depend	-11.3809
▁पहने	-11.3809
EN	-11.381
▁पहुंचाने	-11.3815
▁automatic	-11.3815
▁नरेन्द्र	-11.3815
ture	-11.3816
▁scientists	-11.3816
▁staying	-11.3819
▁decor	-11.3821
▁स्वीकृति	-11.3825
▁lens	-11.3825
▁कार्यक्रमों	-11.3827
▁Rs	-11.3829
▁बेच	-11.3829
▁regardless	-11.383
▁Following	-11.3832
▁des	-11.3833
▁हौ	-11.3834
▁ज्योति	-11.3834
ssai	-11.3834
ॉन	-11.3835
▁व्यास	-11.3837
▁इंस्टॉल	-11.3837
▁तुलसी	-11.3837
▁पेन	-11.384
▁exhibition	-11.384
▁employer	-11.3842
tes	-11.3843
▁rack	-11.3843
▁Cover	-11.3844
▁बॉल	-11.3845
▁sufficient	-11.3845
▁सेक्स	-11.3847
▁बीस	-11.3849
▁doctors	-11.3852
▁जागरूकता	-11.3852
▁पूरक	-11.3852
▁व्यावसायिक	-11.3854
▁अहा	-11.3857
डब्ल्यू	-11.3859
▁कार्यक्षमता	-11.386
▁एक्टिव	-11.3862
▁mood	-11.3864
▁Sale	-11.3864
▁pocket	-11.3865
▁colours	-11.3868
▁laptop	-11.387
▁स्पीड	-11.3871
ale	-11.3871
▁lifetime	-11.3872
▁Him	-11.3877
▁110	-11.3877
▁नाना	-11.3877
▁Pacific	-11.3878
▁Credit	-11.3878
▁breast	-11.3879
▁विशिष्टियां	-11.388
▁containing	-11.388
bed	-11.3882
▁जस्टिस	-11.3882
ction	-11.3882
▁transmission	-11.3882
▁सम्बन्धी	-11.3884
ign	-11.3884
▁बुजुर्ग	-11.3885
ys	-11.3885
▁burn	-11.389
▁1996	-11.3891
मिन	-11.3892
▁Spain	-11.3893
IL	-11.3895
▁आंख	-11.3895
▁rid	-11.39
home	-11.39
ear	-11.3901
▁फंस	-11.3902
▁Register	-11.3903
▁forecast	-11.3905
▁अलर्ट	-11.3905
▁हालाँ	-11.3905
▁matches	-11.3906
▁tissue	-11.3906
▁राज्यसभा	-11.3906
GA	-11.391
▁beneficial	-11.3912
▁दक्खिन	-11.3912
▁Saint	-11.3913
▁12.	-11.3914
TH	-11.3915
▁प्याज	-11.3915
▁यौगिक	-11.3916
▁convenience	-11.392
▁Choose	-11.392
▁जूते	-11.3921
▁रात्रि	-11.3923
मै	-11.3925
If	-11.3925
ans	-11.3927
▁Singapore	-11.3927
ado	-11.3928
▁functionality	-11.3929
▁पट	-11.3931
वती	-11.3934
▁participation	-11.3935
▁हल्का	-11.3936
▁ग्राहकन	-11.3936
▁interactive	-11.3937
▁calm	-11.3938
▁Heart	-11.3938
▁expressed	-11.3938
▁ऑल	-11.3938
▁Tax	-11.3939
▁DVD	-11.394
ON	-11.3941
▁Ford	-11.3942
▁विधेयक	-11.3942
▁आश्रम	-11.3943
???	-11.3944
▁exposed	-11.3945
▁skilled	-11.3948
▁त्रिभुज	-11.395
▁आश्रय	-11.3951
▁जोड़ता	-11.3953
नू	-11.3954
gg	-11.3955
▁Give	-11.3956
▁drain	-11.3957
▁engaging	-11.3958
▁हॉस्पिटल	-11.3958
▁Want	-11.3958
▁अवतार	-11.3958
▁Repair	-11.3958
▁ऋतु	-11.3963
▁drinking	-11.3964
▁मैट	-11.3966
▁मोरे	-11.3968
▁अमिताभ	-11.3973
▁accordance	-11.3973
▁पोस्टर	-11.3974
▁वैसा	-11.3976
▁प्रयासों	-11.3976
view	-11.3976
▁Mid	-11.3977
▁सैम	-11.398
▁greatly	-11.398
ात्म	-11.3981
▁पीड़िता	-11.3982
▁minimal	-11.3986
▁prize	-11.3987
▁क्रियान्वयन	-11.3988
▁दरवाजे	-11.3988
▁literature	-11.3988
▁इन्हीं	-11.3989
▁Everyone	-11.3989
▁संपादित	-11.3991
▁subjects	-11.3991
▁Holy	-11.3993
82	-11.3995
▁आश्वासन	-11.3995
▁तोहका	-11.3995
▁characteristics	-11.3998
▁lab	-11.3998
▁रॉक	-11.3999
▁representative	-11.4
▁reaction	-11.4001
▁mu	-11.4001
su	-11.4002
▁समझता	-11.4005
दर्शन	-11.4007
▁scope	-11.4007
▁फायदे	-11.401
▁चॉकलेट	-11.4011
▁फर्जी	-11.4011
▁Station	-11.4011
uring	-11.4012
▁persons	-11.4012
gs	-11.4012
part	-11.4013
▁threat	-11.4013
▁गौ	-11.4016
▁Oct	-11.4017
▁carrying	-11.4017
यं	-11.4018
▁रुख	-11.402
▁hopes	-11.4021
▁convert	-11.4021
ire	-11.4023
▁loop	-11.4024
▁Cap	-11.4025
▁सै	-11.4025
ators	-11.4026
▁पंजीकरण	-11.4026
▁शिवसेना	-11.4026
▁गहरे	-11.4026
▁chances	-11.4027
▁विनय	-11.4029
▁interaction	-11.4032
▁ख़बर	-11.4032
▁lawyer	-11.4033
▁अवलोकन	-11.4034
pan	-11.4034
▁dad	-11.4035
▁tracks	-11.4035
▁आरक्षण	-11.4035
▁मानें	-11.4036
▁Delhi	-11.4036
चित	-11.4037
▁minister	-11.4042
▁cr	-11.4042
▁डेढ़	-11.4043
▁stages	-11.4043
▁requested	-11.4045
ami	-11.4047
▁बहादुर	-11.4047
▁equivalent	-11.4049
▁cruise	-11.4051
▁Tim	-11.4053
▁venue	-11.4053
▁स्टैक	-11.4053
▁layout	-11.4054
lay	-11.4059
▁stretch	-11.4061
▁repairs	-11.4062
▁editor	-11.4063
▁कृत्रिम	-11.4064
▁personality	-11.4065
▁ग्र	-11.4066
गांव	-11.4067
कोड	-11.4068
▁certificate	-11.4068
▁publication	-11.4069
▁वसूली	-11.4071
▁कक्ष	-11.4071
▁occurs	-11.4074
▁container	-11.4074
ters	-11.4076
लिक	-11.4076
▁यकीन	-11.4076
▁relation	-11.4076
▁Ash	-11.4077
rick	-11.4077
▁Multi	-11.4079
कला	-11.408
▁talks	-11.408
▁ऑफ़	-11.4081
िद	-11.4082
जि	-11.4084
▁listing	-11.4087
▁02	-11.4088
▁proposal	-11.4091
▁finest	-11.4092
▁इटली	-11.4095
FA	-11.4096
date	-11.4096
Ro	-11.4097
▁जवानों	-11.41
▁association	-11.4107
▁asset	-11.4108
▁पोर्टल	-11.4108
▁परिणामों	-11.4109
▁किलोग्राम	-11.411
▁ब्लड	-11.411
▁मोर्चा	-11.4111
▁marked	-11.4112
म्बर	-11.4113
▁काशी	-11.4113
▁refund	-11.4114
ाँ	-11.4115
▁फ्रांसीसी	-11.4117
▁involving	-11.4117
▁rural	-11.4118
▁ال	-11.4122
▁रुप	-11.4125
▁जिसमे	-11.4125
▁आंकड़े	-11.4125
▁विराम	-11.4129
▁क्र	-11.4129
▁spots	-11.4129
▁नक्शा	-11.4133
▁सर्टिफाइड	-11.4133
▁त्रिज्या	-11.4133
▁ख्याल	-11.4133
▁सीन	-11.4133
▁DE	-11.4134
▁storm	-11.4136
क्षेत्र	-11.4136
▁वाल	-11.4136
▁Georgia	-11.4137
▁फ़िल्टर	-11.4138
▁string	-11.4139
▁रमेश	-11.414
▁gym	-11.4141
▁yoga	-11.4141
▁laser	-11.4141
▁शासक	-11.4143
▁Based	-11.4144
▁85	-11.4144
▁traveling	-11.4148
▁lists	-11.4148
▁acquisition	-11.4148
▁व्हाइट	-11.4148
▁angle	-11.4149
▁सलाहकार	-11.4149
▁फि	-11.4149
ंब	-11.415
▁2014.	-11.4155
▁yards	-11.4156
▁महत्त्व	-11.4156
▁नशे	-11.4158
िप	-11.4159
▁यम	-11.416
▁ब्ल	-11.4164
▁organisation	-11.4164
▁कॉन्फ़िगरेशन	-11.4164
▁plug	-11.4165
▁ME	-11.4166
▁Non	-11.4169
ram	-11.4171
▁माननीय	-11.4175
4.	-11.4176
▁मांगी	-11.4177
▁museum	-11.4177
▁upload	-11.4177
▁फैक्ट्री	-11.4179
▁settlement	-11.4182
▁आलिया	-11.4182
bra	-11.4183
mat	-11.4186
ियत	-11.4186
▁scores	-11.4187
▁acts	-11.4188
▁acting	-11.4188
▁हउँ	-11.4191
▁तलाक	-11.4192
▁मदों	-11.4193
▁hall	-11.4195
▁column	-11.4196
▁विश्वसनीय	-11.4197
▁ऑफर	-11.4199
▁कार्यकारी	-11.42
TV	-11.4202
▁twenty	-11.4202
▁उत्सर्जन	-11.4202
▁संकलित	-11.4202
बाद	-11.4203
▁आखिरकार	-11.4204
▁contained	-11.4209
▁vintage	-11.421
▁गारंटी	-11.421
▁तमिलनाडु	-11.421
▁grab	-11.421
▁काउंटी	-11.4212
press	-11.4216
▁अनुबंध	-11.4218
sky	-11.4219
▁बिल्डिंग	-11.4219
▁loose	-11.422
▁believes	-11.4221
▁कोट	-11.4222
▁implemented	-11.4223
▁गढ़	-11.4223
▁steam	-11.4226
▁bo	-11.4227
eng	-11.4228
▁पत्रकारों	-11.4228
-14	-11.4229
र्व	-11.4231
▁9,	-11.4231
▁PS	-11.4233
▁57	-11.4235
▁सदर	-11.4239
▁correctly	-11.4239
▁Create	-11.4239
▁kill	-11.424
▁सांद्रता	-11.4241
▁रखरखाव	-11.4241
▁broadcast	-11.4241
▁loving	-11.4241
▁tracking	-11.4248
▁कार्तिक	-11.4249
▁बनर्जी	-11.4249
▁lease	-11.4249
▁कुर्सी	-11.425
▁Rev	-11.425
AT	-11.425
ेटर	-11.425
▁hosted	-11.4252
cm	-11.4252
sion	-11.4252
amp	-11.4255
दिन	-11.4256
▁संश्लेषण	-11.4257
▁दिसम्बर	-11.4257
▁न्यूज़	-11.4258
▁Forest	-11.4259
▁interact	-11.426
▁Learning	-11.4261
▁Type	-11.4261
छा	-11.4261
▁Kar	-11.4264
▁निराशा	-11.4264
▁मैनेजमेंट	-11.4265
▁tagged	-11.4265
▁असाधारण	-11.4265
▁Think	-11.4267
▁चंद्रमा	-11.4268
▁स्नेह	-11.4272
▁Tra	-11.428
▁यूट्यूब	-11.428
▁translation	-11.428
▁प्रतिस्पर्धा	-11.428
▁draft	-11.4282
▁दिल्लीः	-11.4283
▁Customer	-11.4283
▁खेलत	-11.4283
▁उच्चतम	-11.4284
ष्ठ	-11.4285
▁उत्	-11.4287
▁साइंस	-11.4287
▁एफएसएसएआई	-11.4288
▁रांची	-11.4288
▁(3	-11.4289
▁सिद्धार्थ	-11.4289
▁trips	-11.4291
▁fence	-11.4291
▁लिपि	-11.4291
▁निभाई	-11.4292
▁lesson	-11.4293
दीप	-11.4294
▁fits	-11.4295
▁Rights	-11.4295
that	-11.4297
▁कुकीज़	-11.4297
fo	-11.4297
▁Share	-11.4299
▁दबा	-11.4301
▁बांह	-11.4301
▁शास्त्री	-11.4302
▁utility	-11.4303
▁Collection	-11.4304
cast	-11.4307
▁स्टोरी	-11.4308
▁..	-11.4309
▁जियो	-11.431
▁complicated	-11.4312
ाइल	-11.4313
▁३२	-11.4314
▁Private	-11.4314
▁transactions	-11.4316
राय	-11.4318
▁सीईओ	-11.4319
▁Capital	-11.4319
▁श्रेय	-11.4319
▁ब्लू	-11.432
▁हटावा	-11.4323
▁panels	-11.4323
▁icon	-11.4324
▁बनना	-11.4324
▁गिरने	-11.4326
▁guaranteed	-11.4327
गम	-11.4327
▁faces	-11.4327
▁fluid	-11.4327
▁360	-11.4328
ेम	-11.433
▁पहना	-11.4332
▁61	-11.4333
▁baking	-11.4335
▁Safety	-11.4335
▁मिस्टर	-11.4335
रात	-11.4337
रल	-11.4337
▁speaker	-11.4337
▁समापन	-11.4338
matic	-11.434
▁Corporation	-11.4343
▁flexibility	-11.4343
▁specified	-11.4343
▁350	-11.4343
▁अस्पतालों	-11.4343
▁चढ़ा	-11.4344
▁prayer	-11.4345
vert	-11.4348
▁argument	-11.435
▁संसाधित	-11.435
▁existence	-11.4351
▁नारी	-11.4351
▁वाद	-11.4352
भूमि	-11.4355
▁branch	-11.4356
▁सावधान	-11.4357
▁घातक	-11.4357
▁डीएम	-11.4358
क्ल	-11.4359
RE	-11.436
93	-11.4363
▁seed	-11.4368
▁introduce	-11.4369
▁secondary	-11.4371
▁Paper	-11.4371
je	-11.4373
▁ड्राइव	-11.4374
▁Ac	-11.4374
▁#1	-11.4374
▁सेवाएं	-11.4376
▁Ya	-11.4381
▁accommodate	-11.4382
▁छुटकारा	-11.4382
▁Mount	-11.4382
▁occurred	-11.4382
▁जैव	-11.4382
▁ear	-11.4383
▁संपूर्ण	-11.4384
▁downtown	-11.4385
▁absolute	-11.4385
बड़े	-11.4386
▁टिक	-11.439
▁आत्मविश्वास	-11.439
Ex	-11.439
▁imp	-11.4391
▁evaluate	-11.4396
▁frequency	-11.4397
▁दिनेश	-11.4398
▁अंडा	-11.4398
▁हड्डी	-11.4399
▁निदान	-11.4399
▁बोलते	-11.44
▁stronger	-11.4401
gy	-11.4401
ल्फ	-11.4402
्रा	-11.4403
tan	-11.4405
▁शुरु	-11.4406
▁assistant	-11.4407
TI	-11.4409
ew	-11.4412
▁edit	-11.4412
▁em	-11.4413
▁patio	-11.4414
▁ढूंढो	-11.4414
▁आतंकवादी	-11.4415
run	-11.4416
how	-11.4416
▁obviously	-11.442
▁आनुवंशिक	-11.4421
▁ro	-11.4422
▁Hard	-11.4422
रै	-11.4424
डिया	-11.4425
कौन	-11.4426
▁चौंकाने	-11.4426
▁AT	-11.4427
▁strongly	-11.4431
ेरा	-11.4433
▁Kim	-11.4434
▁strange	-11.4434
▁principal	-11.4437
▁chairs	-11.4438
▁बज	-11.4438
जान	-11.4439
▁चौथी	-11.444
▁regard	-11.4441
▁insight	-11.4442
हल	-11.4442
▁फो	-11.4447
pin	-11.4447
▁packed	-11.4448
▁Cook	-11.445
▁drawn	-11.4452
कुमार	-11.4453
▁ड्यूटी	-11.4453
▁API	-11.4456
▁instant	-11.4457
पात	-11.4458
MO	-11.4459
▁मं	-11.4459
▁encouraged	-11.4461
▁मल्टी	-11.4461
▁Mer	-11.4463
▁checked	-11.4465
care	-11.4466
▁छीन	-11.4466
▁मिसाइल	-11.4467
▁शर्ट	-11.4467
ups	-11.4468
▁satisfied	-11.4469
▁चंडीगढ़	-11.4469
▁extract	-11.4469
▁Ask	-11.4472
▁वेस्ट	-11.4474
del	-11.4474
▁tone	-11.4474
▁gap	-11.4475
▁कस	-11.4476
▁बेशक	-11.4478
▁Custom	-11.4479
▁passionate	-11.448
▁inspire	-11.4483
▁acquired	-11.4484
▁जूनियर	-11.4484
▁exploring	-11.4485
▁बढ	-11.4486
▁साहित्यिक	-11.4487
▁सहन	-11.4489
▁सिंगल	-11.4489
lie	-11.4492
▁दण्ड	-11.4493
▁गोपाल	-11.4497
▁Square	-11.4501
uck	-11.4501
▁ख़	-11.4503
▁Mass	-11.4503
▁heading	-11.4504
mes	-11.4505
lia	-11.4505
्द	-11.4506
▁काउंटर	-11.4506
▁निमित्त	-11.4506
▁स्मिथ	-11.4507
▁Fe	-11.4508
▁announce	-11.4508
▁मनो	-11.4508
▁escape	-11.4509
मिल	-11.451
▁माफी	-11.4514
▁demands	-11.4515
▁speakers	-11.4515
▁उन्नति	-11.4517
▁personnel	-11.4517
▁रायपुर	-11.4518
▁mg	-11.4518
och	-11.4519
▁संसदीय	-11.4519
▁फ्लैट	-11.452
▁Mor	-11.4521
▁Name	-11.4524
▁behaviour	-11.4525
▁कैलोरी	-11.4525
▁छात्रा	-11.4525
▁lets	-11.4526
ria	-11.4527
▁राणा	-11.4528
▁इन्	-11.4529
▁Cloud	-11.453
▁responses	-11.4533
▁incident	-11.4533
▁prime	-11.4533
ट्रो	-11.4534
▁2018,	-11.4534
▁designers	-11.4536
▁sick	-11.4538
▁ग्लोबल	-11.4539
▁amar	-11.4539
▁gr	-11.4539
▁improvements	-11.4539
▁dual	-11.454
▁Greek	-11.4541
▁gaming	-11.4541
▁संग्रहालय	-11.4541
▁entering	-11.4541
▁Khan	-11.4543
▁MI	-11.4544
PI	-11.4544
▁1:	-11.4547
िणी	-11.4547
्वे	-11.4548
▁द्वि	-11.4548
▁gained	-11.4548
▁Tech	-11.4549
▁कैश	-11.455
▁बताए	-11.455
▁decline	-11.455
▁जैविक	-11.4551
▁२३	-11.4559
्टन	-11.456
▁समूहों	-11.4561
▁परे	-11.4563
3.	-11.4563
▁Spa	-11.4563
▁accuracy	-11.4565
▁सुशांत	-11.4565
▁Mu	-11.4567
▁Daniel	-11.4569
▁फॉर्मेट	-11.4569
▁den	-11.4571
▁साजिश	-11.4573
▁नवम्बर	-11.4573
▁assume	-11.4575
ition	-11.4575
▁seeds	-11.4576
▁photographs	-11.4577
CE	-11.4578
▁Max	-11.4578
▁heads	-11.4581
▁Disney	-11.4581
▁इंस्टीट्यूट	-11.4581
▁Gallery	-11.4581
जब	-11.4582
uri	-11.4584
▁talked	-11.4584
rn	-11.4586
▁maintained	-11.4586
▁addresses	-11.4587
▁अंकों	-11.4587
▁Natural	-11.4589
▁धीमी	-11.4589
▁Gu	-11.4589
श्य	-11.459
▁highlight	-11.4591
▁झटका	-11.4591
▁Us	-11.4596
DC	-11.4597
टेक	-11.4597
▁Annual	-11.4597
▁desktop	-11.4597
▁shut	-11.4597
▁खरीदा	-11.4597
▁ban	-11.46
ानुसार	-11.4604
CH	-11.4605
▁देखिए	-11.4606
▁contribution	-11.4607
▁शरण	-11.4607
▁लापरवाही	-11.4607
विध	-11.4608
▁पढ़े	-11.4613
▁खनिज	-11.4613
▁चोपड़ा	-11.4613
▁गर्भवती	-11.4613
▁पूंजी	-11.4614
▁बदलना	-11.4614
▁बिक	-11.4616
▁prison	-11.462
▁स्कीम	-11.462
▁flying	-11.4621
▁विद्यार्थी	-11.4621
▁facilitate	-11.4622
ona	-11.4626
▁phones	-11.4627
▁forth	-11.4628
▁श्रीमती	-11.463
▁संस्थाओं	-11.4632
3%	-11.4634
aries	-11.4636
card	-11.4637
▁Simply	-11.4637
▁configuration	-11.4639
▁सरदार	-11.4639
▁रुपया	-11.4639
▁demonstrate	-11.464
▁फेल	-11.4641
▁ta	-11.4644
▁alarm	-11.4646
▁2.5	-11.4647
▁export	-11.4647
cal	-11.4648
▁1997	-11.4648
▁Awards	-11.465
▁अरुण	-11.465
▁66	-11.4651
▁attending	-11.4652
▁packaging	-11.4654
▁OK	-11.4656
▁represented	-11.4659
▁आवंटित	-11.4662
▁नोएडा	-11.4662
▁Week	-11.4663
▁sad	-11.4664
▁शुक्ल	-11.4665
▁सीनियर	-11.4665
▁ताल	-11.4666
▁यानि	-11.467
▁deeper	-11.467
▁बाधित	-11.467
▁नौसेना	-11.467
▁जिसको	-11.4671
▁assembly	-11.4674
मह	-11.4674
पै	-11.4676
▁1-	-11.4677
▁opt	-11.4677
▁legislation	-11.4678
▁अमेरिकन	-11.4678
▁खेलते	-11.4679
न्ध	-11.4679
▁smell	-11.468
▁pulled	-11.4681
▁define	-11.4681
aka	-11.4683
▁Low	-11.4683
xi	-11.4683
yan	-11.4687
ich	-11.4688
hour	-11.469
▁नैतिक	-11.4693
▁plain	-11.4694
▁quotes	-11.4694
▁आटा	-11.4694
▁Father	-11.4695
फो	-11.4695
▁pa	-11.4696
▁लीड	-11.4696
▁गार्ड	-11.4696
rich	-11.4696
wan	-11.4699
▁धान	-11.4699
▁Village	-11.4701
▁होवे	-11.4702
▁प्रीमियर	-11.4702
▁सितम्बर	-11.4702
▁पाये	-11.4705
EE	-11.4705
▁Queen	-11.4705
rant	-11.4706
▁चित्रण	-11.4708
▁creativity	-11.4711
▁durable	-11.4711
▁पदाधिकारी	-11.4711
▁छोड़ा	-11.4712
▁import	-11.4712
▁Dar	-11.4715
▁Direct	-11.4715
▁संचालक	-11.4716
cer	-11.4717
▁appointed	-11.4718
▁सिन्हा	-11.4719
रह	-11.4719
▁centers	-11.472
La	-11.4722
▁पढ़ै	-11.4723
▁sensor	-11.4723
▁exit	-11.4724
▁कहब	-11.4725
▁सार्थक	-11.4727
▁कथानक	-11.4727
ujala	-11.4727
▁largely	-11.4729
▁विनोद	-11.4732
▁स्टार्ट	-11.4732
▁विनाश	-11.4734
▁explains	-11.4735
▁घनत्व	-11.4736
▁झंडा	-11.4738
▁respectively	-11.4739
▁रोम	-11.474
▁promotion	-11.4741
▁गौर	-11.4742
▁Bre	-11.4743
▁ब्लॉग	-11.4743
▁Furthermore	-11.4743
▁चौथा	-11.4743
▁(513	-11.4743
sta	-11.4744
▁यश	-11.4747
▁workplace	-11.4747
▁दाल	-11.4747
▁illness	-11.475
bs	-11.4751
▁मेहरारू	-11.4751
▁अग	-11.4752
▁हार्ट	-11.4753
▁एसी	-11.4753
kar	-11.4755
▁relations	-11.4755
बिल	-11.4758
▁retain	-11.4758
ima	-11.4759
▁Sal	-11.476
▁रूपांतरण	-11.4761
▁Guys	-11.4762
▁वेग	-11.4762
▁रहकर	-11.4763
▁drinks	-11.4763
▁Number	-11.4764
cat	-11.4768
▁बोर	-11.4769
▁बाईं	-11.4771
lot	-11.4771
▁ka	-11.4772
▁बदलें	-11.4773
▁चरम	-11.4777
▁नरम	-11.4778
▁aims	-11.4778
wing	-11.4779
▁granted	-11.4781
▁आएगी	-11.4783
ऑफ	-11.4784
▁mask	-11.4785
state	-11.4786
▁Ve	-11.4788
▁सेंट्रल	-11.479
ाली	-11.4792
▁lies	-11.4792
▁Due	-11.4792
▁कामना	-11.4792
UR	-11.4794
▁हॉट	-11.4797
ज़ी	-11.4799
परि	-11.4799
▁पेशकश	-11.4801
▁Britain	-11.4801
▁focusing	-11.4801
▁hip	-11.4804
TO	-11.4808
▁succeed	-11.4808
▁जोशी	-11.4808
known	-11.481
▁estimate	-11.4812
▁el	-11.4813
▁repeat	-11.4814
bury	-11.4817
▁हाइड्रोजन	-11.4817
▁distinct	-11.4817
pers	-11.4819
▁Bal	-11.4819
▁अपराधी	-11.4822
ano	-11.4822
▁7,	-11.4823
▁गोवा	-11.4824
▁रथ	-11.4827
oma	-11.4827
▁cabinet	-11.4828
▁असमर्थ	-11.4829
▁रियल	-11.483
▁advantages	-11.4832
▁NA	-11.4834
bal	-11.4836
▁bills	-11.4837
▁dollar	-11.4839
SS	-11.4839
▁admit	-11.4841
▁लिहिस	-11.4842
▁वसा	-11.4844
▁adapt	-11.485
▁आरामदायक	-11.485
▁consent	-11.4851
▁हेयर	-11.4851
▁wake	-11.4853
▁illegal	-11.4854
▁User	-11.4856
ान्त	-11.4856
▁कमाल	-11.4856
▁mold	-11.4858
▁entitled	-11.4858
▁massage	-11.4859
▁विहार	-11.4864
▁preparing	-11.4867
▁संतुलित	-11.4867
▁मिलना	-11.4869
▁Ku	-11.4872
ब्	-11.4873
▁Republic	-11.4873
▁स्पोर्ट्स	-11.4876
पान	-11.4877
▁ओह	-11.4877
▁गण	-11.4877
▁कोर	-11.4878
▁origin	-11.4878
▁viewing	-11.4879
▁rapidly	-11.4879
▁शरद	-11.488
▁चांदी	-11.488
▁Singh	-11.488
▁क्रिस	-11.4882
▁injured	-11.4883
▁अक्ष	-11.4883
▁मेकअप	-11.4883
▁literally	-11.4884
▁Nu	-11.4886
▁पर्यावरणीय	-11.4887
▁findings	-11.4888
▁mess	-11.4889
▁subscription	-11.4891
▁decent	-11.4892
▁मजदूरों	-11.4892
▁जानवरन	-11.4893
▁स्टूडेंट्स	-11.4893
▁Quick	-11.4894
gal	-11.4899
▁विभागों	-11.4899
▁swing	-11.4901
ates	-11.4904
▁headed	-11.4904
▁साहस	-11.4907
▁एकाग्रता	-11.4908
▁संदभ	-11.4908
▁डिस्प्ले	-11.4908
▁साइबर	-11.4908
▁दूसरन	-11.4909
▁sole	-11.491
▁पूजन	-11.4914
▁मानवीय	-11.4915
▁Large	-11.4915
▁आणविक	-11.4916
▁गोरखपुर	-11.4916
▁Agency	-11.4916
▁intense	-11.4916
▁तलवार	-11.4917
ोट	-11.4918
▁remained	-11.4918
dale	-11.492
▁twin	-11.492
▁concert	-11.4921
▁focuses	-11.4923
▁emails	-11.4927
▁documentation	-11.4927
▁10%	-11.4928
▁rec	-11.4931
▁Country	-11.4933
▁investments	-11.4934
▁transform	-11.4938
▁यथार्थ	-11.4938
▁Force	-11.494
▁closing	-11.494
▁2016,	-11.4941
ral	-11.4941
ंगल	-11.4941
▁हड़ताल	-11.4941
▁इंटरफेस	-11.4941
▁आँख	-11.4941
▁solo	-11.4941
▁क्रमबद्ध	-11.4942
▁Moreover	-11.4942
▁EX	-11.4943
▁faced	-11.4949
▁खैर	-11.495
▁Estate	-11.4952
▁कृति	-11.4953
ush	-11.4953
▁माध्यमिक	-11.4953
▁वृत्त	-11.4956
▁engines	-11.4957
▁Studio	-11.4958
▁cotton	-11.4958
▁अपमान	-11.4958
▁विशेषज्ञता	-11.4963
▁ver	-11.4964
बीर	-11.4965
▁गवर्नर	-11.4966
▁Kids	-11.4967
▁यक	-11.4968
▁Far	-11.4968
▁continuous	-11.497
▁Date	-11.4971
▁हर्ष	-11.4971
▁जुट	-11.4972
▁स्टेप	-11.4972
▁चुप	-11.4973
▁घोल	-11.4974
▁formation	-11.4975
CP	-11.4975
▁कठिनाई	-11.4976
link	-11.4978
ियल	-11.4978
▁lowest	-11.4979
ांक	-11.4979
▁assigned	-11.4984
▁Sand	-11.4984
▁Min	-11.4986
▁visitor	-11.4987
9%	-11.4988
▁pepper	-11.4988
▁विद्रोह	-11.4989
▁करूंगा	-11.4991
▁wanting	-11.4991
▁आशीर्वाद	-11.4991
▁stations	-11.4992
esh	-11.4995
▁ओम	-11.4998
ब्या	-11.4998
▁ga	-11.5
▁प्रोत्साहन	-11.5
▁आसमान	-11.5
▁रसोई	-11.5
▁सकै	-11.5003
▁Case	-11.5005
▁celebration	-11.5005
▁Account	-11.5006
▁$4	-11.5006
▁चेन	-11.5006
▁पाकर	-11.5007
▁coloring	-11.5008
▁intellectual	-11.5008
▁Computer	-11.5008
▁निर्भरता	-11.5008
rin	-11.5009
वासियों	-11.5011
ाद	-11.5012
▁क्रिकेटर	-11.5013
▁tournament	-11.5013
▁जाग	-11.5015
▁एकीकरण	-11.5015
▁सम्बन्धित	-11.5015
▁निराश	-11.5017
▁असामान्य	-11.5017
▁आदिवासी	-11.5019
▁भारती	-11.5021
नों	-11.5021
An	-11.5022
▁delay	-11.5023
int	-11.5024
ानंद	-11.5025
▁2017,	-11.5025
▁studying	-11.5027
profit	-11.5027
▁colleagues	-11.5028
▁अर्ध	-11.5028
▁कमान	-11.503
▁Bra	-11.5031
सिया	-11.5031
▁पैनल	-11.5033
▁मुझ	-11.5033
▁casual	-11.5033
▁ceremony	-11.5033
▁दार्शनिक	-11.5033
ole	-11.5035
▁sharp	-11.5035
▁signature	-11.5039
▁डिप्टी	-11.5042
▁Student	-11.5043
▁Run	-11.5043
▁ईसू	-11.5046
▁ठाकरे	-11.505
▁मामूली	-11.505
िज	-11.5052
▁tooth	-11.5052
▁होस्ट	-11.5053
▁segment	-11.5056
▁Avenue	-11.5059
▁Gas	-11.506
▁grateful	-11.5061
▁प्रशांत	-11.5062
▁हिला	-11.5062
लॉग	-11.5065
las	-11.5065
▁hanging	-11.5065
▁खबरें	-11.5066
▁त्वरित	-11.5067
▁Again	-11.5067
RO	-11.507
mann	-11.5072
▁बैच	-11.5072
▁permit	-11.5074
▁neither	-11.5076
▁जरिये	-11.5076
▁कछू	-11.5076
▁iOS	-11.5077
ीम	-11.5078
▁उड़ा	-11.5078
▁initially	-11.5079
▁२६	-11.5081
▁unusual	-11.5083
▁anymore	-11.5083
▁gender	-11.5085
▁languages	-11.5088
वर्ग	-11.5088
▁Fast	-11.5089
▁DNA	-11.5089
▁suspect	-11.5092
▁Ocean	-11.5092
▁iPad	-11.5093
▁डिलीवरी	-11.5093
▁Standard	-11.5094
▁temporary	-11.5096
bin	-11.5096
▁falling	-11.5097
she	-11.5099
▁Working	-11.5102
▁अहइँ	-11.5102
▁Unit	-11.5103
▁नाथ	-11.5105
▁brush	-11.5105
▁substantial	-11.5107
स्ता	-11.5107
▁1970	-11.5109
▁गहलोत	-11.5109
हीं	-11.511
▁flooring	-11.5111
▁काउंट	-11.5111
▁अज	-11.5112
▁pounds	-11.5116
▁sh	-11.5116
▁tri	-11.5116
▁गैलन	-11.5117
▁completion	-11.5118
▁खिड़की	-11.5118
▁resolve	-11.5119
▁पैरा	-11.5119
▁पर्सनल	-11.5119
▁संयोग	-11.512
So	-11.5121
▁gather	-11.5123
▁differ	-11.5126
▁shade	-11.5126
foot	-11.5126
▁डिब्बे	-11.5126
▁सामुदायिक	-11.5126
▁प्रतीक्षा	-11.5126
ston	-11.5127
▁दृढ़	-11.513
▁पुनर्	-11.5131
UN	-11.5133
▁bunch	-11.5135
ांश	-11.5136
ील	-11.5136
iff	-11.514
▁statistics	-11.514
▁बोझ	-11.5142
▁वर्चुअल	-11.5143
▁insights	-11.5143
▁Creek	-11.5144
▁आतंकवाद	-11.5144
वश	-11.5145
ल्	-11.5147
▁सीधी	-11.5147
▁शुक्ला	-11.515
▁करवाने	-11.515
▁adopted	-11.5151
▁मधुर	-11.5151
▁Mat	-11.5152
ंदा	-11.5152
▁सच्चाई	-11.5154
▁und	-11.5157
get	-11.5158
▁workshops	-11.5159
▁अमल	-11.5159
▁मेला	-11.5159
स्वरूप	-11.516
▁थक	-11.516
▁texture	-11.516
▁understood	-11.516
▁copyright	-11.5161
SU	-11.5163
▁ending	-11.5166
▁स्वच्छता	-11.5167
ुक	-11.5169
▁WordPress	-11.5169
▁अपशिष्ट	-11.5169
▁मुकेश	-11.5169
▁धोखा	-11.5169
win	-11.517
▁Justice	-11.517
भेद	-11.517
▁painted	-11.517
uch	-11.5171
▁वाणी	-11.5174
▁बुखार	-11.5177
▁अनुराग	-11.5178
▁63	-11.5179
▁मजाक	-11.5181
▁आगमन	-11.5181
▁Band	-11.5181
▁ba	-11.5184
▁Tree	-11.5185
▁म्यूजिक	-11.5186
▁अल्	-11.5187
ानन्द	-11.5188
▁औंस	-11.5189
▁contracts	-11.5189
▁consequences	-11.5189
▁corn	-11.5192
▁टकरा	-11.5192
▁फे	-11.5194
▁वेस्टइंडीज	-11.5195
▁reception	-11.5195
▁अर्थात	-11.5196
▁पर्याय	-11.5197
▁जीवों	-11.5199
वइ	-11.5202
▁तात्पर्य	-11.5203
▁पाउडर	-11.5203
▁studied	-11.5203
्क	-11.5203
▁Conditions	-11.5203
▁Net	-11.5204
▁पं	-11.5206
▁exists	-11.5208
▁कोचिंग	-11.5208
▁Feb	-11.5208
▁meets	-11.5208
▁दिलाने	-11.5209
▁participating	-11.5212
▁कैमरे	-11.5212
▁नेहरू	-11.5212
वर्ड	-11.5212
▁Ste	-11.5213
▁tired	-11.5216
▁MO	-11.5219
▁attract	-11.5219
▁हादसा	-11.522
▁68	-11.522
▁alive	-11.5221
▁विक्रम	-11.5221
▁hasn	-11.5221
▁पड	-11.5224
EC	-11.5227
▁Products	-11.5227
▁Posted	-11.5229
▁Micro	-11.5229
▁southern	-11.5229
▁Among	-11.5229
▁Radio	-11.523
▁1995	-11.5231
▁FL	-11.5231
▁strip	-11.5235
▁ju	-11.5235
▁pilot	-11.5235
▁encounter	-11.5236
▁Available	-11.5237
▁विविधता	-11.5238
ore	-11.5239
▁सुरेश	-11.524
▁आर्ट	-11.524
▁chip	-11.5241
▁developer	-11.5241
▁employed	-11.5242
▁reaching	-11.5245
HA	-11.5245
▁Toronto	-11.5246
▁संलग्न	-11.5246
▁roads	-11.5247
▁गंध	-11.5252
▁तेजस्वी	-11.5255
▁promoting	-11.5255
▁खण्ड	-11.5255
qu	-11.5258
‘	-11.5259
▁clicking	-11.5259
▁Gra	-11.5259
▁माइक	-11.5261
▁केंद्रों	-11.5263
▁rising	-11.5264
▁acquire	-11.5264
0%	-11.5264
▁रिपोर्ट्स	-11.5265
▁मनुष्यों	-11.5265
▁wondering	-11.5266
▁पंप	-11.5267
▁Perfect	-11.5268
▁अधिकारों	-11.5269
▁Irish	-11.5271
▁invite	-11.5272
▁बहुमत	-11.5273
post	-11.5274
ctor	-11.528
ाप	-11.5281
▁mile	-11.5281
ोंको	-11.5281
▁कम्पनी	-11.5282
”)	-11.5282
ंप	-11.5283
▁scan	-11.5285
▁AD	-11.5287
▁सां	-11.5287
▁३६	-11.5288
▁plane	-11.5291
र्द	-11.5294
▁Ms	-11.5295
▁बगल	-11.5296
▁Crusher	-11.5298
▁Ministry	-11.5298
▁ईसा	-11.5298
ोल	-11.5299
▁भोजपुरी	-11.5299
▁बोल्ड	-11.5302
▁Sales	-11.5303
▁किताबें	-11.5304
▁watched	-11.5304
2)	-11.5304
▁worship	-11.5306
▁गणराज्य	-11.5307
▁Joseph	-11.5307
▁environments	-11.5308
▁Action	-11.5308
खी	-11.5308
▁बीत	-11.5308
▁objectives	-11.531
▁2:	-11.5313
▁diversity	-11.5315
▁फांसी	-11.5315
mel	-11.5315
र्प	-11.5315
▁स्पष्टीकरण	-11.5318
ening	-11.5319
▁बरसात	-11.5321
▁खेलों	-11.5321
▁सुन्न	-11.5322
▁currency	-11.5323
▁संगत	-11.5325
▁slip	-11.5326
▁Fall	-11.5326
क्ख	-11.5328
ावली	-11.5329
▁अवार्ड	-11.533
hal	-11.533
▁प्रस्तुति	-11.5331
▁deeply	-11.5331
▁Experience	-11.5332
▁संपन्न	-11.5333
िना	-11.5333
लाई	-11.5333
▁वें	-11.5334
▁बाह्य	-11.5334
▁भै	-11.5337
▁Everything	-11.5337
▁दिहा	-11.5337
▁servers	-11.5337
nce	-11.534
▁ne	-11.534
▁दिवसीय	-11.534
▁अपार्टमेंट	-11.5341
▁मुनाफा	-11.5341
▁tile	-11.5341
▁conventional	-11.5341
▁दस्तावेज़	-11.5343
▁दिखाता	-11.5343
▁blow	-11.5346
▁मैसेज	-11.5347
्री	-11.5349
▁afraid	-11.535
▁sl	-11.5352
▁रूपये	-11.5353
gram	-11.5353
▁Las	-11.5354
▁keys	-11.5354
त्ता	-11.5356
▁पांडे	-11.5357
▁आपसी	-11.5357
▁बॉब	-11.5357
ियस	-11.5358
▁prescription	-11.5358
▁नमस्कार	-11.5358
▁चिकन	-11.536
▁UP	-11.5361
dia	-11.5363
▁Golden	-11.5363
▁Kit	-11.5364
▁समस्याएं	-11.5364
▁भला	-11.5366
▁judgment	-11.5367
▁चैंपियनशिप	-11.5367
sia	-11.5372
▁अप्रत्याशित	-11.5376
▁mi	-11.5378
▁Rob	-11.5379
▁बाइट	-11.5382
▁फेर	-11.5382
▁emphasis	-11.5384
▁fabulous	-11.5384
▁फर्श	-11.5385
▁trash	-11.5386
ast	-11.5388
सिन	-11.5389
▁Va	-11.5389
▁cl	-11.5389
▁harder	-11.5389
ox	-11.539
बै	-11.5391
▁रॉयल	-11.5392
▁बग	-11.5393
▁हिम्मत	-11.5393
ida	-11.5397
▁instruments	-11.5398
▁स्पेन	-11.5399
▁Content	-11.5399
▁ensures	-11.54
cur	-11.5401
▁बैक्टीरिया	-11.5402
णं	-11.5402
▁महंगाई	-11.5403
▁किंग्स	-11.5405
▁boot	-11.5407
▁reveal	-11.5408
▁backup	-11.5408
▁पाक	-11.541
बर्ग	-11.541
▁Was	-11.541
▁farmers	-11.541
▁टाटा	-11.5411
▁Stock	-11.5413
ele	-11.5417
▁visits	-11.5417
▁दुखी	-11.5419
▁curriculum	-11.5419
▁सशस्त्र	-11.542
▁14,	-11.5422
▁स्वीकृत	-11.5425
▁excess	-11.5426
▁Field	-11.5428
▁वर्णमाला	-11.5428
▁चाकू	-11.5429
▁compete	-11.5429
▁institution	-11.5433
▁सवालन	-11.5433
▁आन्दोलन	-11.5437
▁पंत	-11.5438
fire	-11.5441
non	-11.5442
▁हुईं	-11.5442
▁sought	-11.5443
▁मेरठ	-11.5446
▁arrange	-11.5446
▁अनावश्यक	-11.5446
▁attitude	-11.5446
read	-11.5447
▁आँखों	-11.5447
▁III	-11.5448
▁gathering	-11.5448
▁ब्यूरो	-11.5449
▁समर्थक	-11.545
म्भ	-11.5452
▁विफल	-11.5452
टक	-11.5453
▁उपलब्धता	-11.5454
▁experiment	-11.5457
▁मिलान	-11.5457
▁hits	-11.5458
▁राख	-11.5459
CI	-11.546
RP	-11.546
▁authentic	-11.5462
नल	-11.5463
▁beds	-11.5463
▁wallpaper	-11.5463
▁productivity	-11.5464
▁स्वा	-11.5464
hl	-11.5465
▁उधार	-11.5465
▁पेंटिंग	-11.5466
▁लीला	-11.5466
▁journal	-11.5467
▁माला	-11.5467
cul	-11.5467
्रे	-11.5468
ऐ	-11.5469
▁2013.	-11.5469
▁tons	-11.5469
▁स्तरीय	-11.5471
▁stylish	-11.5472
▁weak	-11.5472
▁lemon	-11.5472
▁advise	-11.5473
▁cart	-11.5474
▁organisations	-11.5475
▁मलिक	-11.5476
▁Server	-11.5477
▁Down	-11.5477
▁Mrs	-11.5477
▁आह्वान	-11.5481
mark	-11.5482
▁Mother	-11.5482
din	-11.5484
▁buyer	-11.5485
▁safely	-11.5486
ेण	-11.5488
▁दफ्तर	-11.549
▁बरकरार	-11.549
▁झलक	-11.549
▁Below	-11.5491
ye	-11.5491
▁Ob	-11.5491
▁बहाल	-11.5493
▁सिम	-11.5493
▁bond	-11.5493
▁wrap	-11.5495
▁मिलेंगे	-11.5495
▁पेरिस	-11.5497
▁computers	-11.5497
▁कनेक्ट	-11.5497
▁सौंदर्य	-11.5498
▁पहिली	-11.5498
▁Secretary	-11.5499
▁पहनने	-11.55
its	-11.5501
▁हक	-11.5503
▁amongst	-11.5506
CS	-11.5507
▁combat	-11.5509
name	-11.551
▁चलावै	-11.5512
▁स्वप्न	-11.5513
▁सुखद	-11.5516
▁Ken	-11.5517
▁suite	-11.5517
▁सक	-11.5519
▁Korea	-11.552
गुरु	-11.552
▁supplement	-11.552
रेट	-11.5523
▁Vegas	-11.5525
▁कंगना	-11.5527
var	-11.5527
hol	-11.5529
▁cm	-11.5531
▁Fox	-11.5531
▁महोत्सव	-11.5534
▁जश्न	-11.5534
▁stainless	-11.5534
▁targeted	-11.5535
एंगे	-11.5535
▁२८	-11.5536
▁Beautiful	-11.5537
▁tie	-11.5539
▁Express	-11.554
▁125	-11.5541
▁directions	-11.5542
▁essentially	-11.5543
▁singer	-11.5543
▁stability	-11.5543
▁grey	-11.5543
▁flights	-11.5543
▁flour	-11.5545
▁अहैं	-11.5545
▁mechanical	-11.5547
ult	-11.5549
▁math	-11.5551
▁Jackson	-11.5552
▁Put	-11.5553
▁चू	-11.5557
ग्रा	-11.5558
▁Wild	-11.5559
rest	-11.5559
▁खोला	-11.5559
▁inventory	-11.5561
▁unknown	-11.5562
▁brick	-11.5562
▁स्थलों	-11.5562
▁जायेंगे	-11.5563
▁portable	-11.5563
▁Cy	-11.5564
bel	-11.5565
▁tube	-11.5568
▁मजेदार	-11.5569
▁विपणन	-11.5569
▁indicated	-11.557
राव	-11.5571
▁आयी	-11.5572
▁eliminate	-11.5572
▁विशेषण	-11.5572
▁Bell	-11.5575
▁examine	-11.5575
▁विल	-11.5577
▁shelter	-11.5578
▁अपहरण	-11.5578
▁बैठी	-11.5579
घा	-11.5579
▁utilize	-11.5581
itis	-11.5582
▁trusted	-11.5584
▁temperatures	-11.5584
put	-11.5584
▁investing	-11.5585
▁su	-11.5586
▁lu	-11.5587
▁दाग	-11.5588
▁laid	-11.5589
▁Cool	-11.5594
▁pe	-11.5594
▁ownership	-11.5597
▁PR	-11.56
▁rapid	-11.5601
▁बेड	-11.5602
▁ट्रस्ट	-11.5605
▁del	-11.5605
▁Season	-11.5606
क्षण	-11.5607
▁मंत्रियों	-11.5607
▁दिला	-11.5608
▁हेडर	-11.5608
ुम	-11.5608
▁Ban	-11.5612
▁समकक्ष	-11.5614
▁medication	-11.5616
mus	-11.5617
▁fault	-11.5619
▁maps	-11.5621
▁दशमलव	-11.5623
▁depression	-11.5623
▁latter	-11.5623
बैक	-11.5624
▁प्रसारण	-11.5624
ग्रह	-11.5624
ाह	-11.5627
कॉम	-11.5627
▁धत	-11.5628
▁फ्र	-11.5629
700	-11.563
▁artwork	-11.563
▁स्मारक	-11.5631
हान	-11.5633
▁कुशलता	-11.5633
▁returning	-11.5634
लों	-11.5635
▁claimed	-11.5636
उन	-11.5639
2%	-11.5639
▁निधि	-11.5639
▁fe	-11.564
tre	-11.564
च्च	-11.564
▁emerging	-11.564
▁अनुसूचित	-11.564
▁Daily	-11.5642
मार्ग	-11.5642
kan	-11.5642
▁संगीतकार	-11.5643
▁हथियारों	-11.5649
▁सिलेंडर	-11.5649
▁Boy	-11.5649
aj	-11.565
▁thousand	-11.5652
मेन	-11.5652
▁साथियों	-11.5652
▁Val	-11.5654
निर्देश	-11.5655
▁कतार	-11.5655
vy	-11.5655
▁circle	-11.5655
▁climb	-11.5656
▁murder	-11.5658
न्यू	-11.5664
▁ट्रांस	-11.5665
▁compact	-11.5667
▁Illinois	-11.5667
▁relating	-11.5667
▁ट्रंप	-11.5667
▁Shi	-11.5668
फिल	-11.5673
▁poll	-11.5673
▁बंदूक	-11.5676
▁मेयर	-11.5676
ify	-11.5677
▁कोतवाली	-11.5678
▁Officer	-11.5679
ॉट	-11.568
सान	-11.568
▁अना	-11.5682
▁टेक्नोलॉजी	-11.5683
मूल	-11.5683
▁contributions	-11.5684
▁gentle	-11.5684
थी	-11.5687
ेला	-11.5687
▁अहमदाबाद	-11.5687
स्तर	-11.5688
▁conclusion	-11.5688
▁Solutions	-11.5689
▁layers	-11.5691
▁कक्षाओं	-11.5692
ump	-11.5692
▁पेय	-11.5694
▁ranging	-11.5695
Al	-11.5695
▁Trans	-11.5695
▁गि	-11.5699
खे	-11.57
▁पूर्ति	-11.57
▁रावत	-11.5701
▁initiatives	-11.5701
▁Practice	-11.5703
▁भौगोलिक	-11.5703
▁survive	-11.5704
▁पिच	-11.5705
▁directory	-11.5706
▁आजाद	-11.5707
▁riding	-11.5708
▁operated	-11.5708
▁स्टील	-11.5709
▁वेरिएबल	-11.5709
3,	-11.571
▁मधु	-11.5711
▁mar	-11.5712
ावत	-11.5712
▁boards	-11.5712
▁rubber	-11.5712
▁Age	-11.5715
▁clip	-11.5715
fish	-11.5716
▁coaching	-11.5717
▁templates	-11.5719
स्तु	-11.572
▁accomplish	-11.572
PL	-11.572
▁1/2	-11.5721
विज्ञान	-11.5723
▁hide	-11.5725
▁wa	-11.5729
▁अग्रणी	-11.5731
▁pursue	-11.5731
▁भाँति	-11.5732
▁Follow	-11.5732
जीवन	-11.5736
▁Sydney	-11.5739
▁flag	-11.574
▁जानित	-11.574
▁Eastern	-11.5742
▁graphic	-11.5746
▁intend	-11.5748
▁symbol	-11.575
▁एबी	-11.5751
▁mechanism	-11.5751
▁वैन	-11.5752
nal	-11.5752
▁वृ	-11.5753
▁अफसर	-11.5753
▁emotions	-11.5755
5,000	-11.5758
▁inspection	-11.5761
▁प्रसंग	-11.5761
▁देवताओं	-11.5761
-18	-11.5762
▁themes	-11.5762
▁कोयला	-11.5764
▁क्	-11.5764
▁constructed	-11.5764
▁nights	-11.5765
▁olive	-11.5767
My	-11.5771
नेस	-11.5771
▁Vo	-11.5772
▁equally	-11.5775
यान	-11.5775
▁इलाहाबाद	-11.5775
shire	-11.5776
▁hiring	-11.5776
▁regulatory	-11.5776
▁Currently	-11.5778
▁Privacy	-11.5778
▁genuine	-11.578
▁Iran	-11.5781
▁त्योहार	-11.5782
▁rail	-11.5782
श्व	-11.5783
place	-11.5783
▁parameters	-11.5784
▁वनस्पति	-11.5785
▁blind	-11.5787
▁belief	-11.5787
▁मनु	-11.5789
मुक्त	-11.5789
ूल	-11.5789
▁reserve	-11.579
tru	-11.5792
▁स्ट	-11.5792
▁रोगियों	-11.5792
qua	-11.5793
▁nursing	-11.5794
▁philosophy	-11.5794
▁दुकानों	-11.5795
▁Member	-11.5796
▁Ag	-11.5796
▁transformation	-11.5796
▁principle	-11.5797
▁67	-11.5801
▁reserved	-11.5802
▁पार्किंग	-11.5802
▁Meanwhile	-11.5803
▁हिमालय	-11.5803
▁evil	-11.5803
ack	-11.5803
ef	-11.5804
▁sexual	-11.5804
▁mistakes	-11.5805
स्ति	-11.5806
▁गर्भ	-11.5807
▁weapons	-11.5807
ora	-11.5808
▁scratch	-11.5809
▁Cre	-11.581
▁मेजबान	-11.5811
▁शिफ्ट	-11.5812
▁दंड	-11.5812
▁240	-11.5813
▁displays	-11.5813
▁cons	-11.5813
▁cameras	-11.5815
▁तोड़ने	-11.5816
▁गाइड	-11.5816
▁तीव्रता	-11.5819
IR	-11.582
▁नींबू	-11.5821
▁disc	-11.5821
")	-11.5826
rist	-11.5827
▁चलेगा	-11.5828
FC	-11.5828
▁mountains	-11.5829
▁सम्पन्न	-11.5829
▁actively	-11.583
▁यु	-11.583
▁Civil	-11.583
मू	-11.5831
1%	-11.5831
▁लालू	-11.5832
१६	-11.5833
▁जाएंगी	-11.5834
मिक	-11.5835
▁1994	-11.5836
रम	-11.5836
बेल	-11.5838
▁financing	-11.5839
▁सेवक	-11.5839
▁चेयरमैन	-11.5839
oli	-11.584
▁genetic	-11.5841
▁औपचारिक	-11.5841
▁importantly	-11.5841
▁opinions	-11.5842
▁editing	-11.5843
▁डाइ	-11.5843
▁hike	-11.5843
▁05	-11.5844
▁mono	-11.5845
▁observe	-11.5845
4%	-11.5846
▁cur	-11.5846
▁पलट	-11.5847
scale	-11.5848
▁ill	-11.5848
▁व्युत्पन्न	-11.5848
▁जोड़ते	-11.5851
▁राक्षस	-11.5852
▁साइ	-11.5852
▁जागरूक	-11.5853
▁करोड़ों	-11.5853
▁expanded	-11.5856
▁बढ़े	-11.5856
▁अनुभवी	-11.5856
▁डाले	-11.5857
▁प्रोटोकॉल	-11.5857
▁सीसीटीवी	-11.5857
▁कंपनियां	-11.5858
▁chips	-11.5858
▁एनपी	-11.5858
▁networking	-11.5859
HS	-11.5859
▁Kong	-11.586
▁घूमने	-11.5861
▁1950	-11.5862
▁खाद	-11.5863
▁किस्म	-11.5864
▁पहुंचकर	-11.5866
▁exterior	-11.5866
1)	-11.5867
▁western	-11.5867
▁childhood	-11.5867
▁मार्केटिंग	-11.587
▁गड़बड़ी	-11.587
▁trigger	-11.5871
▁07	-11.5872
media	-11.5872
वृत्ति	-11.5873
▁Ri	-11.5874
▁possibilities	-11.5876
▁नतीजतन	-11.5876
▁स्थगित	-11.5876
▁पीट	-11.5876
▁धीमा	-11.5876
()	-11.5877
▁वर्गों	-11.5878
▁1992	-11.5879
▁सुविधाएं	-11.5881
▁बर्बाद	-11.5884
▁प्रयुक्त	-11.5887
▁मिश्रित	-11.5888
▁instrument	-11.5889
▁reply	-11.5889
▁बताता	-11.5889
▁सल	-11.589
▁बाघ	-11.5891
▁enhanced	-11.5892
▁रैंक	-11.5892
▁शिशु	-11.5893
▁सकल	-11.5893
▁लॉक	-11.5897
▁audit	-11.5898
▁ft	-11.5901
▁फूलों	-11.5902
ATION	-11.5902
▁VA	-11.5902
▁तथापि	-11.5906
▁मेडिसिन	-11.5912
▁overcome	-11.5914
स्की	-11.5914
▁पुराण	-11.5916
▁Glass	-11.5917
▁span	-11.5917
Ra	-11.5917
ैक्ट	-11.5918
रिन	-11.5918
▁opens	-11.5919
▁belt	-11.592
und	-11.592
▁फ्रेम	-11.592
▁बिन्दु	-11.5922
▁रोशन	-11.5922
▁जीवनी	-11.5924
▁बुल	-11.5924
▁operational	-11.5925
▁holes	-11.5926
▁reform	-11.5928
▁Trade	-11.5931
▁Grant	-11.5935
▁fi	-11.5935
महा	-11.5936
▁Final	-11.5936
बाल	-11.5937
▁शौक	-11.5937
▁Dream	-11.5938
▁किंग	-11.5938
▁एकड़	-11.594
▁Chapter	-11.594
▁floors	-11.5941
▁cheaper	-11.5943
खंड	-11.5946
▁पालिका	-11.5949
▁racing	-11.5949
▁Taylor	-11.5949
▁सर्वथा	-11.595
▁indoor	-11.5951
▁losses	-11.5952
▁Level	-11.5954
▁किरण	-11.5957
ालय	-11.5958
▁spin	-11.596
▁banking	-11.5962
▁instruction	-11.5965
▁फ्ल	-11.5966
ace	-11.5967
ome	-11.5967
▁रेस्टोरेंट	-11.5968
▁enforcement	-11.5968
▁Mix	-11.5968
-15	-11.5969
▁bedrooms	-11.597
▁बिटिया	-11.5972
▁अवगत	-11.5972
▁लिखना	-11.5972
▁abilities	-11.5973
▁Cu	-11.5977
▁आईटी	-11.5978
DI	-11.5979
▁Ann	-11.5981
▁मुखिया	-11.5981
▁unexpected	-11.5982
▁त्र	-11.5983
▁hat	-11.5984
die	-11.5984
न्या	-11.5985
▁प्रबंध	-11.5986
▁anniversary	-11.5986
▁Za	-11.5987
▁chest	-11.599
some	-11.5992
▁specialists	-11.5994
▁काल्पनिक	-11.5995
▁दाहिने	-11.5995
▁नाबालिग	-11.5995
▁abroad	-11.5995
▁पंक्तियों	-11.5998
▁पार्ट	-11.5998
मेल	-11.5999
▁दर्शकन	-11.6
▁बोध	-11.6002
▁पीटर	-11.6004
चक	-11.6004
▁शनि	-11.6004
▁moral	-11.6005
▁बतौर	-11.6005
▁जै	-11.6005
cus	-11.6005
▁अन्तिम	-11.6006
▁बनत	-11.6006
▁गुट	-11.6007
▁tackle	-11.6008
▁आदित्य	-11.6009
ros	-11.6009
▁Bu	-11.601
▁कॉ	-11.601
▁कराए	-11.601
▁Short	-11.6011
▁जस	-11.6011
▁स्थितियों	-11.6011
▁अनुभाग	-11.6015
▁golden	-11.6016
high	-11.602
▁accounting	-11.6021
▁loud	-11.6024
▁periods	-11.6024
▁चुनौतियों	-11.6025
हत	-11.6025
▁भंग	-11.6026
▁बाधाओं	-11.6026
LI	-11.6028
▁addressed	-11.6029
▁देशभर	-11.603
▁guard	-11.603
▁विना	-11.603
▁diabetes	-11.6032
▁पटकथा	-11.6033
क्र	-11.6033
▁शाही	-11.6035
▁रेत	-11.6036
▁distributed	-11.6037
▁impression	-11.6039
▁satellite	-11.6042
▁ट्रैफिक	-11.6042
सै	-11.6042
nu	-11.6043
ending	-11.6043
▁कच्चे	-11.6043
ular	-11.6043
▁twist	-11.6051
▁चपेट	-11.6052
▁2012.	-11.6052
▁meaningful	-11.6052
हट	-11.6057
▁बैठकर	-11.6058
▁consistently	-11.6058
even	-11.6059
▁73	-11.6061
▁दाएं	-11.6062
▁restore	-11.6065
▁ध्रुव	-11.6065
▁neutral	-11.6065
▁Within	-11.6065
जिन	-11.6066
▁मेटा	-11.6067
▁राधा	-11.6068
▁दीप	-11.6068
▁Scotland	-11.607
▁उद्धरण	-11.607
▁उतनी	-11.607
▁बदमाशों	-11.607
▁Miami	-11.607
▁92	-11.6071
ches	-11.6071
▁ब्रह्मा	-11.6073
▁Den	-11.6073
ऑ	-11.6075
fu	-11.6076
▁कोने	-11.6078
oy	-11.6079
▁experiencing	-11.6079
▁मेले	-11.6079
▁applies	-11.608
▁क्षति	-11.608
पुत्र	-11.6081
▁letting	-11.6085
▁बनाती	-11.6086
▁हीरो	-11.6087
चंद	-11.6087
BS	-11.6087
▁क्रिस्टल	-11.6089
service	-11.6089
▁processed	-11.6089
▁frequent	-11.6089
ेंड	-11.609
bound	-11.609
ics	-11.6093
▁nose	-11.6095
▁composition	-11.6095
▁involve	-11.6095
दू	-11.6097
▁rescue	-11.6098
▁लापता	-11.6098
क्व	-11.61
▁tablet	-11.6104
▁ALL	-11.6104
▁pipe	-11.6104
▁Pakistan	-11.6105
▁grip	-11.6106
▁newsletter	-11.6107
▁गेहूं	-11.6107
▁सहानुभूति	-11.6107
▁कैंप	-11.6108
▁compatible	-11.6108
▁सेंसर	-11.6109
▁Supreme	-11.611
▁एलेक्स	-11.611
pet	-11.6112
▁bet	-11.6113
There	-11.6114
▁highlights	-11.6115
▁74	-11.6116
emp	-11.6116
▁spectacular	-11.6116
▁उंई	-11.6117
▁que	-11.6117
▁flu	-11.6117
ock	-11.6118
▁moon	-11.612
र्ब	-11.6121
घाट	-11.6122
▁exception	-11.6122
कं	-11.6123
▁respective	-11.6123
▁elected	-11.6123
▁smartphone	-11.6123
▁फाइबर	-11.6124
ॉ	-11.6124
्थ	-11.6125
▁shoulder	-11.6125
▁drama	-11.6126
▁मथुरा	-11.6126
bus	-11.6126
rus	-11.6126
ea	-11.6132
▁चलाते	-11.6134
▁वास्तुकला	-11.6135
▁राजमार्ग	-11.6136
▁सेठ	-11.6137
▁हमे	-11.6138
▁ट्रे	-11.6138
▁औसतन	-11.6139
▁130	-11.6141
▁shirt	-11.6142
▁strike	-11.6143
eo	-11.6144
▁संयम	-11.6144
▁pizza	-11.6145
▁रिएक्शन	-11.6145
▁बादशाह	-11.6146
▁pit	-11.6147
▁ढ	-11.6149
▁mistake	-11.6149
▁talented	-11.615
iya	-11.615
▁controller	-11.615
mg	-11.615
▁मानवता	-11.6154
▁क्रीम	-11.6154
▁छापेमारी	-11.6154
▁Exchange	-11.6154
▁नहर	-11.6155
▁1,000	-11.6157
▁धर	-11.616
▁arrangements	-11.6161
▁employers	-11.6162
▁Article	-11.6164
▁northern	-11.6164
▁charity	-11.6164
▁रजिस्टर्ड	-11.6164
▁राशन	-11.6165
▁Figure	-11.6165
▁डाली	-11.6165
▁मुड़	-11.6166
▁suddenly	-11.6166
ोंका	-11.6167
▁तीस	-11.6167
▁सं०	-11.6167
सिल	-11.6169
cap	-11.6172
▁Yu	-11.6172
▁Magazine	-11.6173
▁stood	-11.6173
वालों	-11.6178
▁ra	-11.6179
▁खरीदी	-11.6181
▁Columbia	-11.6182
▁पूर्वानुमान	-11.6182
▁Complete	-11.6182
▁bass	-11.6183
▁प्रतिकूल	-11.6183
▁rep	-11.6185
▁कॉन्	-11.6186
▁supplier	-11.619
▁coupon	-11.619
▁yield	-11.619
डन	-11.6191
▁bug	-11.6191
▁narrative	-11.6192
▁अकादमी	-11.6192
▁सप्लाई	-11.6192
▁generic	-11.6193
▁टेम्पलेट	-11.6193
And	-11.6197
▁हमसे	-11.6197
▁जवने	-11.6197
▁soup	-11.6198
ico	-11.6198
▁2)	-11.6199
▁rarely	-11.62
RS	-11.6201
▁यहूदी	-11.6201
▁जुर्माना	-11.6201
▁raising	-11.6201
▁Oak	-11.6203
▁Source	-11.6203
▁सास	-11.6203
hold	-11.6204
PE	-11.6207
▁flood	-11.6209
▁पहुंचाया	-11.621
▁titles	-11.6211
cing	-11.6212
TP	-11.6213
▁शेख	-11.6216
▁विद्वान	-11.6218
ord	-11.6218
gh	-11.622
▁राजनैतिक	-11.622
▁पार्टनर	-11.622
▁ढाल	-11.6221
▁एह	-11.6222
▁Ryan	-11.6223
▁शिवराज	-11.6223
▁Sc	-11.6224
नन	-11.6227
▁फास्ट	-11.6228
▁contractors	-11.6228
▁लिखते	-11.6228
▁diagram	-11.6228
▁universities	-11.623
▁महेंद्र	-11.623
▁गठित	-11.623
▁recall	-11.6231
▁spare	-11.6232
सूत्र	-11.6233
▁पाइ	-11.6234
▁insert	-11.6234
▁tension	-11.6235
dar	-11.6238
OC	-11.6238
▁aluminum	-11.6239
▁कॉलोनी	-11.6239
▁globe	-11.6239
थन	-11.6241
▁Sir	-11.6242
पोल	-11.6243
▁बढ़ाकर	-11.6243
▁clinic	-11.6244
sha	-11.6244
AR	-11.6246
▁मूल्यवान	-11.6247
▁engineers	-11.6252
▁डाक	-11.6253
▁Brian	-11.6255
▁वक्ता	-11.6255
▁शेल	-11.6257
▁broke	-11.6258
▁फ्लोर	-11.6258
▁Senate	-11.6259
▁कम्प	-11.626
▁Connect	-11.626
gon	-11.6261
▁अल्प	-11.6261
▁screening	-11.6263
पुरी	-11.6267
▁Hong	-11.6267
▁poly	-11.6267
▁रजिस्ट्रेशन	-11.6268
▁Theatre	-11.6268
टिंग	-11.6269
▁सील	-11.6271
ENT	-11.6272
▁muscles	-11.6273
▁76	-11.6275
▁साध	-11.6275
▁establishment	-11.6275
▁लोहा	-11.6275
▁उपाधि	-11.6275
▁पर्यटक	-11.6276
▁बहुलक	-11.6279
▁representatives	-11.6282
▁officially	-11.6283
▁डाउन	-11.6283
type	-11.6284
▁अह	-11.6284
▁Cost	-11.6284
गेट	-11.6285
▁1991	-11.6287
▁प्रबन्ध	-11.6288
▁आयतन	-11.6288
cut	-11.6289
▁folder	-11.6289
▁13.	-11.629
र्च	-11.629
▁लैस	-11.6292
aver	-11.6294
▁दुर्गा	-11.6294
▁infection	-11.6295
▁तालिबान	-11.6296
▁अवशेष	-11.6296
धे	-11.6296
▁Resort	-11.6296
▁Jr	-11.6297
▁tender	-11.6297
▁Bull	-11.6298
▁shell	-11.6298
▁युवकों	-11.6301
▁अवि	-11.6302
▁swim	-11.6303
face	-11.6304
▁देइ	-11.6305
▁2015,	-11.6306
▁हंगामा	-11.6306
▁Description	-11.6306
▁jacket	-11.6308
ञ्च	-11.6309
from	-11.631
▁instantly	-11.6311
▁फैन	-11.6311
▁Classic	-11.6312
▁कुमारी	-11.6314
▁grace	-11.6315
▁uniform	-11.6316
▁पका	-11.6318
▁Winter	-11.6318
फे	-11.632
▁CC	-11.6321
▁Jay	-11.6321
▁expense	-11.6324
▁newspaper	-11.6324
PP	-11.6324
▁stayed	-11.6325
▁artificial	-11.6325
store	-11.6325
▁Bed	-11.6326
▁tail	-11.6326
▁designing	-11.6327
▁matching	-11.6327
▁पहन	-11.6327
▁ac	-11.6327
▁अभिन्न	-11.6328
▁wheels	-11.6329
▁weren	-11.6331
MI	-11.6331
▁रणबीर	-11.6335
mas	-11.6335
▁फूट	-11.6336
ोज	-11.6337
▁Sound	-11.6337
lly	-11.6337
▁03	-11.6338
ीस	-11.6339
lim	-11.634
▁Forum	-11.634
▁09	-11.6341
▁लौटने	-11.6341
▁customized	-11.6341
▁तत्	-11.6344
▁चलना	-11.6347
▁उठाकर	-11.6347
▁scenes	-11.6349
▁कलाकारों	-11.6349
▁(4	-11.6349
▁आकृति	-11.6349
▁शुक्र	-11.6352
▁अनुप्रयोग	-11.6352
code	-11.6352
▁mod	-11.6353
▁falls	-11.6353
hn	-11.6354
▁दुष्कर्म	-11.6354
▁आचरण	-11.6355
▁patch	-11.6356
▁cuts	-11.6358
▁वैज्ञानिकों	-11.636
▁कबीर	-11.636
▁coal	-11.6361
▁क्वांटम	-11.6363
▁situated	-11.6363
▁रोचक	-11.6364
▁विन	-11.6365
▁coat	-11.6367
▁Blog	-11.6367
▁Mini	-11.6367
lor	-11.6368
▁hi	-11.6368
▁बीए	-11.6368
▁Angel	-11.637
▁Er	-11.637
▁fiber	-11.6373
▁Stephen	-11.6373
▁कप्तानी	-11.6374
किन	-11.6374
NC	-11.6376
▁श्रीराम	-11.6377
“	-11.6377
ei	-11.6377
▁मूल्यों	-11.6378
▁रावण	-11.6381
▁20%	-11.6381
▁Arm	-11.6382
▁कमर	-11.6382
▁locally	-11.6383
पार	-11.6383
▁स्ट्रीट	-11.6383
▁finger	-11.6383
▁grid	-11.6383
▁copies	-11.6383
▁neuro	-11.6383
▁छोर	-11.6384
path	-11.6385
▁टोल	-11.6385
▁bold	-11.6385
▁wider	-11.6386
▁पाचन	-11.6388
▁धाम	-11.6389
▁printer	-11.639
oz	-11.6391
▁cooked	-11.6392
▁ब्राउन	-11.6392
▁साथे	-11.6393
ree	-11.6393
▁Louis	-11.6394
▁नीतियों	-11.6397
▁trick	-11.6398
▁सम्पत्ति	-11.6398
▁describes	-11.6399
ादिक	-11.6399
hy	-11.6399
▁डॉट	-11.6399
णे	-11.64
▁प्लस	-11.6401
▁दायरे	-11.6402
▁fifth	-11.6402
जित	-11.6402
▁बुरे	-11.6404
▁08	-11.6404
▁overnight	-11.6404
gent	-11.6406
▁भि	-11.6408
▁measured	-11.641
▁कौर	-11.6411
१२	-11.6411
▁एंजिल्स	-11.6411
▁इशारा	-11.6412
ब्र	-11.6413
▁beautifully	-11.6414
▁आईं	-11.6418
▁Money	-11.6419
▁Adam	-11.6419
▁hearts	-11.642
▁108	-11.642
▁precious	-11.6421
▁struggling	-11.6421
▁इच्छुक	-11.6421
▁पनीर	-11.6421
▁३५	-11.6422
▁modified	-11.6422
▁impressed	-11.6425
▁उत्साहित	-11.6426
▁फीड	-11.6426
▁गुल	-11.6426
▁जायेगी	-11.6427
▁लौटत	-11.6427
▁oral	-11.6428
▁किताबन	-11.643
▁वाटर	-11.643
▁variable	-11.6431
▁सिंटैक्स	-11.6431
▁राजकीय	-11.6431
▁gene	-11.6435
ess	-11.6437
▁रिया	-11.644
▁Pick	-11.6441
▁suffered	-11.6444
▁लीक	-11.6446
▁ON	-11.6447
kh	-11.6448
▁witness	-11.6449
▁फोर्स	-11.6449
▁Ever	-11.645
▁quantity	-11.645
▁क्षमा	-11.6454
▁surely	-11.6456
▁सिखा	-11.6459
▁Finance	-11.646
▁demo	-11.6461
▁अर्पित	-11.6462
▁invention	-11.6466
▁लेट	-11.6468
▁aimed	-11.6469
▁Double	-11.647
▁duration	-11.647
▁CT	-11.6472
burn	-11.6476
▁मूड	-11.6477
▁foam	-11.648
▁परिधि	-11.6481
▁merely	-11.6482
▁(“	-11.6486
▁exceed	-11.6488
▁romantic	-11.6489
▁चमत्कार	-11.6489
▁नतीजा	-11.6489
▁pitch	-11.6489
▁९०	-11.6489
▁डेब्यू	-11.649
▁निज	-11.649
▁फर्क	-11.649
▁रोगों	-11.6492
▁drives	-11.6492
▁दोस्तन	-11.6492
▁कान	-11.6492
▁पाना	-11.6494
▁मनाने	-11.6495
rit	-11.6495
▁कर्मों	-11.6496
▁fewer	-11.6497
OP	-11.6499
▁ज्ञापन	-11.6499
▁काबू	-11.65
▁कमांडर	-11.6501
oid	-11.6501
▁ट्रेलर	-11.6501
▁मनोहर	-11.6502
▁%	-11.6502
शर	-11.6502
▁वहिमा	-11.6503
▁sequence	-11.6504
ाग	-11.6505
▁recover	-11.6505
▁damages	-11.6506
▁HR	-11.6507
▁कैप	-11.6508
▁गंवा	-11.651
▁efficiently	-11.6512
▁महान्	-11.6512
▁WA	-11.6515
▁78	-11.6517
page	-11.6519
प्पा	-11.6522
▁0.4	-11.6523
▁aged	-11.6523
▁प्रान्त	-11.6523
▁tours	-11.6524
rat	-11.6525
▁बनती	-11.6527
▁स्त्रियों	-11.6528
▁Protection	-11.6529
▁टावर	-11.6529
▁vo	-11.6531
test	-11.6531
▁arch	-11.6532
सब	-11.6534
▁trim	-11.6534
▁lie	-11.6535
ुष	-11.6535
lit	-11.6538
▁cooperation	-11.6538
▁रण	-11.6538
els	-11.6539
▁सच्चा	-11.6541
▁चिन्ता	-11.6542
▁इम	-11.6543
▁specialize	-11.6543
▁Ci	-11.6544
▁पूछत	-11.6545
▁तेरे	-11.6547
▁equity	-11.6548
्ता	-11.6549
प्ट	-11.6549
वानी	-11.6549
▁चूक	-11.655
nch	-11.6552
▁एल्	-11.6552
▁$10	-11.6552
▁फू	-11.6552
▁roots	-11.6553
month	-11.6555
AA	-11.6557
▁चूँकि	-11.6557
▁त्रिपाठी	-11.6557
atory	-11.6558
ॉल	-11.6558
mic	-11.6559
How	-11.6561
तल	-11.6561
▁handy	-11.6562
▁Eric	-11.6563
lee	-11.6564
▁धोखाधड़ी	-11.6567
▁jewelry	-11.6567
▁passage	-11.6568
▁li	-11.6569
▁जानें	-11.657
▁बैठने	-11.657
▁आमिर	-11.6571
ello	-11.6573
▁Austin	-11.6577
▁कॉमेडी	-11.6577
▁चिंतित	-11.6577
▁खिल	-11.6577
▁integrate	-11.6579
uf	-11.6579
▁आह	-11.6579
▁slots	-11.6584
▁dose	-11.6584
▁spell	-11.6585
▁consult	-11.6592
▁Sri	-11.6595
▁तृतीय	-11.6595
▁भेजी	-11.6596
▁आविष्कार	-11.6597
▁victim	-11.6598
▁निहित	-11.6599
▁showcase	-11.66
▁-2	-11.6601
▁divided	-11.6601
iness	-11.6602
▁sorry	-11.6602
▁करनेवाले	-11.6603
▁shapes	-11.6603
▁Exam	-11.6604
▁Im	-11.6608
ert	-11.6609
/2	-11.6609
▁strengthen	-11.661
▁Nor	-11.661
▁एशियाई	-11.6612
▁bid	-11.6613
▁वृद्ध	-11.6615
▁जूझ	-11.6616
▁अत्याचार	-11.6617
▁Unlike	-11.6617
▁11,	-11.6618
▁odd	-11.6618
▁खाड़ी	-11.6618
▁Kan	-11.662
▁pets	-11.662
▁subsequent	-11.6622
▁Latin	-11.6623
▁br	-11.6623
▁दरबार	-11.6624
▁आरोपों	-11.6626
▁मउत	-11.6626
▁चौकी	-11.6627
▁Jeff	-11.663
म्स	-11.663
▁Ze	-11.663
▁1)	-11.663
▁Aug	-11.6635
▁लिखि	-11.6635
▁निकाली	-11.6635
▁सुर्खिय	-11.6636
▁अधिसूचना	-11.6636
▁Interior	-11.6636
▁Cam	-11.6639
प्रे	-11.664
▁Hello	-11.664
power	-11.6641
▁vertical	-11.6642
▁profession	-11.6643
▁पद्म	-11.6644
बुक	-11.6645
▁Further	-11.6646
▁उज्ज्वल	-11.6646
tr	-11.6646
▁रिकार्ड	-11.6646
▁अतएव	-11.6646
▁rough	-11.6647
▁96	-11.6648
▁किराए	-11.6656
▁wise	-11.6656
▁ढूंढै	-11.6658
▁Cro	-11.6658
▁69	-11.6658
▁gotten	-11.6659
world	-11.6659
▁apparently	-11.6659
▁कैल	-11.6661
▁1975	-11.6661
▁Enter	-11.6662
▁कार्यरत	-11.6663
▁discussions	-11.6663
▁sophisticated	-11.6666
▁Construction	-11.6666
▁Henry	-11.6666
▁रिंग	-11.6667
▁Sarah	-11.6669
▁हाइ	-11.667
▁जार	-11.6671
▁लोकप्रियता	-11.6675
▁अखिल	-11.6675
▁आपराधिक	-11.6676
▁Besides	-11.6676
▁शोषण	-11.6676
▁अनुचित	-11.6676
▁शत	-11.6679
▁reverse	-11.6679
लेस	-11.668
▁परिजन	-11.6681
▁मेनू	-11.6681
▁मिथ्या	-11.6682
▁targets	-11.6682
▁सोचने	-11.6683
osis	-11.6684
▁चैंपियन	-11.6686
▁तमिल	-11.6688
cor	-11.6688
▁नामित	-11.6688
▁वास	-11.6691
▁करेंगी	-11.6691
▁जीतकर	-11.6692
▁पच	-11.6692
▁Alex	-11.6692
त्रा	-11.6694
▁placement	-11.6694
ीक	-11.6695
▁scrap	-11.6695
▁heritage	-11.6696
▁उत्प्रेरक	-11.6696
▁डेटाफ़्रेम	-11.6696
▁copper	-11.6696
▁विचारधारा	-11.6699
मं	-11.67
▁thoroughly	-11.67
OT	-11.67
▁मारकर	-11.6701
▁governments	-11.6701
ठी	-11.6701
tics	-11.6701
▁साम	-11.6702
▁कराना	-11.6704
▁campaigns	-11.6705
▁Arizona	-11.6705
▁removing	-11.6705
▁शौचालय	-11.6705
वट	-11.6706
च्छा	-11.6706
▁नंद	-11.6708
▁आर्टिकल	-11.6712
▁इनको	-11.6713
▁Tea	-11.6714
▁सऊदी	-11.6715
▁ऑडियो	-11.6716
lines	-11.6717
▁hyper	-11.6719
▁representation	-11.672
▁BS	-11.672
▁सीमाओं	-11.672
▁एक्सेस	-11.6721
▁पीड़ा	-11.6721
ैक	-11.6722
ेरी	-11.6725
▁diagnosis	-11.6725
त्मक	-11.6726
▁resident	-11.6727
▁82	-11.6727
▁सर्दी	-11.6727
▁sing	-11.6728
▁कैसी	-11.6729
▁difficulty	-11.6729
▁salad	-11.6729
ister	-11.673
▁relaxing	-11.6731
▁प्रतिस्थापन	-11.6732
▁CM	-11.6733
▁स्टैंड	-11.6734
▁keyboard	-11.6734
take	-11.6734
▁ओडिशा	-11.6735
▁प्राय	-11.6735
▁वात	-11.6736
▁voltage	-11.6736
600	-11.6736
▁honey	-11.6736
▁analyze	-11.6737
band	-11.6739
ान्	-11.6739
ense	-11.674
▁tonight	-11.6741
▁१२०	-11.6743
▁interviews	-11.6743
▁काहेकि	-11.6744
▁enabled	-11.6745
▁यूनाइटेड	-11.6745
▁अमरीका	-11.6745
▁Copyright	-11.6745
▁optimal	-11.6745
▁जंगली	-11.6746
▁Edition	-11.6747
▁महाभारत	-11.6748
▁छुपा	-11.6748
▁पुस्तकों	-11.6749
ॉय	-11.675
▁Phil	-11.6751
▁Advanced	-11.6752
▁टै	-11.6757
▁performances	-11.6759
▁convey	-11.6759
▁फायरिंग	-11.6759
▁Republican	-11.676
▁finds	-11.6762
▁Nick	-11.6764
▁इरादा	-11.6765
cu	-11.6767
▁Nam	-11.6768
▁overview	-11.6771
श्	-11.6772
▁si	-11.6773
▁Members	-11.6773
▁कामकाज	-11.6774
▁हॉ	-11.6775
▁Cell	-11.6776
▁ग्राउंड	-11.6777
▁tub	-11.6777
▁ऊतक	-11.6777
▁arrangement	-11.6779
▁खेलना	-11.6779
▁wins	-11.678
▁घोर	-11.678
most	-11.678
▁possession	-11.6782
▁FA	-11.6783
▁contractor	-11.6785
▁cooling	-11.6785
▁एथलीट	-11.6785
▁wildlife	-11.6786
ius	-11.6786
▁Never	-11.6788
tar	-11.6789
▁मुहैय	-11.6793
▁founder	-11.6795
▁puts	-11.6797
▁101	-11.6797
▁समाप्ति	-11.6798
▁connecting	-11.68
▁रंगों	-11.6802
▁beaches	-11.6803
▁heavily	-11.6805
▁सिख	-11.6805
फ़ा	-11.6806
▁appliances	-11.6806
▁जानकर	-11.6807
game	-11.681
▁Bus	-11.6812
▁finishing	-11.6812
कोर	-11.6813
▁appreciated	-11.6814
▁earnings	-11.6815
▁receipt	-11.6815
▁restoration	-11.6815
▁wisdom	-11.6815
▁श्रीवास्तव	-11.6815
▁Gi	-11.6816
▁धक्का	-11.6816
▁Easter	-11.6817
SO	-11.6817
▁महिमा	-11.6818
▁पान	-11.6824
▁BC	-11.6825
▁administrative	-11.6826
▁prominent	-11.6826
▁हल्की	-11.6826
▁डु	-11.6826
▁आदान	-11.6826
▁आतंकियों	-11.6827
▁meters	-11.6827
▁कॉम	-11.6828
▁specialized	-11.6828
▁वहि	-11.6829
▁purchases	-11.683
तीन	-11.6832
▁Gal	-11.6834
ught	-11.6835
▁बसपा	-11.6836
▁चािहए	-11.6836
▁नारंगी	-11.6836
this	-11.6836
▁AR	-11.6837
▁इकाइयों	-11.6838
▁Ray	-11.684
▁clubs	-11.684
▁signing	-11.6844
ड्स	-11.6846
बन्ध	-11.6846
▁ब्रा	-11.6848
▁बनाम	-11.6849
ching	-11.6849
▁निवासियों	-11.685
▁सुभाष	-11.685
▁वास्तविकता	-11.685
▁हराया	-11.6851
▁oils	-11.6852
▁detect	-11.6852
▁पतन	-11.6855
▁franchise	-11.6856
▁नतीजे	-11.6856
▁जसान	-11.6857
▁सोनिया	-11.6861
▁लक्ष्मण	-11.6861
▁rolling	-11.6862
▁alert	-11.6863
▁Cut	-11.6864
▁दलित	-11.6865
▁Jean	-11.6865
▁delivers	-11.6866
▁Fi	-11.6867
▁सूखे	-11.6868
▁dough	-11.687
▁Para	-11.6871
▁gate	-11.6871
▁pie	-11.6871
▁निकली	-11.6873
wear	-11.6874
भव	-11.6874
▁वश	-11.6875
▁resulted	-11.6875
!”	-11.688
▁भजन	-11.6882
▁contents	-11.6883
▁habits	-11.6883
▁सुलभ	-11.6885
▁व्यर्थ	-11.6886
▁Retrieved	-11.6887
▁गतिविधियन	-11.6887
▁संदीप	-11.6887
▁regulation	-11.6889
verse	-11.689
▁पाती	-11.6892
▁whereas	-11.6893
▁संयंत्र	-11.6896
▁अहिंसा	-11.6898
▁Nature	-11.6898
हाँ	-11.6899
▁Roll	-11.69
रेन	-11.6903
▁संसाधनों	-11.6903
week	-11.6905
▁visa	-11.6905
▁photographer	-11.6905
फील्ड	-11.6906
▁साहिब	-11.6906
▁स्वामित्व	-11.6906
▁अड्डा	-11.6907
round	-11.691
▁डुप्लिकेट	-11.691
▁comply	-11.691
▁Wedding	-11.691
काम	-11.6911
pon	-11.6913
▁महादेव	-11.6914
▁FIG	-11.6914
क्शन	-11.6916
▁Elizabeth	-11.6917
ened	-11.6917
▁सिंचाई	-11.6917
▁वाह	-11.6917
▁balanced	-11.6917
▁पुणे	-11.6917
गति	-11.6919
▁sheets	-11.692
▁exhibit	-11.6921
person	-11.6923
▁सुंदरता	-11.6923
▁Prior	-11.6924
▁मौर्य	-11.6925
▁77	-11.6926
▁complement	-11.6926
▁Pennsylvania	-11.6927
▁universal	-11.6927
▁Course	-11.6927
▁मनोवैज्ञानिक	-11.6927
▁Oregon	-11.6927
ोम	-11.6927
▁धवन	-11.6928
aya	-11.6929
▁जानिए	-11.6929
Po	-11.693
zer	-11.693
▁Size	-11.693
▁produces	-11.693
वर्त	-11.693
tom	-11.6932
▁signals	-11.6933
▁गरीबी	-11.6933
▁Pack	-11.6934
▁टीमें	-11.6937
onic	-11.6937
▁opposition	-11.6937
▁Several	-11.6937
▁सूट	-11.6938
▁वैल	-11.6938
▁Dark	-11.6938
▁Je	-11.6939
▁सत्	-11.6941
▁पवार	-11.6943
met	-11.6943
▁pray	-11.6944
▁लाना	-11.6944
pl	-11.6946
ीट	-11.6947
▁मुहम्मद	-11.6947
▁शॉट	-11.6948
▁रोकै	-11.6948
▁everybody	-11.6949
▁Os	-11.6949
▁artistic	-11.6949
▁Early	-11.695
▁00	-11.695
▁Update	-11.6951
▁Hair	-11.6951
▁pleasant	-11.6953
▁proved	-11.6953
▁अनुवादित	-11.6955
ेक्स	-11.6955
यल	-11.6955
▁नकली	-11.6957
▁बदमाश	-11.6957
▁देहरादून	-11.6957
▁पौराणिक	-11.6957
▁supplied	-11.6957
acy	-11.6961
इंग	-11.6961
▁एमपी	-11.6961
मस	-11.6963
▁तह	-11.6963
▁union	-11.6965
▁इनाम	-11.6965
र्त	-11.6966
▁preserve	-11.6967
▁amenities	-11.6967
▁auction	-11.6967
▁टेक्सास	-11.6968
▁विद्वानों	-11.6968
▁मैप	-11.6968
▁attempts	-11.6969
साल	-11.6969
ulation	-11.6969
▁URL	-11.697
▁अनुभूति	-11.697
▁एज	-11.6971
▁संधि	-11.6971
▁competitors	-11.6971
minute	-11.6973
▁डोर	-11.6974
इल	-11.6975
RT	-11.6975
▁बुद्धिमान	-11.6977
▁duties	-11.6978
▁कारों	-11.698
▁stack	-11.6981
▁लाश	-11.6981
माला	-11.6982
burg	-11.6985
▁उद्	-11.6987
8.	-11.6988
▁शहद	-11.6989
▁रिक्त	-11.699
▁छपा	-11.699
▁पंख	-11.6991
▁Euro	-11.6992
ison	-11.6993
▁amp	-11.6994
▁Eye	-11.6995
▁संघीय	-11.6995
craft	-11.6996
▁hub	-11.6997
▁उपभोक्ताओं	-11.7
▁alter	-11.7001
▁AL	-11.7002
ically	-11.7004
SM	-11.7004
▁इस्राएल	-11.7008
▁पंजीकृत	-11.7008
▁underlying	-11.7008
▁Study	-11.701
▁दत्त	-11.7013
ंडे	-11.7013
ीकृत	-11.7014
UM	-11.7015
DA	-11.7015
[...]
