{
  "version": "1.0",
  "truncation": null,
  "padding": null,
  "added_tokens": [
    {
      "id": 0,
      "content": "<pad>",
      "single_word": false,
      "lstrip": false,
      "rstrip": false,
      "normalized": false,
      "special": true
    },
    {
      "id": 1,
      "content": "<s>",
      "single_word": false,
      "lstrip": false,
      "rstrip": false,
      "normalized": false,
      "special": true
    },
    {
      "id": 2,
      "content": "</s>",
      "single_word": false,
      "lstrip": false,
      "rstrip": false,
      "normalized": false,
      "special": true
    },
    {
      "id": 3,
      "content": "<unk>",
      "single_word": false,
      "lstrip": false,
      "rstrip": false,
      "normalized": false,
      "special": true
    }
  ],
  "normalizer": {
    "type": "Sequence",
    "normalizers": [
      {
        "type": "NFKC"
      }
    ]
  },
  "pre_tokenizer": {
    "type": "Whitespace"
  },
  "post_processor": {
    "type": "TemplateProcessing",
    "single": [
      {
        "Sequence": {
          "id": "A",
          "type_id": 0
        }
      },
      {
        "SpecialToken": {
          "id": "</s>",
          "type_id": 0
        }
      }
    ],
    "pair": [
      {
        "Sequence": {
          "id": "A",
          "type_id": 0
        }
      },
      {
        "SpecialToken": {
          "id": "</s>",
          "type_id": 0
        }
      },
      {
        "Sequence": {
          "id": "B",
          "type_id": 0
        }
      },
      {
        "SpecialToken": {
          "id": "</s>",
          "type_id": 0
        }
      }
    ],
    "special_tokens": {
      "</s>": {
        "id": "</s>",
        "ids": [
          2
        ],
        "tokens": [
          "</s>"
        ]
      }
    }
  },
  "decoder": null,
  "model": {
    "type": "Unigram",
    "unk_id": 3,
    "vocab": [
      [
        "<pad>",
        0.0
      ],
      [
        "<s>",
        0.0
      ],
      [
        "</s>",
        0.0
      ],
      [
        "<unk>",
        0.0
      ],
      [
        ",",
        -3.5046023665883546
      ],
      [
        ".",
        -3.727683310359046
      ],
      [
        "के",
        -3.981911767210116
      ],
      [
        "।",
        -4.00155385960872
      ],
      [
        "the",
        -4.149778692464578
      ],
      [
        "है",
        -4.203786160255637
      ],
      [
        "s",
        -4.337153148525454
      ],
      [
        "and",
        -4.5921871567117165
      ],
      [
        "to",
        -4.608281980259926
      ],
      [
        "में",
        -4.658360117704875
      ],
      [
        "a",
        -4.680993725035725
      ],
      [
        "का",
        -4.704644108239009
      ],
      [
        "of",
        -4.757725929436244
      ],
      [
        "-",
        -4.77044534440002
      ],
      [
        "से",
        -4.863153037988635
      ],
      [
        "की",
        -4.87904120594691
      ],
      [
        "को",
        -5.025270893622194
      ],
      [
        "in",
        -5.039699329321303
      ],
      [
        "और",
        -5.05223290148747
      ],
      [
        "क",
        -5.2079686745718945
      ],
      [
        "हैं",
        -5.3052124144858475
      ],
      [
        "is",
        -5.395039345103946
      ],
      [
        "एक",
        -5.463816824192497
      ],
      [
        "पर",
        -5.502793688303804
      ],
      [
        "कि",
        -5.50777554340644
      ],
      [
        "ने",
        -5.5549842755900976
      ],
      [
        "for",
        -5.584929387244117
      ],
      [
        "न",
        -5.632357725557833
      ],
      [
        "म",
        -5.707820639517831
      ],
      [
        "लिए",
        -5.736519080647186
      ],
      [
        "I",
        -5.76509942440005
      ],
      [
        "that",
        -5.771055211922066
      ],
      [
        "you",
        -5.783252488571781
      ],
      [
        "'",
        -5.797139605810518
      ],
      [
        "on",
        -5.804412753480019
      ],
      [
        "(",
        -5.813530878582252
      ],
      [
        "कर",
        -5.822767812969406
      ],
      [
        "with",
        -5.883525659284414
      ],
      [
        "मा",
        -5.918580218283783
      ],
      [
        "भी",
        -5.929262257616767
      ],
      [
        "’",
        -5.973957743924517
      ],
      [
        "त",
        -5.989262318131097
      ],
      [
        "ed",
        -5.997180656584142
      ],
      [
        "ing",
        -6.009663747423884
      ],
      [
        "it",
        -6.029384380896342
      ],
      [
        "ी",
        -6.041683244410432
      ],
      [
        "र",
        -6.0443657685913195
      ],
      [
        ")",
        -6.053240022075958
      ],
      [
        "इस",
        -6.076745635531513
      ],
      [
        "are",
        -6.1326639239283285
      ],
      [
        "be",
        -6.1473147403446635
      ],
      [
        "d",
        -6.163121292232956
      ],
      [
        "The",
        -6.167338344650821
      ],
      [
        "t",
        -6.171598979047765
      ],
      [
        "नहीं",
        -6.191425952962382
      ],
      [
        "as",
        -6.2307990616427755
      ],
      [
        "\"",
        -6.233693967363381
      ],
      [
        "or",
        -6.239442365835057
      ],
      [
        "?",
        -6.261029651021097
      ],
      [
        "स",
        -6.269739493328451
      ],
      [
        "ई",
        -6.2729092891646445
      ],
      [
        "e",
        -6.276565623331308
      ],
      [
        "ह",
        -6.310661810151494
      ],
      [
        "your",
        -6.322679404502923
      ],
      [
        "ही",
        -6.332496433193867
      ],
      [
        "हो",
        -6.348304492302233
      ],
      [
        "यह",
        -6.350013300327456
      ],
      [
        "किया",
        -6.368581792717277
      ],
      [
        "o",
        -6.3983005327651
      ],
      [
        "at",
        -6.403891369241572
      ],
      [
        "साथ",
        -6.403968505475362
      ],
      [
        "े",
        -6.421031147288689
      ],
      [
        "तो",
        -6.4571756723311236
      ],
      [
        "ly",
        -6.460414294735935
      ],
      [
        "ों",
        -6.4737499341923606
      ],
      [
        "या",
        -6.480885366394274
      ],
      [
        "have",
        -6.483156773158587
      ],
      [
        "an",
        -6.506452500580714
      ],
      [
        "can",
        -6.534506183641497
      ],
      [
        "ा",
        -6.537842345136246
      ],
      [
        ":",
        -6.538085297667955
      ],
      [
        "from",
        -6.539739112582156
      ],
      [
        "this",
        -6.54230697577283
      ],
      [
        "था",
        -6.553722069252384
      ],
      [
        "by",
        -6.566222680243383
      ],
      [
        "करने",
        -6.577291003311695
      ],
      [
        "y",
        -6.580726384944642
      ],
      [
        "was",
        -6.583083013733539
      ],
      [
        "will",
        -6.623288319348122
      ],
      [
        "गया",
        -6.626495209249569
      ],
      [
        "जो",
        -6.636477397315874
      ],
      [
        "1",
        -6.641868166359732
      ],
      [
        "!",
        -6.665700379332778
      ],
      [
        "2",
        -6.685596747824944
      ],
      [
        "य",
        -6.695082172804732
      ],
      [
        "अपने",
        -6.70424633382304
      ],
      [
        "अउर",
        -6.712618501153706
      ],
      [
        "not",
        -6.716620543552361
      ],
      [
        "we",
        -6.803502959461259
      ],
      [
        "ए",
        -6.833886018545071
      ],
      [
        "रहा",
        -6.845746933906929
      ],
      [
        "आप",
        -6.8641628057658775
      ],
      [
        "रूप",
        -6.884585471897308
      ],
      [
        "करत",
        -6.895549806696335
      ],
      [
        "जा",
        -6.910780011973227
      ],
      [
        "ल",
        -6.911377587990058
      ],
      [
        "बाद",
        -6.923248395778053
      ],
      [
        "all",
        -6.929597388427528
      ],
      [
        "A",
        -6.933308669020114
      ],
      [
        "व",
        -6.950512959824376
      ],
      [
        "सकत",
        -6.957940749365697
      ],
      [
        "4",
        -6.958066048242722
      ],
      [
        "has",
        -6.958306819663415
      ],
      [
        "3",
        -6.975226157487361
      ],
      [
        "कहा",
        -6.995504300511495
      ],
      [
        "i",
        -7.021550298198136
      ],
      [
        "हम",
        -7.027326371576606
      ],
      [
        "our",
        -7.037653542677754
      ],
      [
        "more",
        -7.070809368165385
      ],
      [
        "one",
        -7.080778465556245
      ],
      [
        "रहे",
        -7.083367542107409
      ],
      [
        "ो",
        -7.083490843651758
      ],
      [
        "उपयोग",
        -7.0862305681608415
      ],
      [
        "वह",
        -7.087054442318236
      ],
      [
        "but",
        -7.095489310558577
      ],
      [
        "/",
        -7.0968605780610545
      ],
      [
        "दिया",
        -7.113399969106691
      ],
      [
        "their",
        -7.121727030176661
      ],
      [
        "ब",
        -7.125226746435633
      ],
      [
        "up",
        -7.1321664158814855
      ],
      [
        "करै",
        -7.158832672276622
      ],
      [
        "कुछ",
        -7.168391269611762
      ],
      [
        "5",
        -7.177336083106701
      ],
      [
        "they",
        -7.180809994614659
      ],
      [
        "out",
        -7.215402215311421
      ],
      [
        "हुए",
        -7.2297529744931115
      ],
      [
        "समय",
        -7.233639323553101
      ],
      [
        "my",
        -7.236765297400032
      ],
      [
        "time",
        -7.237166087176158
      ],
      [
        "about",
        -7.259856080353366
      ],
      [
        "which",
        -7.260890891598521
      ],
      [
        "m",
        -7.261901797336771
      ],
      [
        "ै",
        -7.2681082884671255
      ],
      [
        "ज",
        -7.274201037036795
      ],
      [
        "थी",
        -7.280107992463094
      ],
      [
        "अ",
        -7.288458430226019
      ],
      [
        "S",
        -7.289147061954244
      ],
      [
        "It",
        -7.293335596694316
      ],
      [
        "प",
        -7.29475514012324
      ],
      [
        "थे",
        -7.300569544490319
      ],
      [
        "re",
        -7.31092221437731
      ],
      [
        "गई",
        -7.31459680499583
      ],
      [
        "लेकिन",
        -7.314865319108447
      ],
      [
        "This",
        -7.322563158316969
      ],
      [
        "द",
        -7.344268470891318
      ],
      [
        "रही",
        -7.3444816583614365
      ],
      [
        "also",
        -7.356884058134854
      ],
      [
        "गए",
        -7.361627190325203
      ],
      [
        "n",
        -7.365634768560808
      ],
      [
        "We",
        -7.378728989419686
      ],
      [
        "ता",
        -7.390802788998329
      ],
      [
        "do",
        -7.393400086582972
      ],
      [
        "जब",
        -7.398982638067954
      ],
      [
        "द्वारा",
        -7.4050081095861024
      ],
      [
        "ं",
        -7.416801577475098
      ],
      [
        "अब",
        -7.418988518260781
      ],
      [
        "जात",
        -7.422657516200269
      ],
      [
        ";",
        -7.424022728926856
      ],
      [
        "करते",
        -7.4325811612598205
      ],
      [
        "पहले",
        -7.439591446109505
      ],
      [
        "ना",
        -7.448559767830124
      ],
      [
        "“",
        -7.453371962010017
      ],
      [
        "उ",
        -7.4545102393142635
      ],
      [
        "वाले",
        -7.457215920197559
      ],
      [
        "काम",
        -7.463969555654026
      ],
      [
        "like",
        -7.465713825706416
      ],
      [
        "if",
        -7.468846881374571
      ],
      [
        "इन",
        -7.469724437638748
      ],
      [
        "In",
        -7.473294809824486
      ],
      [
        "he",
        -7.487458267255434
      ],
      [
        "उनके",
        -7.501597548239655
      ],
      [
        "some",
        -7.502248375173771
      ],
      [
        "करना",
        -7.503241041787534
      ],
      [
        "ि",
        -7.506988788842108
      ],
      [
        "अपनी",
        -7.520491899436298
      ],
      [
        "इ",
        -7.521326788278248
      ],
      [
        "आ",
        -7.522188800573787
      ],
      [
        "r",
        -7.525272529074288
      ],
      [
        "मैं",
        -7.526840312523273
      ],
      [
        "his",
        -7.527624366828398
      ],
      [
        "उन्होंने",
        -7.534137093849806
      ],
      [
        "ये",
        -7.535624681634117
      ],
      [
        "10",
        -7.535759360232726
      ],
      [
        "वे",
        -7.536358187571908
      ],
      [
        "नाम",
        -7.5372736273588
      ],
      [
        "who",
        -7.5425091489980804
      ],
      [
        "when",
        -7.552139062789097
      ],
      [
        "other",
        -7.554791563181807
      ],
      [
        "करें",
        -7.56489867134885
      ],
      [
        "us",
        -7.568488623866534
      ],
      [
        "कोई",
        -7.568709030804785
      ],
      [
        "जाता",
        -7.569687298375893
      ],
      [
        "तरह",
        -7.5718141207343095
      ],
      [
        "new",
        -7.578311355722347
      ],
      [
        "been",
        -7.57872737450565
      ],
      [
        "what",
        -7.586029935070824
      ],
      [
        "दी",
        -7.5917922770494
      ],
      [
        "इसके",
        -7.593276020432665
      ],
      [
        "होने",
        -7.594086916075099
      ],
      [
        "दो",
        -7.609258461090443
      ],
      [
        "सकता",
        -7.611171808468722
      ],
      [
        "er",
        -7.615760655248206
      ],
      [
        "any",
        -7.6170777169827115
      ],
      [
        "बहुत",
        -7.628156828555669
      ],
      [
        "0",
        -7.628394023786562
      ],
      [
        "बात",
        -7.634022471437461
      ],
      [
        "get",
        -7.6344217954546085
      ],
      [
        "there",
        -7.636558941311586
      ],
      [
        "सबसे",
        -7.640858898971613
      ],
      [
        "पास",
        -7.641930899317504
      ],
      [
        "किसी",
        -7.643589962400114
      ],
      [
        "over",
        -7.6566939120722175
      ],
      [
        "फिर",
        -7.678772385671726
      ],
      [
        "me",
        -7.6804399773766825
      ],
      [
        "them",
        -7.681602956564287
      ],
      [
        "c",
        -7.681949314640475
      ],
      [
        "were",
        -7.689407219870963
      ],
      [
        "would",
        -7.692481093241765
      ],
      [
        "p",
        -7.702836320305309
      ],
      [
        "no",
        -7.704331834019632
      ],
      [
        "had",
        -7.70528708392979
      ],
      [
        "हुआ",
        -7.707267757149612
      ],
      [
        "लोगों",
        -7.70883177778145
      ],
      [
        "बार",
        -7.709725443419515
      ],
      [
        "her",
        -7.7102495133417435
      ],
      [
        "सकते",
        -7.710429980771146
      ],
      [
        "संख्या",
        -7.712114595167012
      ],
      [
        "अधिक",
        -7.712451400533848
      ],
      [
        "just",
        -7.717598133520603
      ],
      [
        "अगर",
        -7.734421959940475
      ],
      [
        "होता",
        -7.737039622045355
      ],
      [
        "क्या",
        -7.740960445495652
      ],
      [
        "C",
        -7.741295140653921
      ],
      [
        "भारत",
        -7.754363987369651
      ],
      [
        "शामिल",
        -7.759573223231122
      ],
      [
        "दिन",
        -7.766082359947248
      ],
      [
        "You",
        -7.772294253486741
      ],
      [
        "how",
        -7.774485650675459
      ],
      [
        "make",
        -7.775584292485744
      ],
      [
        "than",
        -7.779504011774382
      ],
      [
        "–",
        -7.79012151604061
      ],
      [
        "6",
        -7.79819041912458
      ],
      [
        "साल",
        -7.79840105057241
      ],
      [
        "work",
        -7.803419234103115
      ],
      [
        "यहि",
        -7.809525425500864
      ],
      [
        "सी",
        -7.80997296583198
      ],
      [
        "its",
        -7.810192278252687
      ],
      [
        "If",
        -7.810723523566308
      ],
      [
        "सभी",
        -7.811520434602093
      ],
      [
        "गा",
        -7.813760752301931
      ],
      [
        "कारण",
        -7.815395278787523
      ],
      [
        "use",
        -7.816876236889609
      ],
      [
        "most",
        -7.817964586637462
      ],
      [
        "बीच",
        -7.821240243282466
      ],
      [
        "सरकार",
        -7.821400581579141
      ],
      [
        "ग",
        -7.836264641908965
      ],
      [
        "people",
        -7.837823925027193
      ],
      [
        "well",
        -7.843233938965259
      ],
      [
        "may",
        -7.849458025093188
      ],
      [
        "अलग",
        -7.855882052985354
      ],
      [
        "बारे",
        -7.858532783877639
      ],
      [
        "b",
        -7.867199157016342
      ],
      [
        "लोग",
        -7.86830302011049
      ],
      [
        "only",
        -7.8764791904968465
      ],
      [
        "पुलिस",
        -7.880683803930683
      ],
      [
        "्स",
        -7.882915324593322
      ],
      [
        "into",
        -7.885117599028829
      ],
      [
        "h",
        -7.892607256605945
      ],
      [
        "हुई",
        -7.895011822668577
      ],
      [
        "way",
        -7.8994754433633485
      ],
      [
        "first",
        -7.901862358365902
      ],
      [
        "D",
        -7.907765438678293
      ],
      [
        "करता",
        -7.908126151209448
      ],
      [
        "मे",
        -7.913348383025143
      ],
      [
        "f",
        -7.918487823309286
      ],
      [
        "7",
        -7.931879207111098
      ],
      [
        "जी",
        -7.932562273484793
      ],
      [
        "ट",
        -7.9394938273361415
      ],
      [
        "सब",
        -7.942535966115434
      ],
      [
        "need",
        -7.945811791011966
      ],
      [
        "these",
        -7.950718254831182
      ],
      [
        "”",
        -7.952806009688677
      ],
      [
        "अन्य",
        -7.953554016232445
      ],
      [
        "देश",
        -7.961481501666292
      ],
      [
        "करके",
        -7.963580142952244
      ],
      [
        "होगा",
        -7.963787299096323
      ],
      [
        "very",
        -7.974742792431016
      ],
      [
        "कीन",
        -7.9749246182326345
      ],
      [
        "ले",
        -7.975140114773277
      ],
      [
        "क्षेत्र",
        -7.978972649586979
      ],
      [
        "उन्हें",
        -7.982821611077425
      ],
      [
        "उस",
        -7.983694790594491
      ],
      [
        "तथा",
        -7.986358560021241
      ],
      [
        "help",
        -8.005955172386283
      ],
      [
        ").",
        -8.006570797517616
      ],
      [
        "year",
        -8.010047073654595
      ],
      [
        "उसके",
        -8.012954960989958
      ],
      [
        "प्रकार",
        -8.013266721954722
      ],
      [
        "मान",
        -8.016414020169131
      ],
      [
        "लेकर",
        -8.0189237498157
      ],
      [
        "प्राप्त",
        -8.020342304934
      ],
      [
        "B",
        -8.023325599104005
      ],
      [
        "through",
        -8.032229576137517
      ],
      [
        "many",
        -8.041174352784221
      ],
      [
        "होत",
        -8.046070102459105
      ],
      [
        "सिंह",
        -8.049906952494238
      ],
      [
        "चाहिए",
        -8.053854187475503
      ],
      [
        "able",
        -8.055193995496857
      ],
      [
        "राज्य",
        -8.055594393443544
      ],
      [
        "where",
        -8.059463910592202
      ],
      [
        "20",
        -8.060270787959775
      ],
      [
        "घर",
        -8.061783788854681
      ],
      [
        "two",
        -8.06268128892554
      ],
      [
        "जानकारी",
        -8.065706475911364
      ],
      [
        "बताया",
        -8.070502331991163
      ],
      [
        "एवं",
        -8.074869556653557
      ],
      [
        "लिया",
        -8.080771760771915
      ],
      [
        "कोड",
        -8.083841607892445
      ],
      [
        "day",
        -8.084162948226588
      ],
      [
        "सवाल",
        -8.084432821104674
      ],
      [
        "शुरू",
        -8.08508452245758
      ],
      [
        "P",
        -8.085127617737994
      ],
      [
        "दौरान",
        -8.089048190758016
      ],
      [
        "back",
        -8.09015635597451
      ],
      [
        "&",
        -8.091125587395588
      ],
      [
        "ः",
        -8.09200727092889
      ],
      [
        "आज",
        -8.099969117620573
      ],
      [
        "8",
        -8.104405753804944
      ],
      [
        "l",
        -8.107434189171666
      ],
      [
        "see",
        -8.11524767124629
      ],
      [
        "दोनों",
        -8.116194387215128
      ],
      [
        "जाने",
        -8.116862718919228
      ],
      [
        "years",
        -8.120467207203502
      ],
      [
        "good",
        -8.123315166535791
      ],
      [
        "best",
        -8.125384662406764
      ],
      [
        "M",
        -8.12623416242027
      ],
      [
        "जैसे",
        -8.128261499448888
      ],
      [
        "want",
        -8.12879595571905
      ],
      [
        "कुल",
        -8.14263584934006
      ],
      [
        "टीम",
        -8.14281113492566
      ],
      [
        "इसे",
        -8.144484392590963
      ],
      [
        "E",
        -8.149737968786797
      ],
      [
        "know",
        -8.160363644615396
      ],
      [
        "वाली",
        -8.165104616660402
      ],
      [
        "after",
        -8.165599076467267
      ],
      [
        "such",
        -8.167201875308146
      ],
      [
        "12",
        -8.167553442704454
      ],
      [
        "then",
        -8.168455315051213
      ],
      [
        "now",
        -8.171131291417591
      ],
      [
        "उसे",
        -8.178869073179746
      ],
      [
        "un",
        -8.181874303716526
      ],
      [
        "g",
        -8.18355434551627
      ],
      [
        "च",
        -8.18406985606485
      ],
      [
        "ve",
        -8.18477799400675
      ],
      [
        "home",
        -8.19034309591148
      ],
      [
        "even",
        -8.190979543576313
      ],
      [
        "should",
        -8.190995676569623
      ],
      [
        "तब",
        -8.19240705834418
      ],
      [
        "take",
        -8.192811014164606
      ],
      [
        "जेहि",
        -8.194798979463059
      ],
      [
        "जवाब",
        -8.199229402714735
      ],
      [
        "होती",
        -8.207864221275267
      ],
      [
        "much",
        -8.211000953144627
      ],
      [
        "नाहीं",
        -8.213119694979657
      ],
      [
        "दे",
        -8.213957592215925
      ],
      [
        "He",
        -8.220783201022167
      ],
      [
        "could",
        -8.222095710902215
      ],
      [
        "जाय",
        -8.22209653195488
      ],
      [
        "),",
        -8.224472930627167
      ],
      [
        "go",
        -8.224481556385669
      ],
      [
        "औ",
        -8.224942061941432
      ],
      [
        "T",
        -8.22725930948507
      ],
      [
        "9",
        -8.230870184967907
      ],
      [
        "तीन",
        -8.232409296826118
      ],
      [
        "श",
        -8.234090111485738
      ],
      [
        "उनकी",
        -8.239806469273178
      ],
      [
        "आपको",
        -8.239855211465716
      ],
      [
        "उत्तर",
        -8.246996577559031
      ],
      [
        "यदि",
        -8.247691260386006
      ],
      [
        "15",
        -8.251385422057522
      ],
      [
        "30",
        -8.25262860241858
      ],
      [
        "great",
        -8.25372493497623
      ],
      [
        "आधार",
        -8.258344868495454
      ],
      [
        "For",
        -8.266796901656011
      ],
      [
        "said",
        -8.26815935639609
      ],
      [
        "used",
        -8.271917523811275
      ],
      [
        "%",
        -8.272151017155874
      ],
      [
        "चरण",
        -8.272686691597942
      ],
      [
        "यहां",
        -8.275390711273703
      ],
      [
        "because",
        -8.280100593905894
      ],
      [
        "बना",
        -8.281991686633562
      ],
      [
        "ऐसे",
        -8.282808551143226
      ],
      [
        "made",
        -8.285317116951758
      ],
      [
        "कैसे",
        -8.286438102060927
      ],
      [
        "वाक्य",
        -8.287104439139357
      ],
      [
        "फिल्म",
        -8.291201862810718
      ],
      [
        "information",
        -8.291211885866304
      ],
      [
        "ओर",
        -8.296592078030237
      ],
      [
        "ies",
        -8.297330394338436
      ],
      [
        "ज्यादा",
        -8.299204397727777
      ],
      [
        "कार्य",
        -8.305454813865456
      ],
      [
        "बी",
        -8.307214482515692
      ],
      [
        "high",
        -8.309868957146149
      ],
      [
        "प्रदान",
        -8.311614411677201
      ],
      [
        "right",
        -8.314113656716229
      ],
      [
        "किए",
        -8.314991582811384
      ],
      [
        "$",
        -8.315607756719526
      ],
      [
        "मामले",
        -8.317515980255132
      ],
      [
        "find",
        -8.320015521226468
      ],
      [
        "ओ",
        -8.320161209009951
      ],
      [
        "she",
        -8.32261455417832
      ],
      [
        "पता",
        -8.3260096616686
      ],
      [
        "उनका",
        -8.32613642702166
      ],
      [
        "here",
        -8.32896995019906
      ],
      [
        "am",
        -8.332320033525647
      ],
      [
        "केवल",
        -8.335546594342777
      ],
      [
        "life",
        -8.335712961425628
      ],
      [
        "मदद",
        -8.339338942870285
      ],
      [
        "॥",
        -8.346051965835414
      ],
      [
        "ll",
        -8.347636115385846
      ],
      [
        "अनुसार",
        -8.351407946814877
      ],
      [
        "भारतीय",
        -8.35361909284182
      ],
      [
        "जीवन",
        -8.354189806713466
      ],
      [
        "प्रति",
        -8.355687477529202
      ],
      [
        "business",
        -8.357815551473513
      ],
      [
        "ौ",
        -8.358478799181073
      ],
      [
        "िंग",
        -8.359607324217679
      ],
      [
        "don",
        -8.359690535277403
      ],
      [
        "14",
        -8.362274156450457
      ],
      [
        "R",
        -8.362922374224713
      ],
      [
        "being",
        -8.365811891725835
      ],
      [
        "before",
        -8.37075657984995
      ],
      [
        "al",
        -8.370927288364612
      ],
      [
        "परिवार",
        -8.371275608444327
      ],
      [
        "ें",
        -8.373444025731759
      ],
      [
        "उदाहरण",
        -8.373459250736317
      ],
      [
        "व्यक्ति",
        -8.373959131553754
      ],
      [
        "ऐसा",
        -8.375454323619676
      ],
      [
        "स्वास्थ्य",
        -8.375827070312083
      ],
      [
        "अपना",
        -8.378942121160899
      ],
      [
        "those",
        -8.380984241342299
      ],
      [
        "वा",
        -8.381422838852934
      ],
      [
        "each",
        -8.389506247284558
      ],
      [
        "And",
        -8.389712425824566
      ],
      [
        "देने",
        -8.39088527681499
      ],
      [
        "...",
        -8.394592649420675
      ],
      [
        "ली",
        -8.396781554828312
      ],
      [
        "F",
        -8.403508948659326
      ],
      [
        "There",
        -8.410458209393239
      ],
      [
        "विकास",
        -8.413062494327937
      ],
      [
        "off",
        -8.416517917672532
      ],
      [
        "while",
        -8.418015868825481
      ],
      [
        "look",
        -8.423978248998873
      ],
      [
        "प्रदेश",
        -8.426608327175588
      ],
      [
        "जारी",
        -8.427050891557553
      ],
      [
        "उन",
        -8.435628171018424
      ],
      [
        "होइ",
        -8.435981602622192
      ],
      [
        "down",
        -8.439730825264256
      ],
      [
        "इसी",
        -8.440292271012733
      ],
      [
        "पूर्व",
        -8.441828166303461
      ],
      [
        "world",
        -8.442107716062457
      ],
      [
        "अलावा",
        -8.447873087071056
      ],
      [
        "long",
        -8.448400124265433
      ],
      [
        "free",
        -8.449662046143914
      ],
      [
        "स्थिति",
        -8.451391381452183
      ],
      [
        "डेटा",
        -8.457605175897974
      ],
      [
        "11",
        -8.457764173880618
      ],
      [
        "G",
        -8.458321681462477
      ],
      [
        "दूसरे",
        -8.461287501956846
      ],
      [
        "v",
        -8.463431747454907
      ],
      [
        "own",
        -8.463900768252845
      ],
      [
        "दिल्ली",
        -8.46646823699341
      ],
      [
        "As",
        -8.469440916708901
      ],
      [
        "तौ",
        -8.470646667690465
      ],
      [
        "वो",
        -8.471692950473644
      ],
      [
        "u",
        -8.471870097516398
      ],
      [
        "जिस",
        -8.474341299503777
      ],
      [
        "२",
        -8.476635138012082
      ],
      [
        "around",
        -8.478427606026683
      ],
      [
        "U",
        -8.479116406237262
      ],
      [
        "under",
        -8.480724472285946
      ],
      [
        "इसलिए",
        -8.483339283593644
      ],
      [
        "जरूरत",
        -8.484689717932186
      ],
      [
        "वहीं",
        -8.491059185332192
      ],
      [
        "But",
        -8.492004132978806
      ],
      [
        "वर्ष",
        -8.495463294105013
      ],
      [
        "क्स",
        -8.49643207106708
      ],
      [
        "जाती",
        -8.499466493357689
      ],
      [
        "काफी",
        -8.505639347938262
      ],
      [
        "different",
        -8.505789820857306
      ],
      [
        "part",
        -8.50668169672231
      ],
      [
        "L",
        -8.509629975147611
      ],
      [
        "जाएगा",
        -8.51230265189825
      ],
      [
        "मुख्य",
        -8.512775783549976
      ],
      [
        "पूरा",
        -8.514044374130977
      ],
      [
        "जांच",
        -8.516734710172098
      ],
      [
        "आई",
        -8.517146474024507
      ],
      [
        "going",
        -8.51981576662349
      ],
      [
        "पानी",
        -8.521100427356451
      ],
      [
        "सही",
        -8.521577525005306
      ],
      [
        "जिसमें",
        -8.522159690469879
      ],
      [
        "होते",
        -8.524263141639612
      ],
      [
        "really",
        -8.52801731537857
      ],
      [
        "जवन",
        -8.528247259615041
      ],
      [
        "50",
        -8.528419963157093
      ],
      [
        "place",
        -8.531822679242445
      ],
      [
        "using",
        -8.53522777562443
      ],
      [
        "ers",
        -8.536699191707756
      ],
      [
        "him",
        -8.536715817930354
      ],
      [
        "They",
        -8.538097108829684
      ],
      [
        "यहाँ",
        -8.539811876161524
      ],
      [
        "set",
        -8.542849453286909
      ],
      [
        "आपके",
        -8.544924859208907
      ],
      [
        "every",
        -8.546214327294791
      ],
      [
        "लगा",
        -8.547152504161092
      ],
      [
        "show",
        -8.549734586510867
      ],
      [
        "last",
        -8.55339766688074
      ],
      [
        "सा",
        -8.555530876831925
      ],
      [
        "सामने",
        -8.557308733028187
      ],
      [
        "भाग",
        -8.557424705059466
      ],
      [
        "service",
        -8.557598199368917
      ],
      [
        "सकती",
        -8.558117446824554
      ],
      [
        "आगे",
        -8.562108982637406
      ],
      [
        "ड",
        -8.563198157975368
      ],
      [
        "both",
        -8.564243671514792
      ],
      [
        "think",
        -8.564302722831048
      ],
      [
        "same",
        -8.56889646010511
      ],
      [
        "मुझे",
        -8.573241744552808
      ],
      [
        "ख",
        -8.573955626208564
      ],
      [
        "१",
        -8.574903749607547
      ],
      [
        "दें",
        -8.576038810438611
      ],
      [
        "सूची",
        -8.578440465289267
      ],
      [
        "K",
        -8.578902582151539
      ],
      [
        "पूरी",
        -8.581170157715615
      ],
      [
        "So",
        -8.581343905852059
      ],
      [
        "मिल",
        -8.581370427605652
      ],
      [
        "25",
        -8.582188320613888
      ],
      [
        "100",
        -8.58341009153995
      ],
      [
        "स्थान",
        -8.587340401498112
      ],
      [
        "वाला",
        -8.588083509113419
      ],
      [
        "To",
        -8.588155626743271
      ],
      [
        "चार",
        -8.590773087444244
      ],
      [
        "अऊर",
        -8.591014459690347
      ],
      [
        "between",
        -8.593643441613011
      ],
      [
        "love",
        -8.596107148572054
      ],
      [
        "man",
        -8.597618192838317
      ],
      [
        "available",
        -8.59783413122827
      ],
      [
        "still",
        -8.597968203836132
      ],
      [
        "आदि",
        -8.60025059471332
      ],
      [
        "खिलाफ",
        -8.601562146285136
      ],
      [
        "X",
        -8.604949461697386
      ],
      [
        "विचार",
        -8.606445000675496
      ],
      [
        "ध्यान",
        -8.606827617323193
      ],
      [
        "पार्टी",
        -8.60855187916563
      ],
      [
        "क्योंकि",
        -8.609089346911508
      ],
      [
        "मंत्री",
        -8.610474072617418
      ],
      [
        "जहां",
        -8.610760735636223
      ],
      [
        "What",
        -8.614515809581087
      ],
      [
        "अंत",
        -8.619013831397826
      ],
      [
        "बन",
        -8.62137322722648
      ],
      [
        "—",
        -8.622820229640501
      ],
      [
        "24",
        -8.627536936915844
      ],
      [
        "H",
        -8.62915851553737
      ],
      [
        "N",
        -8.629705266038936
      ],
      [
        "होगी",
        -8.631035603128499
      ],
      [
        "end",
        -8.63170198941628
      ],
      [
        "लिये",
        -8.634384520756836
      ],
      [
        "water",
        -8.636890234741346
      ],
      [
        "000",
        -8.637998131645174
      ],
      [
        "श्री",
        -8.638561483820716
      ],
      [
        "18",
        -8.63955548107313
      ],
      [
        "system",
        -8.639934161093086
      ],
      [
        "When",
        -8.64056755047706
      ],
      [
        "खातिर",
        -8.640704906648985
      ],
      [
        "company",
        -8.644129379368957
      ],
      [
        "बड़े",
        -8.646304800958642
      ],
      [
        "data",
        -8.64889223620922
      ],
      [
        "बनाने",
        -8.652368616495446
      ],
      [
        "इससे",
        -8.655057804682086
      ],
      [
        "experience",
        -8.658895058118107
      ],
      [
        "कांग्रेस",
        -8.659482233656052
      ],
      [
        "support",
        -8.660062017453042
      ],
      [
        "few",
        -8.662649300529292
      ],
      [
        "ियों",
        -8.665679122411596
      ],
      [
        "w",
        -8.665894942507867
      ],
      [
        "New",
        -8.667362277923559
      ],
      [
        "पी",
        -8.667569597304572
      ],
      [
        "ित",
        -8.668006138616187
      ],
      [
        "less",
        -8.671805038301374
      ],
      [
        "बता",
        -8.677910352490787
      ],
      [
        "कौन",
        -8.678222521172506
      ],
      [
        "तैयार",
        -8.67880309026453
      ],
      [
        "x",
        -8.680329182803183
      ],
      [
        "including",
        -8.680642103079785
      ],
      [
        "com",
        -8.681381245712945
      ],
      [
        "विभाग",
        -8.683401257614305
      ],
      [
        "उसकी",
        -8.685747742622189
      ],
      [
        "sure",
        -8.687838839541605
      ],
      [
        "जबकि",
        -8.689172384531165
      ],
      [
        "निम्नलिखित",
        -8.690987223831723
      ],
      [
        "शब्द",
        -8.691157405464015
      ],
      [
        "बड़ी",
        -8.698520134712236
      ],
      [
        "डी",
        -8.698564846027562
      ],
      [
        "अभी",
        -8.699593072953718
      ],
      [
        "कुमार",
        -8.702678269793067
      ],
      [
        "नई",
        -8.702995355616945
      ],
      [
        "team",
        -8.703141249288635
      ],
      [
        "अच्छा",
        -8.703379488165144
      ],
      [
        "कार",
        -8.705859504843906
      ],
      [
        "बाहर",
        -8.70655804312199
      ],
      [
        "०",
        -8.710855644428817
      ],
      [
        "दिए",
        -8.711073902636123
      ],
      [
        "come",
        -8.711214585271934
      ],
      [
        "समस्या",
        -8.712366308133475
      ],
      [
        "provide",
        -8.716161862379398
      ],
      [
        "number",
        -8.716653990211677
      ],
      [
        "चुनाव",
        -8.720199545443101
      ],
      [
        "हूं",
        -8.721510643600514
      ],
      [
        "धर्म",
        -8.721949723361105
      ],
      [
        "मन",
        -8.72459865076179
      ],
      [
        "always",
        -8.730053964256985
      ],
      [
        "offer",
        -8.731512462014923
      ],
      [
        "विशेष",
        -8.733369869023868
      ],
      [
        "family",
        -8.735083858328034
      ],
      [
        "जाना",
        -8.737987719864991
      ],
      [
        "विभिन्न",
        -8.741069464585665
      ],
      [
        "बड़ा",
        -8.741301525234139
      ],
      [
        "things",
        -8.746431439423665
      ],
      [
        "services",
        -8.746726879808582
      ],
      [
        "भ",
        -8.750613762179864
      ],
      [
        "शहर",
        -8.751489842354802
      ],
      [
        "इसका",
        -8.752483242403624
      ],
      [
        "हूँ",
        -8.752523568328286
      ],
      [
        "post",
        -8.75314195040926
      ],
      [
        "W",
        -8.755178214148435
      ],
      [
        "पिछले",
        -8.75537026728402
      ],
      [
        "during",
        -8.7554865919122
      ],
      [
        "three",
        -8.757082503885842
      ],
      [
        "बिना",
        -8.757101168110015
      ],
      [
        "जगह",
        -8.757966093661391
      ],
      [
        "O",
        -8.759090772757634
      ],
      [
        "little",
        -8.759703387344867
      ],
      [
        "top",
        -8.76591294793518
      ],
      [
        "भाषा",
        -8.766946977609532
      ],
      [
        "योजना",
        -8.767120935812576
      ],
      [
        "इस्तेमाल",
        -8.76723956513712
      ],
      [
        "did",
        -8.770128682591483
      ],
      [
        "without",
        -8.770232730582915
      ],
      [
        "lot",
        -8.770271686276402
      ],
      [
        "important",
        -8.77102271373068
      ],
      [
        "better",
        -8.771303709254399
      ],
      [
        "based",
        -8.771648673768253
      ],
      [
        "आपका",
        -8.774661397859427
      ],
      [
        "k",
        -8.77557711624658
      ],
      [
        "काहे",
        -8.77600643290848
      ],
      [
        "जाते",
        -8.779046626181248
      ],
      [
        "Our",
        -8.779277977982881
      ],
      [
        "13",
        -8.779451256150113
      ],
      [
        "per",
        -8.779601005194431
      ],
      [
        "must",
        -8.780212868879547
      ],
      [
        "side",
        -8.785731636923577
      ],
      [
        "करती",
        -8.786048570251644
      ],
      [
        "हौं",
        -8.787610329854425
      ],
      [
        "दुइ",
        -8.787786903179192
      ],
      [
        "en",
        -8.790972745094399
      ],
      [
        "मैच",
        -8.792425211188231
      ],
      [
        "online",
        -8.793697393214824
      ],
      [
        "does",
        -8.793993900330369
      ],
      [
        "large",
        -8.794756288626006
      ],
      [
        "३",
        -8.79569917300301
      ],
      [
        "V",
        -8.79789418856923
      ],
      [
        "book",
        -8.800376604993366
      ],
      [
        "हालांकि",
        -8.803021196551216
      ],
      [
        "मिला",
        -8.80544066894347
      ],
      [
        "quality",
        -8.810434229581137
      ],
      [
        "दुनिया",
        -8.81380217405122
      ],
      [
        "small",
        -8.815170689887191
      ],
      [
        "40",
        -8.816398912925544
      ],
      [
        "कभी",
        -8.818128966223574
      ],
      [
        "प्रत्येक",
        -8.819753890314564
      ],
      [
        "स्थित",
        -8.824190771615104
      ],
      [
        "टी",
        -8.825724691964194
      ],
      [
        "माध्यम",
        -8.827844230311394
      ],
      [
        "ity",
        -8.827848755992404
      ],
      [
        "आने",
        -8.829748725773468
      ],
      [
        "कंपनी",
        -8.8300351372628
      ],
      [
        "प्रक्रिया",
        -8.83020318485006
      ],
      [
        "लगभग",
        -8.830506310271193
      ],
      [
        "site",
        -8.831398029308822
      ],
      [
        "कउन",
        -8.83189401756096
      ],
      [
        "All",
        -8.836552525953715
      ],
      [
        "उसने",
        -8.839694253515738
      ],
      [
        "निर्माण",
        -8.840580632415959
      ],
      [
        "19",
        -8.842218184018519
      ],
      [
        "next",
        -8.842250132884217
      ],
      [
        "full",
        -8.842529252934302
      ],
      [
        "16",
        -8.84421230575976
      ],
      [
        "चला",
        -8.845183771770676
      ],
      [
        "राम",
        -8.84525355052015
      ],
      [
        "website",
        -8.845413121024619
      ],
      [
        "रुपये",
        -8.84786225925591
      ],
      [
        "स्तर",
        -8.848247936322984
      ],
      [
        "सेट",
        -8.850164623606904
      ],
      [
        "मीडिया",
        -8.850476533042645
      ],
      [
        "मूल",
        -8.852729821359404
      ],
      [
        "चल",
        -8.853300791227069
      ],
      [
        "‘",
        -8.853534555935214
      ],
      [
        "line",
        -8.855004381442043
      ],
      [
        "वापस",
        -8.856188626766052
      ],
      [
        "something",
        -8.856406183801143
      ],
      [
        "give",
        -8.857330296642868
      ],
      [
        "महत्वपूर्ण",
        -8.859197294585593
      ],
      [
        "design",
        -8.862029615372201
      ],
      [
        "process",
        -8.86504617793377
      ],
      [
        "course",
        -8.868801452280033
      ],
      [
        "J",
        -8.868897369804655
      ],
      [
        "est",
        -8.869363613907042
      ],
      [
        "दर",
        -8.869890889046886
      ],
      [
        "गणना",
        -8.875792614105405
      ],
      [
        "शरीर",
        -8.876926473039324
      ],
      [
        "another",
        -8.880371947160619
      ],
      [
        "found",
        -8.881767368157895
      ],
      [
        "feel",
        -8.883483702278266
      ],
      [
        "17",
        -8.88400200939655
      ],
      [
        "With",
        -8.884228059534811
      ],
      [
        "रात",
        -8.884308311577833
      ],
      [
        "order",
        -8.88488008232064
      ],
      [
        "महिला",
        -8.887100019981567
      ],
      [
        "times",
        -8.888450292486331
      ],
      [
        "ज्ञान",
        -8.892553224097412
      ],
      [
        "एक्स",
        -8.89308195160846
      ],
      [
        "might",
        -8.89381505869925
      ],
      [
        "लाख",
        -8.894229345687204
      ],
      [
        "इसमें",
        -8.894440664249972
      ],
      [
        "old",
        -8.895724824324551
      ],
      [
        "वि",
        -8.89619383112315
      ],
      [
        "होना",
        -8.899695002034656
      ],
      [
        "वर्ग",
        -8.900945058256395
      ],
      [
        "घटना",
        -8.904239478722012
      ],
      [
        "राज",
        -8.905451052115994
      ],
      [
        "नगर",
        -8.906174470329972
      ],
      [
        "खेल",
        -8.906323889224605
      ],
      [
        "दूर",
        -8.90731493241574
      ],
      [
        "मेरे",
        -8.908259415754005
      ],
      [
        "थ",
        -8.909103453454211
      ],
      [
        "पहुंच",
        -8.912738208332447
      ],
      [
        "सु",
        -8.912826462309088
      ],
      [
        "days",
        -8.913759734877882
      ],
      [
        "दर्ज",
        -8.917643997689169
      ],
      [
        "वीडियो",
        -8.91858766514158
      ],
      [
        "ला",
        -8.919410076650742
      ],
      [
        "making",
        -8.921139720755571
      ],
      [
        "हमारे",
        -8.921362271809421
      ],
      [
        "local",
        -8.921790110222545
      ],
      [
        "भर",
        -8.921920799934773
      ],
      [
        "ठीक",
        -8.922671384429844
      ],
      [
        "since",
        -8.922752758635347
      ],
      [
        "ओं",
        -8.92291680472445
      ],
      [
        "keep",
        -8.92316352274238
      ],
      [
        "कार्यक्रम",
        -8.924949686358465
      ],
      [
        "ण",
        -8.924970851253937
      ],
      [
        "देत",
        -8.927425374346814
      ],
      [
        "परिणाम",
        -8.92756370595658
      ],
      [
        "सुरक्षा",
        -8.928573784377388
      ],
      [
        "body",
        -8.928647690603222
      ],
      [
        "प्र",
        -8.929527844082404
      ],
      [
        "That",
        -8.930283076147669
      ],
      [
        "game",
        -8.931477642507994
      ],
      [
        "उसका",
        -8.931866403216294
      ],
      [
        "working",
        -8.932249858592622
      ],
      [
        "ऐसी",
        -8.932305420858883
      ],
      [
        "ever",
        -8.932991880366295
      ],
      [
        "पहिले",
        -8.933121435376151
      ],
      [
        "वर्तमान",
        -8.934709911020942
      ],
      [
        "देखा",
        -8.935310732369302
      ],
      [
        "इनपुट",
        -8.940479335556498
      ],
      [
        "looking",
        -8.94104311177709
      ],
      [
        "फ",
        -8.943587973303254
      ],
      [
        "जीत",
        -8.945909045094814
      ],
      [
        "ऊ",
        -8.946308275615316
      ],
      [
        "start",
        -8.949881659457162
      ],
      [
        "जिसके",
        -8.95119037437577
      ],
      [
        "care",
        -8.9517394313407
      ],
      [
        "60",
        -8.952403408094389
      ],
      [
        "area",
        -8.952510515770314
      ],
      [
        "No",
        -8.95415503894295
      ],
      [
        "विषय",
        -8.95419610586438
      ],
      [
        "प्रमुख",
        -8.958236672010617
      ],
      [
        "कोशिश",
        -8.960948066243542
      ],
      [
        "She",
        -8.961376122984241
      ],
      [
        "बंद",
        -8.965406168395463
      ],
      [
        "संबंध",
        -8.969710443388212
      ],
      [
        "school",
        -8.969877276289505
      ],
      [
        "विधि",
        -8.971559927216234
      ],
      [
        "car",
        -8.974574024133691
      ],
      [
        "करा",
        -8.975936560176233
      ],
      [
        "आपन",
        -8.976588020644273
      ],
      [
        "आम",
        -8.97749085812937
      ],
      [
        "पा",
        -8.978112197450535
      ],
      [
        "बढ़",
        -8.97861523785437
      ],
      [
        "पै",
        -8.979241936593786
      ],
      [
        "दिनों",
        -8.979972284574927
      ],
      [
        "पिता",
        -8.982343312323529
      ],
      [
        "समूह",
        -8.985727394297514
      ],
      [
        "put",
        -8.985984361054658
      ],
      [
        "पहचान",
        -8.98682607476791
      ],
      [
        "सेवा",
        -8.98689486118061
      ],
      [
        "प्रदर्शन",
        -8.988335469376459
      ],
      [
        "say",
        -8.988758633901812
      ],
      [
        "अनुभव",
        -8.988816186461236
      ],
      [
        "बदल",
        -8.989703103126885
      ],
      [
        "week",
        -8.991544372973827
      ],
      [
        "products",
        -8.99333185233691
      ],
      [
        "never",
        -8.993341992683666
      ],
      [
        "मुख्यमंत्री",
        -8.99398499725301
      ],
      [
        "करोड़",
        -8.994280563982457
      ],
      [
        "room",
        -8.995507469454985
      ],
      [
        "स्ट्रिंग",
        -8.996024739808727
      ],
      [
        "today",
        -8.998136899054781
      ],
      [
        "पूर्ण",
        -8.999435078252423
      ],
      [
        "hard",
        -9.000167933960189
      ],
      [
        "अध्यक्ष",
        -9.001512213491962
      ],
      [
        "समझ",
        -9.002709221557458
      ],
      [
        "within",
        -9.004235851369424
      ],
      [
        "age",
        -9.00457209580945
      ],
      [
        "योग",
        -9.004822745699787
      ],
      [
        "house",
        -9.006930342479068
      ],
      [
        "change",
        -9.00745039832996
      ],
      [
        "अधिकारी",
        -9.007467821129753
      ],
      [
        "गांव",
        -9.008379331628145
      ],
      [
        "तौर",
        -9.008697427177978
      ],
      [
        "तहत",
        -9.008705377124826
      ],
      [
        "These",
        -9.008805200959642
      ],
      [
        "लए",
        -9.010232513700554
      ],
      [
        "अर्थ",
        -9.011839709728743
      ],
      [
        "market",
        -9.013504074656153
      ],
      [
        "case",
        -9.013597516317134
      ],
      [
        "children",
        -9.014156976117507
      ],
      [
        "My",
        -9.014677906123195
      ],
      [
        "students",
        -9.020794890163945
      ],
      [
        "22",
        -9.02087538129625
      ],
      [
        "हाथ",
        -9.021019669425167
      ],
      [
        "project",
        -9.021117486696175
      ],
      [
        "देते",
        -9.02159542801023
      ],
      [
        "४",
        -9.021937345133475
      ],
      [
        "जनता",
        -9.021972817685928
      ],
      [
        "फ़ंक्शन",
        -9.022122003936738
      ],
      [
        "मिली",
        -9.023947553029984
      ],
      [
        "enjoy",
        -9.024560793267872
      ],
      [
        "रंग",
        -9.025993473531587
      ],
      [
        "प्रभाव",
        -9.02904412070592
      ],
      [
        "become",
        -9.029893603029393
      ],
      [
        "सीमा",
        -9.030731128171924
      ],
      [
        "2018",
        -9.030957769639194
      ],
      [
        "state",
        -9.031019579803832
      ],
      [
        "समाधान",
        -9.032876559298792
      ],
      [
        "ऊपर",
        -9.033886466272772
      ],
      [
        "शिक्षा",
        -9.034573706589418
      ],
      [
        "रहने",
        -9.036636186953332
      ],
      [
        "मतलब",
        -9.036639985941456
      ],
      [
        "बैठक",
        -9.03691255796064
      ],
      [
        "भाजपा",
        -9.037039120759445
      ],
      [
        "got",
        -9.039590235263997
      ],
      [
        "आए",
        -9.039699880915213
      ],
      [
        "नौ",
        -9.039823657017228
      ],
      [
        "लागू",
        -9.040045121666086
      ],
      [
        "कोरोना",
        -9.042011734134093
      ],
      [
        "दूसरी",
        -9.04234841019573
      ],
      [
        "मोदी",
        -9.044753595430818
      ],
      [
        "पहली",
        -9.04494167165732
      ],
      [
        "खुद",
        -9.045250555935487
      ],
      [
        "name",
        -9.046887971687337
      ],
      [
        "money",
        -9.048223665900458
      ],
      [
        "संबंधित",
        -9.04847079296141
      ],
      [
        "लाल",
        -9.048649560345645
      ],
      [
        "सुनिश्चित",
        -9.049192949925176
      ],
      [
        "health",
        -9.050576245691706
      ],
      [
        "real",
        -9.051077211322832
      ],
      [
        "गये",
        -9.051712615634614
      ],
      [
        "away",
        -9.052076806148879
      ],
      [
        "On",
        -9.054185107531696
      ],
      [
        "स्कूल",
        -9.054634191737495
      ],
      [
        "easy",
        -9.0580155086431
      ],
      [
        "21",
        -9.058812278648384
      ],
      [
        "food",
        -9.059984340754939
      ],
      [
        "point",
        -9.062442228132912
      ],
      [
        "देख",
        -9.063133497261264
      ],
      [
        "तुलना",
        -9.063166908000271
      ],
      [
        "लागत",
        -9.065475826577035
      ],
      [
        "needs",
        -9.06616419389277
      ],
      [
        "तत्व",
        -9.066489199025847
      ],
      [
        "आवश्यकता",
        -9.067151373574182
      ],
      [
        "करीब",
        -9.068001928195434
      ],
      [
        "co",
        -9.068802580513443
      ],
      [
        "open",
        -9.068992952752033
      ],
      [
        "level",
        -9.07036017262127
      ],
      [
        "सामान्य",
        -9.070821070125792
      ],
      [
        "संदर्भ",
        -9.071343968619518
      ],
      [
        "जल",
        -9.075894363379776
      ],
      [
        "माना",
        -9.07663042174856
      ],
      [
        "How",
        -9.077545157443542
      ],
      [
        "possible",
        -9.079854368426272
      ],
      [
        "together",
        -9.08027490600482
      ],
      [
        "नजर",
        -9.081670919875586
      ],
      [
        "जन",
        -9.082123815245
      ],
      [
        "ऑफ",
        -9.083285951199148
      ],
      [
        "One",
        -9.084675702191221
      ],
      [
        "आया",
        -9.085089515373605
      ],
      [
        "चर",
        -9.085356220353454
      ],
      [
        "तरफ",
        -9.08591977257941
      ],
      [
        "यात्रा",
        -9.086272821218818
      ],
      [
        "विश्व",
        -9.088019860450917
      ],
      [
        "play",
        -9.08878715358834
      ],
      [
        "५",
        -9.089632560073138
      ],
      [
        "ू",
        -9.089828667852967
      ],
      [
        "[",
        -9.090359120705445
      ],
      [
        "पुर",
        -9.091551684833178
      ],
      [
        "उप",
        -9.09262666666296
      ],
      [
        "again",
        -9.094397089089066
      ],
      [
        "At",
        -9.094578619796744
      ],
      [
        "मांग",
        -9.096079456081075
      ],
      [
        "list",
        -9.09608757146218
      ],
      [
        "रखा",
        -9.097762915029328
      ],
      [
        "power",
        -9.097894625699906
      ],
      [
        "विशिष्ट",
        -9.098198857418362
      ],
      [
        "second",
        -9.101200699059408
      ],
      [
        "let",
        -9.102391221234795
      ],
      [
        "person",
        -9.10258779612531
      ],
      [
        "page",
        -9.104182155385283
      ],
      [
        "often",
        -9.10534315067678
      ],
      [
        "निर्धारित",
        -9.10558328940622
      ],
      [
        "प्रतिक्रिया",
        -9.105867750079714
      ],
      [
        "जहाँ",
        -9.106039027928723
      ],
      [
        "मॉडल",
        -9.107766392702862
      ],
      [
        "खान",
        -9.107839298323299
      ],
      [
        "समान",
        -9.108674518261232
      ],
      [
        "पांच",
        -9.109412188145265
      ],
      [
        "जिला",
        -9.109949168604873
      ],
      [
        "उच्च",
        -9.111714523397344
      ],
      [
        "केंद्र",
        -9.113880614010677
      ],
      [
        "create",
        -9.114406335844967
      ],
      [
        "जिससे",
        -9.115025145314213
      ],
      [
        "group",
        -9.120000479396701
      ],
      [
        "along",
        -9.120233665782749
      ],
      [
        "इके",
        -9.120729357280858
      ],
      [
        "सं",
        -9.123257985852357
      ],
      [
        "रिपोर्ट",
        -9.123962698179207
      ],
      [
        "लेने",
        -9.124976158989881
      ],
      [
        "नीचे",
        -9.12547004632115
      ],
      [
        "राष्ट्रीय",
        -9.126464242948183
      ],
      [
        "ताकि",
        -9.126637891233768
      ],
      [
        "लगे",
        -9.127002627110494
      ],
      [
        "लिखा",
        -9.127012873643217
      ],
      [
        "पत्र",
        -9.127185610908692
      ],
      [
        "आवश्यक",
        -9.128810632985024
      ],
      [
        "देता",
        -9.12923207515334
      ],
      [
        "program",
        -9.129732367046241
      ],
      [
        "विकल्प",
        -9.130241441431897
      ],
      [
        "पद",
        -9.130677261062248
      ],
      [
        "hand",
        -9.131945031851606
      ],
      [
        "नेता",
        -9.132392447680814
      ],
      [
        "public",
        -9.134999232107845
      ],
      [
        "Y",
        -9.135128370473467
      ],
      [
        "light",
        -9.137184470648775
      ],
      [
        "जिले",
        -9.137477795501736
      ],
      [
        "until",
        -9.137801219304023
      ],
      [
        "कल्याण",
        -9.139536476301252
      ],
      [
        "access",
        -9.14255625480179
      ],
      [
        "वजह",
        -9.142979925732512
      ],
      [
        "लगातार",
        -9.143512186655851
      ],
      [
        "2019",
        -9.144253117062643
      ],
      [
        "live",
        -9.144654450860688
      ],
      [
        "हाल",
        -9.145594505195621
      ],
      [
        "सरणी",
        -9.146209177331118
      ],
      [
        "पैदा",
        -9.146222416859588
      ],
      [
        "कहते",
        -9.146241884335451
      ],
      [
        "डॉ",
        -9.148666590720325
      ],
      [
        "यही",
        -9.149053596632228
      ],
      [
        "इसकी",
        -9.1506581962242
      ],
      [
        "having",
        -9.154227438922835
      ],
      [
        "why",
        -9.15625127865182
      ],
      [
        "मौत",
        -9.156261125275401
      ],
      [
        "लाभ",
        -9.15843764783054
      ],
      [
        "व्यवस्था",
        -9.15856464512044
      ],
      [
        "खोज",
        -9.159290420322773
      ],
      [
        "पूरे",
        -9.15977018138041
      ],
      [
        "घंटे",
        -9.16069780990484
      ],
      [
        "पाकिस्तान",
        -9.165049135273016
      ],
      [
        "call",
        -9.165471782710155
      ],
      [
        "self",
        -9.165694152485557
      ],
      [
        "करेंगे",
        -9.166382750405777
      ],
      [
        "low",
        -9.167758453300644
      ],
      [
        "read",
        -9.168691959482654
      ],
      [
        "समाज",
        -9.16896618151378
      ],
      [
        "जाए",
        -9.169241879011093
      ],
      [
        "community",
        -9.170934334870251
      ],
      [
        "आरोप",
        -9.172416574801577
      ],
      [
        "include",
        -9.173430283153648
      ],
      [
        "research",
        -9.17383936155796
      ],
      [
        "प्रभावित",
        -9.174181474506529
      ],
      [
        "मिनट",
        -9.17489632090406
      ],
      [
        "share",
        -9.175161619491432
      ],
      [
        "पाठ",
        -9.178770442306513
      ],
      [
        "against",
        -9.180322564508034
      ],
      [
        "try",
        -9.181042293445639
      ],
      [
        "हजार",
        -9.181315776537652
      ],
      [
        "cost",
        -9.182371577062442
      ],
      [
        "मौजूद",
        -9.185496119320423
      ],
      [
        "जान",
        -9.187477700846422
      ],
      [
        "वहां",
        -9.18793066417402
      ],
      [
        "product",
        -9.188796693360633
      ],
      [
        "आर",
        -9.190479994242146
      ],
      [
        "thing",
        -9.191029692462418
      ],
      [
        "short",
        -9.192661845567681
      ],
      [
        "रह",
        -9.19305382944752
      ],
      [
        "अंतिम",
        -9.194134879149404
      ],
      [
        "form",
        -9.194960252508489
      ],
      [
        "kind",
        -9.197231424853493
      ],
      [
        "सहित",
        -9.20162343527454
      ],
      [
        "price",
        -9.201633904634923
      ],
      [
        "कहना",
        -9.201908194485373
      ],
      [
        "contact",
        -9.202872980127486
      ],
      [
        "run",
        -9.202963969192279
      ],
      [
        "तुम",
        -9.211144290474246
      ],
      [
        "space",
        -9.214021102043793
      ],
      [
        "जउन",
        -9.215246304546383
      ],
      [
        "संभावना",
        -9.21541493541001
      ],
      [
        "big",
        -9.215757344796845
      ],
      [
        "पीछे",
        -9.218123591030635
      ],
      [
        "लाइन",
        -9.218415805294084
      ],
      [
        "नही",
        -9.220194018139562
      ],
      [
        "After",
        -9.220698178482959
      ],
      [
        "अमेरिका",
        -9.221865088740673
      ],
      [
        "God",
        -9.222226149779729
      ],
      [
        "head",
        -9.222961441500921
      ],
      [
        "जिसे",
        -9.22374712338467
      ],
      [
        "comes",
        -9.223865305196142
      ],
      [
        "बनाए",
        -9.224381706646861
      ],
      [
        "]",
        -9.22524244051382
      ],
      [
        "done",
        -9.225625524511221
      ],
      [
        "एं",
        -9.227677357000639
      ],
      [
        "प्रयास",
        -9.227908489405076
      ],
      [
        "काल",
        -9.228301032524644
      ],
      [
        "non",
        -9.229186696094969
      ],
      [
        "बच्चों",
        -9.229341794462549
      ],
      [
        "23",
        -9.230357956320022
      ],
      [
        "शुरुआत",
        -9.23062293004287
      ],
      [
        "event",
        -9.230817456639114
      ],
      [
        "development",
        -9.231046016595363
      ],
      [
        "िहिन",
        -9.231180862393611
      ],
      [
        "नंबर",
        -9.233858097990257
      ],
      [
        "means",
        -9.234075806487807
      ],
      [
        "नया",
        -9.234220578368259
      ],
      [
        "सामग्री",
        -9.235062108941177
      ],
      [
        "left",
        -9.236233859804782
      ],
      [
        "भाव",
        -9.236858245063594
      ],
      [
        "Do",
        -9.237364968774076
      ],
      [
        "गी",
        -9.238172104244004
      ],
      [
        "स्थापित",
        -9.238576964711713
      ],
      [
        "सुधार",
        -9.238917474353793
      ],
      [
        "बजे",
        -9.23932776736431
      ],
      [
        "However",
        -9.23968084919022
      ],
      [
        "स्पष्ट",
        -9.239941122369048
      ],
      [
        "कार्रवाई",
        -9.24158171090782
      ],
      [
        "personal",
        -9.243467190013622
      ],
      [
        "social",
        -9.243587134577265
      ],
      [
        "अतिरिक्त",
        -9.245509719227265
      ],
      [
        "वन",
        -9.24556413854673
      ],
      [
        "क्यों",
        -9.245790767306657
      ],
      [
        "उसी",
        -9.245981987575924
      ],
      [
        "job",
        -9.24690682129777
      ],
      [
        "प्रधानमंत्री",
        -9.248682090996052
      ],
      [
        "उत्पाद",
        -9.24886357938874
      ],
      [
        "शो",
        -9.249134394241008
      ],
      [
        "चर्चा",
        -9.25024225147928
      ],
      [
        "बेहतर",
        -9.250363704948112
      ],
      [
        "मैंने",
        -9.252911071835046
      ],
      [
        "2017",
        -9.253823264158282
      ],
      [
        "सूचना",
        -9.254263641457065
      ],
      [
        "University",
        -9.255766236245577
      ],
      [
        "छोड़",
        -9.256204477712835
      ],
      [
        "मामला",
        -9.257635191835766
      ],
      [
        "शादी",
        -9.258476122369592
      ],
      [
        "करब",
        -9.261815615020003
      ],
      [
        "राजा",
        -9.262282185142206
      ],
      [
        "bit",
        -9.262362588649484
      ],
      [
        "लेख",
        -9.265989081810467
      ],
      [
        "समीकरण",
        -9.266147801521528
      ],
      [
        "range",
        -9.26714297404931
      ],
      [
        "enough",
        -9.267284125236957
      ],
      [
        "सोशल",
        -9.26767063748748
      ],
      [
        "air",
        -9.268299453708213
      ],
      [
        "देव",
        -9.268852512357519
      ],
      [
        "महीने",
        -9.269464615823772
      ],
      [
        "जोड़",
        -9.273047576866182
      ],
      [
        "country",
        -9.273441762039628
      ],
      [
        "मंत्रालय",
        -9.273636095692563
      ],
      [
        "बैंक",
        -9.273739570862025
      ],
      [
        "several",
        -9.276565356345372
      ],
      [
        "बल्कि",
        -9.277204500778934
      ],
      [
        "पोस्ट",
        -9.278590820575145
      ],
      [
        "specific",
        -9.280222522521498
      ],
      [
        "भीतर",
        -9.280396338643008
      ],
      [
        "चाहते",
        -9.281227328005984
      ],
      [
        "plan",
        -9.281707318861203
      ],
      [
        "across",
        -9.2820061205582
      ],
      [
        "करेगा",
        -9.283212148638821
      ],
      [
        "अच्छी",
        -9.28323227973696
      ],
      [
        "An",
        -9.283488300135472
      ],
      [
        "शक्ति",
        -9.284584124942214
      ],
      [
        "already",
        -9.284626822046098
      ],
      [
        "चाही",
        -9.284806972191669
      ],
      [
        "getting",
        -9.287366685427575
      ],
      [
        "फोन",
        -9.287385702844935
      ],
      [
        "सदस्य",
        -9.287618805061715
      ],
      [
        "वस्तु",
        -9.288391674937865
      ],
      [
        "बा",
        -9.28947284869032
      ],
      [
        "visit",
        -9.289713320996645
      ],
      [
        "प्रतिशत",
        -9.290334382805634
      ],
      [
        "city",
        -9.291291193079353
      ],
      [
        "+",
        -9.292647195142852
      ],
      [
        "वै",
        -9.29306875756735
      ],
      [
        "बयान",
        -9.293341955829275
      ],
      [
        "पालन",
        -9.295105212190675
      ],
      [
        "add",
        -9.295146709811196
      ],
      [
        "मुताबिक",
        -9.295958564519347
      ],
      [
        "तर्क",
        -9.296200589694694
      ],
      [
        "makes",
        -9.296802856047613
      ],
      [
        "देखने",
        -9.29914844597292
      ],
      [
        "कीमत",
        -9.29915344848389
      ],
      [
        "प्रश्न",
        -9.299690946423453
      ],
      [
        "बनाया",
        -9.300609883020515
      ],
      [
        "far",
        -9.300927999160347
      ],
      [
        "उत्पन्न",
        -9.302627791375878
      ],
      [
        "ness",
        -9.303819718796767
      ],
      [
        "आदेश",
        -9.304336704516755
      ],
      [
        "00",
        -9.304561950496879
      ],
      [
        "नीति",
        -9.304743304968104
      ],
      [
        "राशि",
        -9.30786308688542
      ],
      [
        "भाई",
        -9.307971445906444
      ],
      [
        "control",
        -9.308225572080216
      ],
      [
        "बल",
        -9.310427143220467
      ],
      [
        "जाएगी",
        -9.310521414544521
      ],
      [
        "करे",
        -9.310677017745673
      ],
      [
        "check",
        -9.310924253835969
      ],
      [
        "शन",
        -9.311228392888202
      ],
      [
        "थीं",
        -9.31124359456261
      ],
      [
        "called",
        -9.311515619433258
      ],
      [
        "सिर्फ",
        -9.313115462868124
      ],
      [
        "main",
        -9.313298767078617
      ],
      [
        "pay",
        -9.313847205575197
      ],
      [
        "bring",
        -9.31398868787111
      ],
      [
        "future",
        -9.315537629128135
      ],
      [
        "हिस्सा",
        -9.316378629569893
      ],
      [
        "अस्पताल",
        -9.317127787234451
      ],
      [
        "चाहत",
        -9.318795666828883
      ],
      [
        ",”",
        -9.319981702919074
      ],
      [
        "believe",
        -9.321259745264886
      ],
      [
        "million",
        -9.322929584533762
      ],
      [
        "26",
        -9.324001146892485
      ],
      [
        "संयुक्त",
        -9.324431946824719
      ],
      [
        "night",
        -9.325928343061682
      ],
      [
        "below",
        -9.326538536240523
      ],
      [
        "आपकी",
        -9.328455103751656
      ],
      [
        "उपलब्ध",
        -9.328733929002292
      ],
      [
        "field",
        -9.329308819777621
      ],
      [
        "गो",
        -9.330065680058254
      ],
      [
        "Your",
        -9.330399430758675
      ],
      [
        "जन्म",
        -9.3311722933137
      ],
      [
        "पायथन",
        -9.33179951089879
      ],
      [
        "सुबह",
        -9.332367315568815
      ],
      [
        "रखने",
        -9.334474908811131
      ],
      [
        "others",
        -9.334902430818119
      ],
      [
        "wide",
        -9.335660222772004
      ],
      [
        "four",
        -9.338478222980719
      ],
      [
        "चुके",
        -9.341375803240796
      ],
      [
        "टेस्ट",
        -9.341399163277922
      ],
      [
        "यू",
        -9.342881892916163
      ],
      [
        "past",
        -9.343485956966969
      ],
      [
        "आकार",
        -9.34464191270465
      ],
      [
        "पसंद",
        -9.345437669895658
      ],
      [
        "हमका",
        -9.345721403714855
      ],
      [
        "2014",
        -9.348563605444832
      ],
      [
        "example",
        -9.348570907059548
      ],
      [
        "perfect",
        -9.349490914638157
      ],
      [
        "मार्ग",
        -9.35064433262801
      ],
      [
        "type",
        -9.350994957259632
      ],
      [
        "value",
        -9.351385297199503
      ],
      [
        "होकर",
        -9.351842966594804
      ],
      [
        "गति",
        -9.35217742945442
      ],
      [
        "Z",
        -9.353071376412474
      ],
      [
        "अनुवाद",
        -9.35454401208897
      ],
      [
        "learn",
        -9.355132366798875
      ],
      [
        "पति",
        -9.355814908793057
      ],
      [
        "doing",
        -9.356757157280928
      ],
      [
        "विश्लेषण",
        -9.35776612650818
      ],
      [
        "Re",
        -9.3593274542526
      ],
      [
        "युद्ध",
        -9.359379554539395
      ],
      [
        "special",
        -9.360335323030533
      ],
      [
        "pre",
        -9.361441191305527
      ],
      [
        "once",
        -9.361915781372181
      ],
      [
        "industry",
        -9.362086045047757
      ],
      [
        "होंगे",
        -9.362510845662818
      ],
      [
        "जरूरी",
        -9.364683542025993
      ],
      [
        "क्षमता",
        -9.365835019824834
      ],
      [
        "professional",
        -9.366929868825753
      ],
      [
        "कोर्ट",
        -9.367732074063694
      ],
      [
        "सरकारी",
        -9.367880289676492
      ],
      [
        "ग्राम",
        -9.369221409703666
      ],
      [
        "though",
        -9.370900562979022
      ],
      [
        "ति",
        -9.373552747252223
      ],
      [
        "art",
        -9.374589843128042
      ],
      [
        "offers",
        -9.374854231496167
      ],
      [
        "focus",
        -9.375233389211717
      ],
      [
        "तरीका",
        -9.375264776081153
      ],
      [
        "अंदर",
        -9.375409933103047
      ],
      [
        "जइसे",
        -9.375572299292928
      ],
      [
        "content",
        -9.375893383496605
      ],
      [
        "US",
        -9.376426561508927
      ],
      [
        "season",
        -9.376817083188879
      ],
      [
        "least",
        -9.376899616865403
      ],
      [
        "2016",
        -9.377304231384603
      ],
      [
        "technology",
        -9.378143416177748
      ],
      [
        "z",
        -9.37884755290509
      ],
      [
        "अनुमति",
        -9.3788526042374
      ],
      [
        "hours",
        -9.379486397922635
      ],
      [
        "गयी",
        -9.379911644605532
      ],
      [
        "known",
        -9.380706485935448
      ],
      [
        "general",
        -9.380802102268083
      ],
      [
        "companies",
        -9.382283462499439
      ],
      [
        "video",
        -9.383397782223838
      ],
      [
        "building",
        -9.383578084606782
      ],
      [
        "ियां",
        -9.383942821081968
      ],
      [
        "आर्थिक",
        -9.384875513529614
      ],
      [
        "परीक्षा",
        -9.385408460477661
      ],
      [
        "सेना",
        -9.385666224812944
      ],
      [
        "फल",
        -9.386743411248991
      ],
      [
        "निर्देश",
        -9.386770008112581
      ],
      [
        "story",
        -9.387452890258784
      ],
      [
        "follow",
        -9.387856469487273
      ],
      [
        "ability",
        -9.388038192517081
      ],
      [
        "६",
        -9.3889770153188
      ],
      [
        "लो",
        -9.388978257462556
      ],
      [
        "study",
        -9.389435575470241
      ],
      [
        "allow",
        -9.390709278227495
      ],
      [
        "simple",
        -9.391256616060144
      ],
      [
        "practice",
        -9.392155967328078
      ],
      [
        "फंक्शन",
        -9.392275251029982
      ],
      [
        "खास",
        -9.392925233921877
      ],
      [
        "current",
        -9.393063162848826
      ],
      [
        "land",
        -9.393615306947195
      ],
      [
        "मध्य",
        -9.393664837115049
      ],
      [
        "मूल्य",
        -9.395329086680595
      ],
      [
        "started",
        -9.397175428500839
      ],
      [
        "लग",
        -9.398457860444662
      ],
      [
        "उत्पादन",
        -9.399502862140906
      ],
      [
        "key",
        -9.39961049057281
      ],
      [
        "taking",
        -9.40193747377359
      ],
      [
        "members",
        -9.40222502594357
      ],
      [
        "beautiful",
        -9.402699352933803
      ],
      [
        "शर्मा",
        -9.402925712096891
      ],
      [
        "music",
        -9.403028440356584
      ],
      [
        "हासिल",
        -9.403611163766069
      ],
      [
        "fact",
        -9.404028554349527
      ],
      [
        "संरचना",
        -9.404357273720246
      ],
      [
        "media",
        -9.404752744160946
      ],
      [
        "coming",
        -9.404873951045927
      ],
      [
        "understand",
        -9.404984180727228
      ],
      [
        "भूमिका",
        -9.405146466266327
      ],
      [
        "due",
        -9.405213407892512
      ],
      [
        "actually",
        -9.40529890562504
      ],
      [
        "please",
        -9.409535048700333
      ],
      [
        "#",
        -9.410116003717485
      ],
      [
        "कमी",
        -9.410682865789099
      ],
      [
        "stay",
        -9.41074383152249
      ],
      [
        "नामक",
        -9.411804304498434
      ],
      [
        "close",
        -9.412724291349019
      ],
      [
        "law",
        -9.413538454895402
      ],
      [
        "complete",
        -9.41363084454963
      ],
      [
        "छात्र",
        -9.414047572673041
      ],
      [
        "problem",
        -9.414771610256096
      ],
      [
        "क्रम",
        -9.414820471076574
      ],
      [
        "Be",
        -9.415442053133761
      ],
      [
        "छोटे",
        -9.417975923192795
      ],
      [
        "men",
        -9.418201430831797
      ],
      [
        "दूसर",
        -9.418893869499254
      ],
      [
        "तू",
        -9.421301827293409
      ],
      [
        "amount",
        -9.422955322119378
      ],
      [
        "जिन",
        -9.423122443159057
      ],
      [
        "बच्चे",
        -9.423396447079757
      ],
      [
        "features",
        -9.423782795458427
      ],
      [
        "मु",
        -9.424334043385047
      ],
      [
        "सामाजिक",
        -9.424477035600038
      ],
      [
        "पड़ा",
        -9.424919333254243
      ],
      [
        "याद",
        -9.42492739068128
      ],
      [
        "यादव",
        -9.426229853844161
      ],
      [
        "प्रिंट",
        -9.426793372407438
      ],
      [
        "specially",
        -9.426983025678904
      ],
      [
        "above",
        -9.428225289082489
      ],
      [
        "उद्देश्य",
        -9.42836416556264
      ],
      [
        "ensure",
        -9.428590832894066
      ],
      [
        "्",
        -9.428688489695165
      ],
      [
        "size",
        -9.4287612872775
      ],
      [
        "गैर",
        -9.42925078281097
      ],
      [
        "28",
        -9.429423443429437
      ],
      [
        "धन",
        -9.4294397316034
      ],
      [
        "minutes",
        -9.429650937882327
      ],
      [
        "didn",
        -9.430678350057317
      ],
      [
        "समीक्षा",
        -9.431484189928756
      ],
      [
        "देखते",
        -9.431518141219499
      ],
      [
        "हमेशा",
        -9.432378401357997
      ],
      [
        "हाँ",
        -9.432429543414933
      ],
      [
        "उपयोगकर्ता",
        -9.433125980705295
      ],
      [
        "ic",
        -9.433463003813907
      ],
      [
        "*",
        -9.43351486738475
      ],
      [
        "दिखाई",
        -9.43387743461611
      ],
      [
        "front",
        -9.435131322077332
      ],
      [
        "fun",
        -9.4357644300148
      ],
      [
        "customers",
        -9.436129935930984
      ],
      [
        "गलत",
        -9.43724510254171
      ],
      [
        "early",
        -9.437265267203829
      ],
      [
        "mind",
        -9.437579713905695
      ],
      [
        "issue",
        -9.4388294238416
      ],
      [
        "लक्ष्य",
        -9.439937730458853
      ],
      [
        "फैसला",
        -9.440145149277077
      ],
      [
        "doesn",
        -9.440685128471365
      ],
      [
        "समर्थन",
        -9.441547232535562
      ],
      [
        "training",
        -9.441755163916966
      ],
      [
        "िया",
        -9.44347443604177
      ],
      [
        "१०",
        -9.4436113395134
      ],
      [
        "results",
        -9.444403852405118
      ],
      [
        "500",
        -9.444621732501322
      ],
      [
        "given",
        -9.445195592901705
      ],
      [
        "भावना",
        -9.445829636899159
      ],
      [
        "किस",
        -9.446480719921778
      ],
      [
        "आउटपुट",
        -9.446645073138306
      ],
      [
        "मां",
        -9.44696901762232
      ],
      [
        "वही",
        -9.447133667400692
      ],
      [
        "th",
        -9.447864681545465
      ],
      [
        "देना",
        -9.448169363482194
      ],
      [
        "le",
        -9.449846457387668
      ],
      [
        "interest",
        -9.450552111615343
      ],
      [
        "American",
        -9.451369025753717
      ],
      [
        "कहानी",
        -9.452281169903646
      ],
      [
        "either",
        -9.452614267059237
      ],
      [
        "चीन",
        -9.452778512316224
      ],
      [
        "दीन",
        -9.453876505098401
      ],
      [
        "लगता",
        -9.454462887623981
      ],
      [
        "महा",
        -9.454856212905746
      ],
      [
        "फाइल",
        -9.456014840366509
      ],
      [
        "पत्नी",
        -9.456246201527701
      ],
      [
        "म्",
        -9.457725616459626
      ],
      [
        "भूमि",
        -9.458051697804839
      ],
      [
        "location",
        -9.45807381669602
      ],
      [
        "continue",
        -9.460966884483136
      ],
      [
        "चुका",
        -9.461063185210422
      ],
      [
        "buy",
        -9.461531350081327
      ],
      [
        "everything",
        -9.462553164046964
      ],
      [
        "near",
        -9.462999056021035
      ],
      [
        "स्",
        -9.463487312729157
      ],
      [
        "2015",
        -9.465556378030838
      ],
      [
        "single",
        -9.46585821644587
      ],
      [
        "ation",
        -9.466139750917023
      ],
      [
        "won",
        -9.466681699202898
      ],
      [
        "27",
        -9.467366140322495
      ],
      [
        "yet",
        -9.467759266348697
      ],
      [
        "report",
        -9.467823916613302
      ],
      [
        "Now",
        -9.46845544136279
      ],
      [
        "रहते",
        -9.470201221165906
      ],
      [
        "मंदिर",
        -9.470411654693866
      ],
      [
        "hope",
        -9.473014763125184
      ],
      [
        "प्रतिनिधित्व",
        -9.473190330272885
      ],
      [
        "view",
        -9.473981647819754
      ],
      [
        "class",
        -9.474073585599063
      ],
      [
        "month",
        -9.47421475099635
      ],
      [
        "विधानसभा",
        -9.475484015337774
      ],
      [
        "management",
        -9.475665522347706
      ],
      [
        "मात्रा",
        -9.475841828110138
      ],
      [
        "लोक",
        -9.475862777374607
      ],
      [
        "ar",
        -9.476175391209512
      ],
      [
        "news",
        -9.476351574412687
      ],
      [
        "जिसका",
        -9.47697025640119
      ],
      [
        "अधिकार",
        -9.477067333327303
      ],
      [
        "result",
        -9.477357393825846
      ],
      [
        "तेज",
        -9.478543119942902
      ],
      [
        "लें",
        -9.478706057126622
      ],
      [
        "months",
        -9.479549361592714
      ],
      [
        "half",
        -9.479889028122235
      ],
      [
        "major",
        -9.48004319320458
      ],
      [
        "मेरी",
        -9.480467147189792
      ],
      [
        "पेश",
        -9.480893971438082
      ],
      [
        "board",
        -9.482236461951723
      ],
      [
        "सिस्टम",
        -9.484436415177658
      ],
      [
        "questions",
        -9.48586532456264
      ],
      [
        "रहता",
        -9.485941431468898
      ],
      [
        "200",
        -9.488021511724334
      ],
      [
        "सामना",
        -9.488889945107063
      ],
      [
        "खबर",
        -9.48898210791744
      ],
      [
        "came",
        -9.489747079766412
      ],
      [
        "इतना",
        -9.48998809791733
      ],
      [
        "इतिहास",
        -9.4902774516654
      ],
      [
        "35",
        -9.49044009327872
      ],
      [
        "प्रकाश",
        -9.491072680666504
      ],
      [
        "90",
        -9.491163627955991
      ],
      [
        "government",
        -9.491864484293085
      ],
      [
        "भा",
        -9.493861459493921
      ],
      [
        "संभावित",
        -9.494651557244712
      ],
      [
        "तालिका",
        -9.494964430889896
      ],
      [
        "बनावै",
        -9.495281402754436
      ],
      [
        "प्रयोग",
        -9.496097954453903
      ],
      [
        "style",
        -9.496602423433465
      ],
      [
        "various",
        -9.496925661606651
      ],
      [
        "बाजार",
        -9.497733848789139
      ],
      [
        "कदम",
        -9.499720356796564
      ],
      [
        "present",
        -9.500974431057058
      ],
      [
        "उम्र",
        -9.501212896067829
      ],
      [
        "property",
        -9.501424008644785
      ],
      [
        "अधिकारियों",
        -9.501442107608773
      ],
      [
        "रुपए",
        -9.50194449751489
      ],
      [
        "issues",
        -9.50266423445471
      ],
      [
        "provides",
        -9.503398157330599
      ],
      [
        "Please",
        -9.503433730752622
      ],
      [
        "29",
        -9.50530943880878
      ],
      [
        "ion",
        -9.508008029716587
      ],
      [
        "strong",
        -9.509972632210543
      ],
      [
        "whether",
        -9.510003771721776
      ],
      [
        "friends",
        -9.510174737298293
      ],
      [
        "email",
        -9.51109076396458
      ],
      [
        "हा",
        -9.512263323556237
      ],
      [
        "परीक्षण",
        -9.512809379798178
      ],
      [
        "32",
        -9.513343643814723
      ],
      [
        "consider",
        -9.513517606091117
      ],
      [
        "took",
        -9.51388349749607
      ],
      [
        "बोर्ड",
        -9.514916492075173
      ],
      [
        "गांधी",
        -9.515054346562735
      ],
      [
        "whole",
        -9.515309294062254
      ],
      [
        "भोजन",
        -9.516212454124297
      ],
      [
        "common",
        -9.51644106544
      ],
      [
        "performance",
        -9.51825147909437
      ],
      [
        "Some",
        -9.518894837119404
      ],
      [
        "मजबूत",
        -9.519914406944133
      ],
      [
        "संभव",
        -9.52051901139373
      ],
      [
        "पहला",
        -9.520594425927237
      ],
      [
        "card",
        -9.520921028187947
      ],
      [
        "लगाया",
        -9.521032253226466
      ],
      [
        "ऊर्जा",
        -9.521903640621623
      ],
      [
        "सड़क",
        -9.522505990199681
      ],
      [
        "अंतर",
        -9.523377342904645
      ],
      [
        "St",
        -9.52360651056912
      ],
      [
        "चुकी",
        -9.523866762968177
      ],
      [
        "साफ",
        -9.524985619123626
      ],
      [
        "red",
        -9.525334336464702
      ],
      [
        "increase",
        -9.52534498706803
      ],
      [
        "required",
        -9.526279321774334
      ],
      [
        "एल",
        -9.526379733569055
      ],
      [
        "following",
        -9.526896395428636
      ],
      [
        "31",
        -9.527174844320692
      ],
      [
        "अगले",
        -9.528631526233713
      ],
      [
        "addition",
        -9.529096414379959
      ],
      [
        "दूसरा",
        -9.529730649812798
      ],
      [
        "ally",
        -9.529738707560751
      ],
      [
        "स्थानीय",
        -9.530042937899372
      ],
      [
        "हटा",
        -9.530282332280626
      ],
      [
        "गुण",
        -9.530656021951735
      ],
      [
        "While",
        -9.531813189663644
      ],
      [
        "unique",
        -9.531938361349948
      ],
      [
        "energy",
        -9.53214584355102
      ],
      [
        "मनुष्य",
        -9.533174231146594
      ],
      [
        "पड़",
        -9.533706214374106
      ],
      [
        "विज्ञान",
        -9.533879406326184
      ],
      [
        "ध",
        -9.53453202389344
      ],
      [
        "went",
        -9.53515629490005
      ],
      [
        "तार",
        -9.535331055545933
      ],
      [
        "writing",
        -9.535409023306183
      ],
      [
        "idea",
        -9.536198699026174
      ],
      [
        "j",
        -9.536765104859949
      ],
      [
        "thought",
        -9.538131794292722
      ],
      [
        "बदलाव",
        -9.53814507266033
      ],
      [
        "इंडिया",
        -9.539436210289669
      ],
      [
        "कहीं",
        -9.540793037968948
      ],
      [
        "मौके",
        -9.541185639911182
      ],
      [
        "खिलाड़ी",
        -9.541215817969878
      ],
      [
        "पक्ष",
        -9.541519939795066
      ],
      [
        "संकेत",
        -9.542335922670354
      ],
      [
        "बिहार",
        -9.543546904895132
      ],
      [
        "कु",
        -9.543647126774669
      ],
      [
        "works",
        -9.543912721807452
      ],
      [
        "ु",
        -9.544155884269243
      ],
      [
        "त्रुटि",
        -9.545935268321134
      ],
      [
        "says",
        -9.547112047986825
      ],
      [
        "वृद्धि",
        -9.547282288291605
      ],
      [
        "ways",
        -9.547431789210663
      ],
      [
        "phone",
        -9.547518418770808
      ],
      [
        "designed",
        -9.548321761800352
      ],
      [
        "living",
        -9.548926753540087
      ],
      [
        "download",
        -9.549606399597357
      ],
      [
        "staff",
        -9.54961457455664
      ],
      [
        "rate",
        -9.551195379570878
      ],
      [
        "देशों",
        -9.552782784079893
      ],
      [
        "सार्वजनिक",
        -9.55573258209263
      ],
      [
        "India",
        -9.55687371382473
      ],
      [
        "seen",
        -9.557618317012395
      ],
      [
        "turn",
        -9.55845434863801
      ],
      [
        "यानी",
        -9.558491699785348
      ],
      [
        "five",
        -9.560503986187175
      ],
      [
        "further",
        -9.560790299790222
      ],
      [
        "choose",
        -9.561626169936533
      ],
      [
        "later",
        -9.563065278141451
      ],
      [
        "़",
        -9.563792526389005
      ],
      [
        "विरोध",
        -9.56386961413952
      ],
      [
        "मानव",
        -9.564054950214326
      ],
      [
        "जीव",
        -9.564244991884097
      ],
      [
        "ago",
        -9.564460883405697
      ],
      [
        "original",
        -9.565136984771309
      ],
      [
        "etc",
        -9.566625789975674
      ],
      [
        "प्रणाली",
        -9.566763236659568
      ],
      [
        "web",
        -9.567584764853626
      ],
      [
        "related",
        -9.569763029669135
      ],
      [
        "केंद्रीय",
        -9.569789005200292
      ],
      [
        "white",
        -9.57019545876631
      ],
      [
        "माता",
        -9.571062750624904
      ],
      [
        "तः",
        -9.57154710656762
      ],
      [
        "45",
        -9.571780151013806
      ],
      [
        "=",
        -9.572903791608555
      ],
      [
        "तापमान",
        -9.574444523019753
      ],
      [
        "क्रिकेट",
        -9.574658113413731
      ],
      [
        "child",
        -9.575374806415134
      ],
      [
        "व्यवहार",
        -9.575509633404202
      ],
      [
        "भारी",
        -9.575516374246467
      ],
      [
        "among",
        -9.575793902700044
      ],
      [
        "someone",
        -9.57590054684417
      ],
      [
        "विकसित",
        -9.577199985573627
      ],
      [
        "test",
        -9.577227335781254
      ],
      [
        "young",
        -9.57761863913906
      ],
      [
        "term",
        -9.57809209415336
      ],
      [
        "संदेश",
        -9.580163062655323
      ],
      [
        "office",
        -9.580402251085465
      ],
      [
        "लगी",
        -9.582101360410144
      ],
      [
        "मोर",
        -9.58213070824583
      ],
      [
        "अमेरिकी",
        -9.58243846795529
      ],
      [
        "उचित",
        -9.584249995861333
      ],
      [
        "दक्षिण",
        -9.584594492614562
      ],
      [
        "अंग्रेजी",
        -9.585160899780938
      ],
      [
        "ज़",
        -9.585494245565688
      ],
      [
        "customer",
        -9.586481371398042
      ],
      [
        "heart",
        -9.587071333968652
      ],
      [
        "८",
        -9.58798115724592
      ],
      [
        "डे",
        -9.587997571209751
      ],
      [
        "संघ",
        -9.588167233885594
      ],
      [
        "धीरे",
        -9.59057588941779
      ],
      [
        "मार",
        -9.591470237037605
      ],
      [
        "account",
        -9.59151336044631
      ],
      [
        "United",
        -9.591515197486347
      ],
      [
        "रक्षा",
        -9.591715309024616
      ],
      [
        "प्रेम",
        -9.59215820742806
      ],
      [
        "oil",
        -9.592644160484099
      ],
      [
        "May",
        -9.593305491151977
      ],
      [
        "शेयर",
        -9.593830118268192
      ],
      [
        "महिलाओं",
        -9.59491180807257
      ],
      [
        "search",
        -9.595090232322523
      ],
      [
        "मार्च",
        -9.595497185275995
      ],
      [
        "quite",
        -9.595819540057844
      ],
      [
        "मेरा",
        -9.596355094722105
      ],
      [
        "मिलने",
        -9.596462850970768
      ],
      [
        "हार",
        -9.596861965196773
      ],
      [
        "Dr",
        -9.597545955658632
      ],
      [
        "potential",
        -9.598260768134793
      ],
      [
        "series",
        -9.598882831522731
      ],
      [
        "women",
        -9.59890307300531
      ],
      [
        "अक्सर",
        -9.599723205072612
      ],
      [
        "needed",
        -9.600635244446694
      ],
      [
        "बीजेपी",
        -9.600688690300409
      ],
      [
        "गिरफ्तार",
        -9.60073596132744
      ],
      [
        "areas",
        -9.600848378559023
      ],
      [
        "By",
        -9.60119639614666
      ],
      [
        "लंबाई",
        -9.601741312071512
      ],
      [
        "वीं",
        -9.60234268845995
      ],
      [
        "वर्णन",
        -9.603710303330596
      ],
      [
        "बातचीत",
        -9.60373750907838
      ],
      [
        "natural",
        -9.604582255400524
      ],
      [
        "cause",
        -9.604621738350021
      ],
      [
        "बने",
        -9.606208854269468
      ],
      [
        "एफ",
        -9.607766250078996
      ],
      [
        "history",
        -9.607962239571297
      ],
      [
        "_",
        -9.607986894178643
      ],
      [
        "अध्ययन",
        -9.608084975112147
      ],
      [
        "हमारी",
        -9.60849370060596
      ],
      [
        "चयन",
        -9.608564575310979
      ],
      [
        "आदमी",
        -9.609052565115116
      ],
      [
        "City",
        -9.609132215982159
      ],
      [
        "period",
        -9.610068447249404
      ],
      [
        "सजा",
        -9.610852180415467
      ],
      [
        "उम्मीद",
        -9.61105319282196
      ],
      [
        "चलते",
        -9.611193070073538
      ],
      [
        "मुंबई",
        -9.611255965765395
      ],
      [
        "सिर",
        -9.611890985772611
      ],
      [
        "हत्या",
        -9.612712507837742
      ],
      [
        "बढ़ा",
        -9.61275381590293
      ],
      [
        "provided",
        -9.61328085825024
      ],
      [
        "मौसम",
        -9.613375702891272
      ],
      [
        "clear",
        -9.613537479508945
      ],
      [
        "face",
        -9.613908178446245
      ],
      [
        "financial",
        -9.614231826384714
      ],
      [
        "human",
        -9.61448403745957
      ],
      [
        "entire",
        -9.614539011471708
      ],
      [
        "वें",
        -9.614557430085071
      ],
      [
        "individual",
        -9.614903603635979
      ],
      [
        "receive",
        -9.617145284969132
      ],
      [
        "date",
        -9.61991051396002
      ],
      [
        "उठा",
        -9.619928257848143
      ],
      [
        "कानून",
        -9.619955467598123
      ],
      [
        "World",
        -9.619980197458444
      ],
      [
        "राष्ट्रपति",
        -9.6202331004991
      ],
      [
        "अधिकतम",
        -9.62035113061121
      ],
      [
        "80",
        -9.621993833320989
      ],
      [
        "मिलता",
        -9.62240323985444
      ],
      [
        "अवसर",
        -9.623395801900228
      ],
      [
        "simply",
        -9.62410388831579
      ],
      [
        "देर",
        -9.626576659707837
      ],
      [
        "वेबसाइट",
        -9.627749833846593
      ],
      [
        "लगाने",
        -9.628011187843027
      ],
      [
        "आयात",
        -9.628526506566324
      ],
      [
        "70",
        -9.628818609805762
      ],
      [
        "software",
        -9.629265717036013
      ],
      [
        "अप",
        -9.629305067731522
      ],
      [
        "move",
        -9.630153846968003
      ],
      [
        "table",
        -9.630345125988105
      ],
      [
        "उससे",
        -9.631691496746065
      ],
      [
        "options",
        -9.63236897416409
      ],
      [
        "ियन",
        -9.632594373022728
      ],
      [
        "निश्चित",
        -9.633661745175566
      ],
      [
        "विवरण",
        -9.633740545740531
      ],
      [
        "कार्ड",
        -9.635312755278568
      ],
      [
        "तेजी",
        -9.636281438580056
      ],
      [
        "परिवर्तन",
        -9.636558572696645
      ],
      [
        "सहायता",
        -9.636701066523004
      ],
      [
        "थाना",
        -9.637771453761529
      ],
      [
        "click",
        -9.637942590323547
      ],
      [
        "सात",
        -9.638336815529533
      ],
      [
        "किये",
        -9.63919349680194
      ],
      [
        "व्यापक",
        -9.63942195306953
      ],
      [
        "yourself",
        -9.639709483373007
      ],
      [
        "2022",
        -9.639989172634573
      ],
      [
        "प्रवेश",
        -9.640188407919588
      ],
      [
        "includes",
        -9.640219761627128
      ],
      [
        "Q",
        -9.640668515628098
      ],
      [
        "third",
        -9.64182043042921
      ],
      [
        "बाल",
        -9.641831455613884
      ],
      [
        "डॉलर",
        -9.642129631215719
      ],
      [
        "75",
        -9.643105280365114
      ],
      [
        "जल्द",
        -9.644536453479267
      ],
      [
        "Here",
        -9.644701750637639
      ],
      [
        "दल",
        -9.645456042958235
      ],
      [
        "added",
        -9.646505147207856
      ],
      [
        "likely",
        -9.647227988023397
      ],
      [
        "लोगन",
        -9.6473118370758
      ],
      [
        "taken",
        -9.647392108725905
      ],
      [
        "recommend",
        -9.648902446991269
      ],
      [
        "meet",
        -9.649156086532408
      ],
      [
        "कृषि",
        -9.649478331181736
      ],
      [
        "अपडेट",
        -9.64964812218475
      ],
      [
        "2013",
        -9.650608057516745
      ],
      [
        "डिग्री",
        -9.650658420622754
      ],
      [
        "नुकसान",
        -9.650961535695048
      ],
      [
        "application",
        -9.651389715022667
      ],
      [
        "डा",
        -9.651705568528232
      ],
      [
        "जमीन",
        -9.651777520039559
      ],
      [
        "राज्यों",
        -9.652401511630393
      ],
      [
        "पाया",
        -9.653652329208642
      ],
      [
        "पुत्र",
        -9.654215383027314
      ],
      [
        "जैसा",
        -9.654850830047488
      ],
      [
        "party",
        -9.655788397867225
      ],
      [
        "National",
        -9.656189256209263
      ],
      [
        "पुरुष",
        -9.656775921958879
      ],
      [
        "लिख",
        -9.656946978493782
      ],
      [
        "position",
        -9.657372404607678
      ],
      [
        "किसान",
        -9.657776487508603
      ],
      [
        "परिभाषित",
        -9.658633629780718
      ],
      [
        "difficult",
        -9.659317071941521
      ],
      [
        "everyone",
        -9.660067998536512
      ],
      [
        "किसानों",
        -9.660242280450444
      ],
      [
        "कर्म",
        -9.66120816212849
      ],
      [
        "चाहता",
        -9.661287414513106
      ],
      [
        "र्स",
        -9.662172699923476
      ],
      [
        "व्यक्तिगत",
        -9.662946809339344
      ],
      [
        "स्वयं",
        -9.663021976544883
      ],
      [
        "security",
        -9.664883483553979
      ],
      [
        "किन्तु",
        -9.665094205943978
      ],
      [
        "दिल",
        -9.665667633996993
      ],
      [
        "popular",
        -9.666270193820472
      ],
      [
        "वालों",
        -9.666293317782008
      ],
      [
        "दावा",
        -9.666389959614753
      ],
      [
        "almost",
        -9.666656555350487
      ],
      [
        "भगवान",
        -9.666810353632266
      ],
      [
        "कॉल",
        -9.666993307322686
      ],
      [
        "तरीके",
        -9.667320524300743
      ],
      [
        "फिलिम",
        -9.668328078537751
      ],
      [
        "वर्षों",
        -9.668839497888083
      ],
      [
        "निर्णय",
        -9.670220759976154
      ],
      [
        "राय",
        -9.670247387102904
      ],
      [
        "address",
        -9.671270611709824
      ],
      [
        "systems",
        -9.672139685717466
      ],
      [
        "सुरक्षित",
        -9.672978078798437
      ],
      [
        "step",
        -9.673113548351765
      ],
      [
        "located",
        -9.673241487582471
      ],
      [
        "bar",
        -9.673256228752592
      ],
      [
        "दृष्टि",
        -9.673584752154492
      ],
      [
        "घोषणा",
        -9.67391635788595
      ],
      [
        "State",
        -9.673998055724871
      ],
      [
        "led",
        -9.674563107635317
      ],
      [
        "image",
        -9.676460054866677
      ],
      [
        "बराबर",
        -9.676969548411275
      ],
      [
        "विश्वास",
        -9.677426671317454
      ],
      [
        "मीटर",
        -9.678255119789743
      ],
      [
        "anything",
        -9.678829517623633
      ],
      [
        "छोट",
        -9.678978672708482
      ],
      [
        "user",
        -9.679176898143664
      ],
      [
        "सूत्र",
        -9.67941503873246
      ],
      [
        "build",
        -9.679760268564058
      ],
      [
        "शाम",
        -9.681022350329638
      ],
      [
        "दूरी",
        -9.68162734803067
      ],
      [
        "आवेदन",
        -9.682521367588794
      ],
      [
        "deal",
        -9.682790263547753
      ],
      [
        "nice",
        -9.682833947326092
      ],
      [
        "latest",
        -9.68295539426374
      ],
      [
        "तकनीक",
        -9.682973753350732
      ],
      [
        "created",
        -9.683818280350717
      ],
      [
        "wood",
        -9.684206029888598
      ],
      [
        "योग्य",
        -9.684806529256786
      ],
      [
        "वहाँ",
        -9.685945141760568
      ],
      [
        "box",
        -9.686515296645155
      ],
      [
        "Not",
        -9.687051245824536
      ],
      [
        "impact",
        -9.687475734563842
      ],
      [
        "ideas",
        -9.68875221396591
      ],
      [
        "संचालन",
        -9.68903119769006
      ],
      [
        "fully",
        -9.689136876597077
      ],
      [
        "परन्तु",
        -9.689434007174786
      ],
      [
        "South",
        -9.689659434896592
      ],
      [
        "code",
        -9.68992740436142
      ],
      [
        "forward",
        -9.690204856202527
      ],
      [
        "town",
        -9.6906348615588
      ],
      [
        "जानते",
        -9.69064012626021
      ],
      [
        "games",
        -9.691230894390088
      ],
      [
        "होय",
        -9.691469695640995
      ],
      [
        "ready",
        -9.69177312382536
      ],
      [
        "पार",
        -9.692211376168363
      ],
      [
        "संगठन",
        -9.692239459765101
      ],
      [
        "events",
        -9.69323368135179
      ],
      [
        "however",
        -9.693650231656148
      ],
      [
        "tell",
        -9.693879221963181
      ],
      [
        "rest",
        -9.69458392719236
      ],
      [
        "color",
        -9.696219372699904
      ],
      [
        "brand",
        -9.696283797027075
      ],
      [
        "अनेक",
        -9.696692511515522
      ],
      [
        "बारिश",
        -9.696873333393613
      ],
      [
        "स्वीकार",
        -9.697048389959225
      ],
      [
        "सकारात्मक",
        -9.697925728327883
      ],
      [
        "अंक",
        -9.699013567661648
      ],
      [
        "सक्षम",
        -9.699267417874346
      ],
      [
        "सप्ताह",
        -9.700747566938755
      ],
      [
        "via",
        -9.700875036461548
      ],
      [
        "lead",
        -9.701178911244153
      ],
      [
        "धारा",
        -9.701561308305822
      ],
      [
        "@",
        -9.701656475039721
      ],
      [
        "बनी",
        -9.702006709044557
      ],
      [
        "risk",
        -9.702398080585123
      ],
      [
        "रु",
        -9.702530950233905
      ],
      [
        "store",
        -9.70302277551279
      ],
      [
        "अथवा",
        -9.703128552580669
      ],
      [
        "कृपया",
        -9.703214026725755
      ],
      [
        "return",
        -9.703288583210986
      ],
      [
        "राजनीतिक",
        -9.703408615740559
      ],
      [
        "ग्राहक",
        -9.704177196100416
      ],
      [
        "problems",
        -9.70505751570915
      ],
      [
        "२०",
        -9.70509296968513
      ],
      [
        "learning",
        -9.70552670832704
      ],
      [
        "blog",
        -9.705782208153977
      ],
      [
        "From",
        -9.705910851459022
      ],
      [
        "खत्म",
        -9.706085273743609
      ],
      [
        "जून",
        -9.706914653795744
      ],
      [
        "हवा",
        -9.707323171609332
      ],
      [
        "model",
        -9.707602045551376
      ],
      [
        "app",
        -9.707642030803004
      ],
      [
        "जैसी",
        -9.707781884190952
      ],
      [
        "सोमवार",
        -9.707788653024714
      ],
      [
        "clients",
        -9.708945565230438
      ],
      [
        "treatment",
        -9.709878310902912
      ],
      [
        "मिले",
        -9.709973443001816
      ],
      [
        "लूप",
        -9.710286908167326
      ],
      [
        "details",
        -9.711383356457231
      ],
      [
        "2012",
        -9.71174157263464
      ],
      [
        "education",
        -9.7121475424562
      ],
      [
        "paper",
        -9.71327135711667
      ],
      [
        "Of",
        -9.713458106521148
      ],
      [
        "श्रृंखला",
        -9.713461986574238
      ],
      [
        "certain",
        -9.714627168190868
      ],
      [
        "नियम",
        -9.715836304244322
      ],
      [
        "गेंद",
        -9.71666561000132
      ],
      [
        "soon",
        -9.718596266073074
      ],
      [
        "गंभीर",
        -9.718899783085279
      ],
      [
        "insurance",
        -9.721829440416743
      ],
      [
        "file",
        -9.722360712196657
      ],
      [
        "question",
        -9.722809765382813
      ],
      [
        "action",
        -9.722979071678242
      ],
      [
        "built",
        -9.72381623873675
      ],
      [
        "similar",
        -9.724346730107325
      ],
      [
        "black",
        -9.724486801303826
      ],
      [
        "राहुल",
        -9.724738801174391
      ],
      [
        "रहती",
        -9.725244091412733
      ],
      [
        "सरल",
        -9.726334621247446
      ],
      [
        "ट्रेन",
        -9.726884166992498
      ],
      [
        "आग",
        -9.727311977102927
      ],
      [
        "private",
        -9.727935771734282
      ],
      [
        "प्रशिक्षण",
        -9.728301372145534
      ],
      [
        "दिशा",
        -9.72873037912029
      ],
      [
        "प्रदर्शित",
        -9.729337907407782
      ],
      [
        "skin",
        -9.730056267683063
      ],
      [
        "walk",
        -9.730275850883144
      ],
      [
        "नदी",
        -9.731297048114882
      ],
      [
        "प्यार",
        -9.731605217196888
      ],
      [
        "version",
        -9.731717148648007
      ],
      [
        "७",
        -9.731759740940731
      ],
      [
        "throughout",
        -9.73215253138818
      ],
      [
        "आयोजित",
        -9.732338386100361
      ],
      [
        "गुरु",
        -9.732483686363409
      ],
      [
        "विधायक",
        -9.734474362918993
      ],
      [
        "bad",
        -9.734905473513399
      ],
      [
        "ask",
        -9.735724331739275
      ],
      [
        "बढ़त",
        -9.736191630880692
      ],
      [
        "opportunity",
        -9.736292057181526
      ],
      [
        "users",
        -9.736663353235924
      ],
      [
        "previous",
        -9.736819191276393
      ],
      [
        "happy",
        -9.736962703460462
      ],
      [
        "मामलों",
        -9.739015308808808
      ],
      [
        "रोक",
        -9.739280633081718
      ],
      [
        "अभियान",
        -9.739550823908903
      ],
      [
        "वार",
        -9.739629413035546
      ],
      [
        "अवधि",
        -9.74093267546307
      ],
      [
        "employee",
        -9.74156053043073
      ],
      [
        "usually",
        -9.742228155917303
      ],
      [
        "join",
        -9.742942235261859
      ],
      [
        "gan",
        -9.743027578480422
      ],
      [
        "North",
        -9.743082592362308
      ],
      [
        "fast",
        -9.746201599057754
      ],
      [
        "आरोपी",
        -9.746619698558654
      ],
      [
        "changes",
        -9.747372165116836
      ],
      [
        "जेल",
        -9.747419329903213
      ],
      [
        "ry",
        -9.74757605866624
      ],
      [
        "member",
        -9.74915195181812
      ],
      [
        "rather",
        -9.749361515829568
      ],
      [
        "पहुंचे",
        -9.750428011844484
      ],
      [
        "reason",
        -9.750630129000353
      ],
      [
        "रख",
        -9.751314058221462
      ],
      [
        "प्रस्तुत",
        -9.75131896864887
      ],
      [
        "विस्तार",
        -9.751610528754417
      ],
      [
        "औसत",
        -9.751729537547396
      ],
      [
        "सभा",
        -9.75231195115027
      ],
      [
        "Co",
        -9.752594240318928
      ],
      [
        "takes",
        -9.75271423320727
      ],
      [
        "approach",
        -9.753065359900816
      ],
      [
        "film",
        -9.753224344828041
      ],
      [
        "महसूस",
        -9.753487411929697
      ],
      [
        "wanted",
        -9.754341200536569
      ],
      [
        "उपकरण",
        -9.754629274014446
      ],
      [
        "जनवरी",
        -9.755214735703143
      ],
      [
        "matter",
        -9.75538199911346
      ],
      [
        "कॉलेज",
        -9.756096990389072
      ],
      [
        "सुख",
        -9.757084335036899
      ],
      [
        "credit",
        -9.757812145190897
      ],
      [
        "भेज",
        -9.759339948272794
      ],
      [
        "cut",
        -9.76186558009057
      ],
      [
        "खाद्य",
        -9.762016996774555
      ],
      [
        "बि",
        -9.762268183448997
      ],
      [
        "लिस्ट",
        -9.762355572129309
      ],
      [
        "दोस्त",
        -9.763177603997438
      ],
      [
        "section",
        -9.763484133121674
      ],
      [
        "seem",
        -9.763959523310387
      ],
      [
        "School",
        -9.764363698109744
      ],
      [
        "सत्य",
        -9.764412060740808
      ],
      [
        "37",
        -9.76470216123855
      ],
      [
        "total",
        -9.764783651095486
      ],
      [
        "चिकित्सा",
        -9.765195349292572
      ],
      [
        "यद्यपि",
        -9.765233672745673
      ],
      [
        "subject",
        -9.765408977103172
      ],
      [
        "भविष्य",
        -9.76550102484618
      ],
      [
        "बिजली",
        -9.765825958648318
      ],
      [
        "देय",
        -9.766041451527162
      ],
      [
        "weight",
        -9.766343913477174
      ],
      [
        "outside",
        -9.76685298023735
      ],
      [
        "दर्शन",
        -9.767993886608387
      ],
      [
        "एंड",
        -9.76839542038823
      ],
      [
        "विकेट",
        -9.769616978714279
      ],
      [
        "जुड़े",
        -9.76963094144854
      ],
      [
        "sales",
        -9.769820362670673
      ],
      [
        "drive",
        -9.769898555435796
      ],
      [
        "विश्वविद्यालय",
        -9.769904383997043
      ],
      [
        "clean",
        -9.769932161496381
      ],
      [
        "knowledge",
        -9.77025569664277
      ],
      [
        "His",
        -9.77062229426391
      ],
      [
        "कक्षा",
        -9.771367732023908
      ],
      [
        "अनुमान",
        -9.771927055318304
      ],
      [
        "deep",
        -9.771994263703512
      ],
      [
        "Don",
        -9.772677208373002
      ],
      [
        "खाना",
        -9.772752920373003
      ],
      [
        "आयोजन",
        -9.773046026416583
      ],
      [
        "पंजाब",
        -9.774758779367325
      ],
      [
        "आइए",
        -9.77542090105913
      ],
      [
        "सफल",
        -9.77586943833583
      ],
      [
        "tax",
        -9.776254857471699
      ],
      [
        "आता",
        -9.776938902683886
      ],
      [
        "मेल",
        -9.77724759474331
      ],
      [
        "वजन",
        -9.777860611463888
      ],
      [
        "कला",
        -9.778001685270661
      ],
      [
        "currently",
        -9.778507613885937
      ],
      [
        "else",
        -9.778546709475203
      ],
      [
        "पड़ता",
        -9.778574489065738
      ],
      [
        "आय",
        -9.779220601101931
      ],
      [
        "successful",
        -9.779541063434909
      ],
      [
        "घ",
        -9.779565553119072
      ],
      [
        "प्रशासन",
        -9.780265206418267
      ],
      [
        "अप्रैल",
        -9.781745114889105
      ],
      [
        "निवासी",
        -9.783612772107542
      ],
      [
        "held",
        -9.784113374443468
      ],
      [
        "छह",
        -9.784804907730768
      ],
      [
        "role",
        -9.786403652187778
      ],
      [
        "late",
        -9.78647811665378
      ],
      [
        "additional",
        -9.78718260010243
      ],
      [
        "मिलत",
        -9.787613791467965
      ],
      [
        "probably",
        -9.788158111286938
      ],
      [
        "stop",
        -9.788262159242628
      ],
      [
        "skills",
        -9.788264192145185
      ],
      [
        "true",
        -9.788497393112873
      ],
      [
        "cover",
        -9.788731519376498
      ],
      [
        "travel",
        -9.789471329170249
      ],
      [
        "percent",
        -9.79007456875392
      ],
      [
        "मै",
        -9.790279704430896
      ],
      [
        "अन",
        -9.790867699414063
      ],
      [
        "kids",
        -9.790988619220782
      ],
      [
        "सहयोग",
        -9.791082404861818
      ],
      [
        "सलाह",
        -9.79122363180462
      ],
      [
        "खा",
        -9.791345254329366
      ],
      [
        "शासन",
        -9.792613594441669
      ],
      [
        "लि",
        -9.792676390250808
      ],
      [
        "निकाल",
        -9.793083930458726
      ],
      [
        "कितने",
        -9.79310814161533
      ],
      [
        "higher",
        -9.793460917330327
      ],
      [
        "activities",
        -9.793545702481833
      ],
      [
        "नकारात्मक",
        -9.793624630829056
      ],
      [
        "York",
        -9.794160442685508
      ],
      [
        "necessary",
        -9.794754805476392
      ],
      [
        "mean",
        -9.795066754457535
      ],
      [
        "रिकॉर्ड",
        -9.795637873442296
      ],
      [
        "production",
        -9.795708114050262
      ],
      [
        "growth",
        -9.795971156080663
      ],
      [
        "final",
        -9.796467756560268
      ],
      [
        "running",
        -9.797108959562525
      ],
      [
        "पाल",
        -9.797221913042351
      ],
      [
        "trying",
        -9.797390308590707
      ],
      [
        "international",
        -9.798374945341216
      ],
      [
        "आईडी",
        -9.798872798516888
      ],
      [
        "राष्ट्र",
        -9.798887667502944
      ],
      [
        "hair",
        -9.800667038433057
      ],
      [
        "मशीन",
        -9.800996650138591
      ],
      [
        "effective",
        -9.8011651159655
      ],
      [
        "पूजा",
        -9.801635569567805
      ],
      [
        "material",
        -9.802059204948769
      ],
      [
        "save",
        -9.802202161732357
      ],
      [
        "बल्लेबाज",
        -9.80232609183822
      ],
      [
        "choice",
        -9.804323159387474
      ],
      [
        "चा",
        -9.80579233158371
      ],
      [
        "John",
        -9.806087879885789
      ],
      [
        "सांसद",
        -9.80612014534465
      ],
      [
        "watch",
        -9.806243117825531
      ],
      [
        "आधारित",
        -9.806462331217634
      ],
      [
        "पूर्णांक",
        -9.806978780890871
      ],
      [
        "fire",
        -9.80699470036329
      ],
      [
        "points",
        -9.8070768483882
      ],
      [
        "Home",
        -9.807115847410168
      ],
      [
        "items",
        -9.807343668314537
      ],
      [
        "damage",
        -9.80758867882953
      ],
      [
        "particular",
        -9.807674214069213
      ],
      [
        "सुविधा",
        -9.807768681092186
      ],
      [
        "easily",
        -9.807864513022487
      ],
      [
        "एँ",
        -9.808445444821734
      ],
      [
        "leave",
        -9.808575371983006
      ],
      [
        "maintain",
        -9.80873325251875
      ],
      [
        "शीर्ष",
        -9.80905138579994
      ],
      [
        "छ",
        -9.809711855494138
      ],
      [
        "बॉलीवुड",
        -9.810535369747084
      ],
      [
        "बाय",
        -9.81057082183201
      ],
      [
        "requirement",
        -9.81106277642875
      ],
      [
        "हमने",
        -9.811504760897027
      ],
      [
        "environment",
        -9.811722393626606
      ],
      [
        "शुक्रवार",
        -9.812137204400806
      ],
      [
        "क्षेत्रों",
        -9.812340539391565
      ],
      [
        "आमतौर",
        -9.812776881193216
      ],
      [
        "worth",
        -9.812891389068968
      ],
      [
        "खाने",
        -9.813523721976855
      ],
      [
        "कप्तान",
        -9.813723089415046
      ],
      [
        "pretty",
        -9.815464138871693
      ],
      [
        "longer",
        -9.815958637308759
      ],
      [
        "व्यक्त",
        -9.816083354491033
      ],
      [
        "भर्ती",
        -9.816368932929556
      ],
      [
        "शिकायत",
        -9.816569905377493
      ],
      [
        "डिजाइन",
        -9.816706962619604
      ],
      [
        "कार्यालय",
        -9.817014232070207
      ],
      [
        "medical",
        -9.818354288761103
      ],
      [
        "Can",
        -9.81908096195975
      ],
      [
        "ओन",
        -9.819239451166878
      ],
      [
        "More",
        -9.819266714796045
      ],
      [
        "review",
        -9.819462202086632
      ],
      [
        "खाली",
        -9.819473255896755
      ],
      [
        "जमा",
        -9.820524913031676
      ],
      [
        "दान",
        -9.820997169493143
      ],
      [
        "एल्गोरिदम",
        -9.82136631305818
      ],
      [
        "यूजर",
        -9.822345679228842
      ],
      [
        "2011",
        -9.822346117732497
      ],
      [
        "निर्दिष्ट",
        -9.822609878976296
      ],
      [
        "words",
        -9.822726813405435
      ],
      [
        "win",
        -9.823216592471367
      ],
      [
        "received",
        -9.8242564142956
      ],
      [
        "projects",
        -9.824624394044077
      ],
      [
        "लंबे",
        -9.824625278644252
      ],
      [
        "Just",
        -9.82463289671778
      ],
      [
        "इलाज",
        -9.824833113572627
      ],
      [
        "TV",
        -9.82609366120235
      ],
      [
        "स्थिर",
        -9.826174272423572
      ],
      [
        "option",
        -9.827175641871678
      ],
      [
        "computer",
        -9.8274142541842
      ],
      [
        "request",
        -9.827548317496932
      ],
      [
        "ten",
        -9.828045171184732
      ],
      [
        "hot",
        -9.828111223090453
      ],
      [
        "ट्वीट",
        -9.828339271096182
      ],
      [
        "बजाय",
        -9.828625751638283
      ],
      [
        "हों",
        -9.82922344353348
      ],
      [
        "standard",
        -9.829562157975737
      ],
      [
        "ंस",
        -9.830301448841782
      ],
      [
        "किताब",
        -9.832397289535983
      ],
      [
        "variety",
        -9.832542323772495
      ],
      [
        "शा",
        -9.833536571007624
      ],
      [
        "inside",
        -9.83399469839525
      ],
      [
        "िन",
        -9.834270274279664
      ],
      [
        "marketing",
        -9.835014444680327
      ],
      [
        "डि",
        -9.83504726571899
      ],
      [
        "खर्च",
        -9.835216149085424
      ],
      [
        "reading",
        -9.835743528359805
      ],
      [
        "फोटो",
        -9.836003807089677
      ],
      [
        "सफलता",
        -9.836155029748134
      ],
      [
        "article",
        -9.83637580008817
      ],
      [
        "situation",
        -9.83639713416302
      ],
      [
        "मँ",
        -9.836537639417125
      ],
      [
        "begin",
        -9.836654456673292
      ],
      [
        "favorite",
        -9.837512537609438
      ],
      [
        "ant",
        -9.837700723803364
      ],
      [
        "sense",
        -9.837994765963897
      ],
      [
        "ग्रामीण",
        -9.838023786933457
      ],
      [
        "extra",
        -9.838536514280209
      ],
      [
        "समिति",
        -9.839657781717888
      ],
      [
        "कॉलम",
        -9.839663849585897
      ],
      [
        "तस्वीर",
        -9.84012156954964
      ],
      [
        "मील",
        -9.84040772954261
      ],
      [
        "नियंत्रण",
        -9.841222394386607
      ],
      [
        "बावजूद",
        -9.841522327278332
      ],
      [
        "www",
        -9.841720927986312
      ],
      [
        "भुगतान",
        -9.842864350205081
      ],
      [
        "राजस्थान",
        -9.843648607434798
      ],
      [
        "modern",
        -9.844777560458914
      ],
      [
        "मंगलवार",
        -9.845054992820067
      ],
      [
        "told",
        -9.845318370812382
      ],
      [
        "रोग",
        -9.845716380594661
      ],
      [
        "amazing",
        -9.845780484014018
      ],
      [
        "improve",
        -9.84609808132685
      ],
      [
        "सीधे",
        -9.84720648077128
      ],
      [
        "जुलाई",
        -9.847550978183923
      ],
      [
        "तेल",
        -9.847551805818394
      ],
      [
        "परत",
        -9.848983896504345
      ],
      [
        "success",
        -9.84945075984383
      ],
      [
        "उसमें",
        -9.850112308427647
      ],
      [
        "प्रथम",
        -9.850954701104992
      ],
      [
        "Center",
        -9.85104457224821
      ],
      [
        "sound",
        -9.851387986481544
      ],
      [
        "फं",
        -9.851637322430603
      ],
      [
        "खत",
        -9.851815725042004
      ],
      [
        "behind",
        -9.852548702540329
      ],
      [
        "ढंग",
        -9.85289185769276
      ],
      [
        "2010",
        -9.853664983549095
      ],
      [
        "संशोधित",
        -9.853750604558595
      ],
      [
        "हमरे",
        -9.855197536071495
      ],
      [
        "ities",
        -9.855350657304411
      ],
      [
        "शायद",
        -9.855416954935224
      ],
      [
        "प्रबंधन",
        -9.856010521327235
      ],
      [
        "कराया",
        -9.857688107689535
      ],
      [
        "ch",
        -9.857769698551236
      ],
      [
        "lower",
        -9.858181694842582
      ],
      [
        "संपर्क",
        -9.85897349538956
      ],
      [
        "शेष",
        -9.860708591599975
      ],
      [
        "अच्छे",
        -9.861109723994694
      ],
      [
        "आठ",
        -9.86135131088406
      ],
      [
        "link",
        -9.861529462635339
      ],
      [
        "खराब",
        -9.862662619202128
      ],
      [
        "संगीत",
        -9.862941927876484
      ],
      [
        "श्रेणी",
        -9.86294275545553
      ],
      [
        "allows",
        -9.865900623719469
      ],
      [
        "network",
        -9.866092007277404
      ],
      [
        "दि",
        -9.86640089915999
      ],
      [
        "चले",
        -9.86647474566234
      ],
      [
        "चूंकि",
        -9.866739283739186
      ],
      [
        "साहित्य",
        -9.866834125251307
      ],
      [
        "ेट",
        -9.867083032102148
      ],
      [
        "रिलीज",
        -9.867897653239794
      ],
      [
        "वास्तव",
        -9.868254790543258
      ],
      [
        "वक्त",
        -9.868505388668147
      ],
      [
        "UK",
        -9.86860585734046
      ],
      [
        "books",
        -9.870197679300658
      ],
      [
        "toward",
        -9.870553244323544
      ],
      [
        "providing",
        -9.870574990506814
      ],
      [
        "sale",
        -9.871777267628701
      ],
      [
        "quickly",
        -9.87210089996898
      ],
      [
        "platform",
        -9.8724006684499
      ],
      [
        "समाप्त",
        -9.87277508004927
      ],
      [
        "अर्थात्",
        -9.87290039757697
      ],
      [
        "track",
        -9.873580305175535
      ],
      [
        "डॉक्टर",
        -9.87411684326925
      ],
      [
        "जिनमें",
        -9.874273129448211
      ],
      [
        "डर",
        -9.874582872187741
      ],
      [
        "la",
        -9.875016150768174
      ],
      [
        "national",
        -9.875174873270993
      ],
      [
        "2020",
        -9.87586534786451
      ],
      [
        "नेतृत्व",
        -9.876967496614261
      ],
      [
        "दृष्टिकोण",
        -9.877459919081906
      ],
      [
        "खो",
        -9.877644698444138
      ],
      [
        "केन्द्र",
        -9.878230020171346
      ],
      [
        "बुधवार",
        -9.878369946294407
      ],
      [
        "पीएम",
        -9.878515199564308
      ],
      [
        "fresh",
        -9.878625791993557
      ],
      [
        "योगदान",
        -9.878721395759477
      ],
      [
        "couple",
        -9.87991508537089
      ],
      [
        "talk",
        -9.880038733520694
      ],
      [
        "ऐप",
        -9.88050841547734
      ],
      [
        "आत्मा",
        -9.880610989291034
      ],
      [
        "summer",
        -9.881250134775025
      ],
      [
        "सीरीज",
        -9.881486222115376
      ],
      [
        "शिव",
        -9.881544360170714
      ],
      [
        "De",
        -9.882426193984802
      ],
      [
        "im",
        -9.882639488281963
      ],
      [
        "display",
        -9.883233856811344
      ],
      [
        "दार",
        -9.883261180378511
      ],
      [
        "materials",
        -9.883614499925752
      ],
      [
        "West",
        -9.885263360853262
      ],
      [
        "वायरस",
        -9.885346164067858
      ],
      [
        "Get",
        -9.885581706423789
      ],
      [
        "आसपास",
        -9.885980723812127
      ],
      [
        "पश्चिम",
        -9.88600831612139
      ],
      [
        "hold",
        -9.886378102403015
      ],
      [
        "ँ",
        -9.886402176562209
      ],
      [
        "equipment",
        -9.88652032553904
      ],
      [
        "purchase",
        -9.886528849468355
      ],
      [
        "recent",
        -9.88660263813406
      ],
      [
        "्य",
        -9.886658549597973
      ],
      [
        "रूस",
        -9.886848776637526
      ],
      [
        "आते",
        -9.887128283650583
      ],
      [
        "Day",
        -9.888347056898242
      ],
      [
        "भू",
        -9.889258874634834
      ],
      [
        "States",
        -9.889452206057612
      ],
      [
        "घायल",
        -9.889564993622432
      ],
      [
        "शनिवार",
        -9.890907163464954
      ],
      [
        "road",
        -9.892262838000123
      ],
      [
        "patients",
        -9.893037723610178
      ],
      [
        "दरअसल",
        -9.893129383520385
      ],
      [
        "included",
        -9.894238323413918
      ],
      [
        ".”",
        -9.894437760725669
      ],
      [
        "अगस्त",
        -9.895087559804153
      ],
      [
        "April",
        -9.895752178163182
      ],
      [
        "door",
        -9.896795227531134
      ],
      [
        "संक्रमण",
        -9.896839250772219
      ],
      [
        "weeks",
        -9.896875201494263
      ],
      [
        "piece",
        -9.897503677796047
      ],
      [
        "upon",
        -9.897988664899424
      ],
      [
        "युवा",
        -9.898441312260712
      ],
      [
        "nothing",
        -9.898712574902985
      ],
      [
        "tools",
        -9.900175588407981
      ],
      [
        "Most",
        -9.90075761258308
      ],
      [
        "safe",
        -9.900935366273893
      ],
      [
        "ऑनलाइन",
        -9.901091791647731
      ],
      [
        "region",
        -9.901500947844344
      ],
      [
        "सौ",
        -9.90159947171573
      ],
      [
        "source",
        -9.902076640223639
      ],
      [
        "worked",
        -9.902339169568174
      ],
      [
        "मैन",
        -9.902420653668402
      ],
      [
        "legal",
        -9.902451562728434
      ],
      [
        "उनसे",
        -9.902541554234572
      ],
      [
        "Google",
        -9.902637022755007
      ],
      [
        "conditions",
        -9.902797544020952
      ],
      [
        "तारीख",
        -9.902804932330087
      ],
      [
        "ism",
        -9.903127245886429
      ],
      [
        "policy",
        -9.903141895043492
      ],
      [
        "shows",
        -9.904295132733235
      ],
      [
        "कथन",
        -9.90490002547301
      ],
      [
        "रविवार",
        -9.905681044236086
      ],
      [
        "ेंगे",
        -9.905700159198767
      ],
      [
        "पहुंचा",
        -9.905773891852174
      ],
      [
        "निजी",
        -9.906271482837703
      ],
      [
        "राजधानी",
        -9.90676789261762
      ],
      [
        "mobile",
        -9.90769953732843
      ],
      [
        "word",
        -9.907936995119293
      ],
      [
        "Park",
        -9.907988321683403
      ],
      [
        "दिये",
        -9.90806605829279
      ],
      [
        "स्कोर",
        -9.908559455600043
      ],
      [
        "student",
        -9.908990703574867
      ],
      [
        "वाद",
        -9.90931313506684
      ],
      [
        "attend",
        -9.910084695739233
      ],
      [
        "वाई",
        -9.910217795205913
      ],
      [
        "निकल",
        -9.910485529045067
      ],
      [
        "300",
        -9.911902408338161
      ],
      [
        "Also",
        -9.911906360622218
      ],
      [
        "costs",
        -9.912838505819334
      ],
      [
        "स्वरूप",
        -9.913235485272828
      ],
      [
        "Thanks",
        -9.913659207320558
      ],
      [
        "बेहद",
        -9.913919215955614
      ],
      [
        "notice",
        -9.914987201341225
      ],
      [
        "रेलवे",
        -9.915538093905516
      ],
      [
        "दु",
        -9.915735421014807
      ],
      [
        "Or",
        -9.916063002331645
      ],
      [
        "active",
        -9.91617577209057
      ],
      [
        "सम्मान",
        -9.917472182447266
      ],
      [
        "लड़की",
        -9.917697961533186
      ],
      [
        "loss",
        -9.917717285865294
      ],
      [
        "according",
        -9.917935959481426
      ],
      [
        "वायरल",
        -9.917977840336913
      ],
      [
        "हमला",
        -9.91827158189046
      ],
      [
        "लेते",
        -9.918378068914976
      ],
      [
        "solution",
        -9.918870094608689
      ],
      [
        "leading",
        -9.919661915892686
      ],
      [
        "Pro",
        -9.920368988383158
      ],
      [
        "मुक्त",
        -9.920595805958548
      ],
      [
        "eye",
        -9.920632113192479
      ],
      [
        "प्रसिद्ध",
        -9.920781405434141
      ],
      [
        "global",
        -9.920797052592022
      ],
      [
        "जैन",
        -9.92152188370765
      ],
      [
        "प्रकाशित",
        -9.921723670390127
      ],
      [
        "सत्ता",
        -9.922113985853908
      ],
      [
        "Then",
        -9.92227331996547
      ],
      [
        "terms",
        -9.922539154643093
      ],
      [
        "सीएम",
        -9.924531928743601
      ],
      [
        "anyone",
        -9.925750028994388
      ],
      [
        "2023",
        -9.926461994134415
      ],
      [
        "छात्रों",
        -9.926836613474467
      ],
      [
        "March",
        -9.926982179296699
      ],
      [
        "ओवर",
        -9.926998775929079
      ],
      [
        "नियमों",
        -9.927813390473341
      ],
      [
        "विजय",
        -9.928484702483326
      ],
      [
        "प्राकृतिक",
        -9.928741402463285
      ],
      [
        "fit",
        -9.928969880953355
      ],
      [
        "digital",
        -9.929774399425705
      ],
      [
        "जाएंगे",
        -9.929920419657087
      ],
      [
        "photo",
        -9.929958043940609
      ],
      [
        "लेखक",
        -9.930731192414502
      ],
      [
        "average",
        -9.931557948038632
      ],
      [
        "बिंदु",
        -9.932859270952356
      ],
      [
        "शीर्षक",
        -9.93318665420845
      ],
      [
        "आसान",
        -9.933470769226197
      ],
      [
        "asked",
        -9.933825972178882
      ],
      [
        "six",
        -9.93389208619492
      ],
      [
        "types",
        -9.934556405971671
      ],
      [
        "goal",
        -9.935621147785696
      ],
      [
        "उद्योग",
        -9.935802850025638
      ],
      [
        "recently",
        -9.93617678054802
      ],
      [
        "meeting",
        -9.936387781919494
      ],
      [
        "देवी",
        -9.936787326293459
      ],
      [
        "फरवरी",
        -9.937898550329606
      ],
      [
        "County",
        -9.93806331237245
      ],
      [
        "News",
        -9.938347109564539
      ],
      [
        "पाए",
        -9.939108392966698
      ],
      [
        "प्रोग्राम",
        -9.939717039832509
      ],
      [
        "असर",
        -9.94007943832955
      ],
      [
        "Al",
        -9.940189646427738
      ],
      [
        "बताव",
        -9.941206193214633
      ],
      [
        "हृदय",
        -9.941411196262465
      ],
      [
        "collection",
        -9.942231566062556
      ],
      [
        "चीनी",
        -9.94426671056371
      ],
      [
        "देती",
        -9.944267332117542
      ],
      [
        "रहेगा",
        -9.9449355384686
      ],
      [
        "written",
        -9.945065041614884
      ],
      [
        "America",
        -9.945127822574642
      ],
      [
        "प्रो",
        -9.945156712657276
      ],
      [
        "टीवी",
        -9.945374246323118
      ],
      [
        "programs",
        -9.945478588551708
      ],
      [
        "देकर",
        -9.945781237969248
      ],
      [
        "ीकरण",
        -9.946103178814996
      ],
      [
        "जोर",
        -9.947188700882966
      ],
      [
        "develop",
        -9.947230812614297
      ],
      [
        "seems",
        -9.947764235517944
      ],
      [
        "://",
        -9.947814075084175
      ],
      [
        "saw",
        -9.948245997842472
      ],
      [
        "First",
        -9.949543843975093
      ],
      [
        "fall",
        -9.950424291676013
      ],
      [
        "रखें",
        -9.950625570298143
      ],
      [
        "देखकर",
        -9.950953039655605
      ],
      [
        "lives",
        -9.95140300236247
      ],
      [
        "हिन्दी",
        -9.951647797973816
      ],
      [
        "moving",
        -9.952438743077018
      ],
      [
        "excellent",
        -9.952452778725533
      ],
      [
        "ground",
        -9.953436290894254
      ],
      [
        "2007",
        -9.954615379866668
      ],
      [
        "दवा",
        -9.955002620746342
      ],
      [
        "device",
        -9.95504528774706
      ],
      [
        "पदार्थ",
        -9.955129777293058
      ],
      [
        "समेत",
        -9.955360181163782
      ],
      [
        "पथ",
        -9.95542148025151
      ],
      [
        "रेल",
        -9.955483015164232
      ],
      [
        "बाकी",
        -9.955708887956897
      ],
      [
        "proper",
        -9.955754533060583
      ],
      [
        "Thank",
        -9.955980758515137
      ],
      [
        "33",
        -9.957250629832659
      ],
      [
        "१२",
        -9.957541258103932
      ],
      [
        "अनु",
        -9.957957291301318
      ],
      [
        "write",
        -9.95833156479579
      ],
      [
        "remember",
        -9.958354385332623
      ],
      [
        "बनाव",
        -9.958417141742412
      ],
      [
        "physical",
        -9.958745382332568
      ],
      [
        "hour",
        -9.959165222725376
      ],
      [
        "गिर",
        -9.959286809997922
      ],
      [
        "साझा",
        -9.959442322547897
      ],
      [
        "सोच",
        -9.959715245932873
      ],
      [
        "House",
        -9.959786011909582
      ],
      [
        "रखते",
        -9.9598393743313
      ],
      [
        "शून्य",
        -9.960325773866403
      ],
      [
        "tool",
        -9.961006569908424
      ],
      [
        "प्रकृति",
        -9.961141496928589
      ],
      [
        "•",
        -9.961660097842284
      ],
      [
        "एच",
        -9.962004650163907
      ],
      [
        "वाहन",
        -9.962247254952311
      ],
      [
        "el",
        -9.962281612678293
      ],
      [
        "traditional",
        -9.96242366127887
      ],
      [
        "response",
        -9.963427627038474
      ],
      [
        "High",
        -9.965197276323671
      ],
      [
        "morning",
        -9.965958144627987
      ],
      [
        "remove",
        -9.96616451086426
      ],
      [
        "benefits",
        -9.966704930436808
      ],
      [
        "प्रधान",
        -9.966861514749239
      ],
      [
        "नौकरी",
        -9.967424849685521
      ],
      [
        "स्व",
        -9.967671041901566
      ],
      [
        "शाह",
        -9.967998932434307
      ],
      [
        "पकड़",
        -9.96802153837981
      ],
      [
        "रोड",
        -9.968538485135596
      ],
      [
        "ment",
        -9.969150964202482
      ],
      [
        "giving",
        -9.969476365848342
      ],
      [
        "Mr",
        -9.969802140320333
      ],
      [
        "shall",
        -9.970164192772659
      ],
      [
        "Free",
        -9.97134510419209
      ],
      [
        "मुश्किल",
        -9.972129785467601
      ],
      [
        "decision",
        -9.97306328335245
      ],
      [
        "looks",
        -9.974393022950963
      ],
      [
        "chance",
        -9.974561735653698
      ],
      [
        "कर्मचारी",
        -9.974695722427658
      ],
      [
        "400",
        -9.975635102865791
      ],
      [
        "लेना",
        -9.97586261004964
      ],
      [
        "parts",
        -9.976243088082208
      ],
      [
        "आयोग",
        -9.976302478571885
      ],
      [
        "feeling",
        -9.97821878634813
      ],
      [
        "answer",
        -9.978304202421992
      ],
      [
        "शब्दन",
        -9.978496341243758
      ],
      [
        "पैरामीटर",
        -9.979065095933905
      ],
      [
        "solutions",
        -9.979093530627637
      ],
      [
        "directly",
        -9.979151472766087
      ],
      [
        "शैली",
        -9.979241821045205
      ],
      [
        "चेक",
        -9.981319731544314
      ],
      [
        "क्लिक",
        -9.981527651563999
      ],
      [
        "प्रभावी",
        -9.981941035010875
      ],
      [
        "सीट",
        -9.982079616438602
      ],
      [
        "परिषद",
        -9.982538010348469
      ],
      [
        "highly",
        -9.98265877494227
      ],
      [
        "resources",
        -9.984128469320238
      ],
      [
        "wish",
        -9.98418828570663
      ],
      [
        "संस्करण",
        -9.98458820227263
      ],
      [
        "पर्याप्त",
        -9.984634287954298
      ],
      [
        "पंक्ति",
        -9.985413148447964
      ],
      [
        "कराने",
        -9.985626304388756
      ],
      [
        "expect",
        -9.986009149364671
      ],
      [
        "mm",
        -9.986201633912417
      ],
      [
        "जाति",
        -9.986433848850394
      ],
      [
        "युवक",
        -9.986892751494192
      ],
      [
        "49",
        -9.98695667585287
      ],
      [
        "प्रस्ताव",
        -9.987265354341543
      ],
      [
        "base",
        -9.988052554675361
      ],
      [
        "उनमें",
        -9.98862434769538
      ],
      [
        "शानदार",
        -9.988772183940778
      ],
      [
        "screen",
        -9.989003699342378
      ],
      [
        "kitchen",
        -9.989067403780776
      ],
      [
        "सर्व",
        -9.989235304352825
      ],
      [
        "बच्चा",
        -9.989258164215688
      ],
      [
        "Many",
        -9.989593800228196
      ],
      [
        "wall",
        -9.989897367295946
      ],
      [
        "समझा",
        -9.99017712238748
      ],
      [
        "स्टेशन",
        -9.990529212337716
      ],
      [
        "व्यापार",
        -9.990635210350318
      ],
      [
        "stock",
        -9.99151541312309
      ],
      [
        "pick",
        -9.991736025924698
      ],
      [
        "involved",
        -9.991797368197798
      ],
      [
        "levels",
        -9.991886254396972
      ],
      [
        "daily",
        -9.992233937905091
      ],
      [
        "अनुरोध",
        -9.992319012811738
      ],
      [
        "पेड़",
        -9.993147733591966
      ],
      [
        "wait",
        -9.993335505928062
      ],
      [
        "दिखा",
        -9.993520953913606
      ],
      [
        "multiple",
        -9.994202984077011
      ],
      [
        "चाहे",
        -9.995293087139649
      ],
      [
        "2021",
        -9.995359346393823
      ],
      [
        "Even",
        -9.995596709462772
      ],
      [
        "गै",
        -9.997897705932013
      ],
      [
        "बेटी",
        -9.997934370045314
      ],
      [
        "countries",
        -9.998179504236491
      ],
      [
        "जाकर",
        -9.999077360203167
      ],
      [
        "floor",
        -10.000296679131628
      ],
      [
        "कहत",
        -10.000657367190277
      ],
      [
        "चाहिये",
        -10.000710301882712
      ],
      [
        "छोटी",
        -10.001530335315579
      ],
      [
        "career",
        -10.001951453552255
      ],
      [
        "International",
        -10.002282993106997
      ],
      [
        "huge",
        -10.002360045701412
      ],
      [
        "हेतु",
        -10.002602616336127
      ],
      [
        "खरीद",
        -10.002779010440157
      ],
      [
        "पाई",
        -10.00289534729211
      ],
      [
        "plans",
        -10.00298828252087
      ],
      [
        "images",
        -10.003163913085455
      ],
      [
        "इनमें",
        -10.003767165453358
      ],
      [
        "बनाई",
        -10.00397546599368
      ],
      [
        "record",
        -10.004193425176767
      ],
      [
        "जरूर",
        -10.004333417067699
      ],
      [
        "जेकर",
        -10.004407225684325
      ],
      [
        "मोबाइल",
        -10.00459609354372
      ],
      [
        "हालाँकि",
        -10.004936093614056
      ],
      [
        "विभाजित",
        -10.005406889152065
      ],
      [
        "plant",
        -10.006159920213442
      ],
      [
        "जॉन",
        -10.00630674193358
      ],
      [
        "गैस",
        -10.006406930925461
      ],
      [
        "संग्रहीत",
        -10.00717043116705
      ],
      [
        "trip",
        -10.008012068921381
      ],
      [
        "तलाश",
        -10.008142351400078
      ],
      [
        "feature",
        -10.008278768794346
      ],
      [
        "खुश",
        -10.008721525230198
      ],
      [
        "appear",
        -10.008767892676575
      ],
      [
        "समुद्र",
        -10.008783006137277
      ],
      [
        "immediate",
        -10.009282814869648
      ],
      [
        "green",
        -10.009922457833305
      ],
      [
        "sign",
        -10.009983878958055
      ],
      [
        "वैसे",
        -10.010230888054673
      ],
      [
        "center",
        -10.010468558327775
      ],
      [
        "परेशान",
        -10.010835459798662
      ],
      [
        "instead",
        -10.01085001138857
      ],
      [
        "टा",
        -10.011578646376826
      ],
      [
        "42",
        -10.011803785331226
      ],
      [
        "नेताओं",
        -10.012128460749501
      ],
      [
        "घटक",
        -10.012649750580058
      ],
      [
        "San",
        -10.013128859525319
      ],
      [
        "Once",
        -10.01331645687055
      ],
      [
        "करण",
        -10.013378964572166
      ],
      [
        "प्राचीन",
        -10.013811059599757
      ],
      [
        "सारे",
        -10.013830550280952
      ],
      [
        "friend",
        -10.014292976983752
      ],
      [
        "वास्तविक",
        -10.01457112270625
      ],
      [
        "सचिव",
        -10.014958958118465
      ],
      [
        "itself",
        -10.014984476058164
      ],
      [
        "Why",
        -10.015495459730666
      ],
      [
        "June",
        -10.016050686218879
      ],
      [
        "निवेश",
        -10.016216999183518
      ],
      [
        "significant",
        -10.016718921171012
      ],
      [
        "um",
        -10.016786543564082
      ],
      [
        "स्थापना",
        -10.017034963248966
      ],
      [
        "cases",
        -10.017179251564444
      ],
      [
        "शराब",
        -10.017297343630558
      ],
      [
        "सक्रिय",
        -10.018346765895373
      ],
      [
        "require",
        -10.019004442191067
      ],
      [
        "गृह",
        -10.019317955872216
      ],
      [
        "सदस्यों",
        -10.02054384471506
      ],
      [
        "सूर्य",
        -10.020627759586008
      ],
      [
        "safety",
        -10.02072563589371
      ],
      [
        "avoid",
        -10.021534062426548
      ],
      [
        "परियोजना",
        -10.021836985402752
      ],
      [
        "organization",
        -10.023196202731208
      ],
      [
        "effect",
        -10.023352785354827
      ],
      [
        "पृथ्वी",
        -10.02346435324913
      ],
      [
        "attention",
        -10.02412567616645
      ],
      [
        "net",
        -10.024210176454863
      ],
      [
        "themselves",
        -10.024685063512175
      ],
      [
        "बनने",
        -10.024838008815399
      ],
      [
        "ठ",
        -10.025547858869368
      ],
      [
        "commercial",
        -10.02573060749582
      ],
      [
        "मैदान",
        -10.026181808396716
      ],
      [
        "कारक",
        -10.026404025535534
      ],
      [
        "2009",
        -10.027793452876223
      ],
      [
        "positive",
        -10.02787401034724
      ],
      [
        "लेत",
        -10.02815927957792
      ],
      [
        "war",
        -10.029165377747544
      ],
      [
        "क्वेरी",
        -10.030243087632298
      ],
      [
        "round",
        -10.030326317669653
      ],
      [
        ">",
        -10.030590858406011
      ],
      [
        "planning",
        -10.031128660424788
      ],
      [
        "send",
        -10.03163724371347
      ],
      [
        "extreme",
        -10.032727270217654
      ],
      [
        "China",
        -10.033233461592111
      ],
      [
        "36",
        -10.03383884522791
      ],
      [
        "English",
        -10.035642115505398
      ],
      [
        "कपूर",
        -10.035963385665115
      ],
      [
        "कुंजी",
        -10.036476445508764
      ],
      [
        "महत्व",
        -10.036680059554964
      ],
      [
        "lost",
        -10.036833191792248
      ],
      [
        "Go",
        -10.037313139109239
      ],
      [
        "grow",
        -10.037330641487385
      ],
      [
        "मानक",
        -10.038100489442272
      ],
      [
        "शव",
        -10.038214087476833
      ],
      [
        "िहिस",
        -10.039588770681465
      ],
      [
        "तोड़",
        -10.039864050292177
      ],
      [
        "रू",
        -10.040072259261786
      ],
      [
        "speed",
        -10.04010642391324
      ],
      [
        "interesting",
        -10.04011196339606
      ],
      [
        "ca",
        -10.040749565779073
      ],
      [
        "निभा",
        -10.041097780193118
      ],
      [
        "sub",
        -10.041499602827944
      ],
      [
        "भिन्न",
        -10.041524397788613
      ],
      [
        "इच्छा",
        -10.041610958605885
      ],
      [
        "उनको",
        -10.041872990728445
      ],
      [
        "तैयारी",
        -10.041937884149865
      ],
      [
        "Let",
        -10.04303442546619
      ],
      [
        "अक्षर",
        -10.043397961016264
      ],
      [
        "PM",
        -10.04361824450892
      ],
      [
        "जटिल",
        -10.043883468175343
      ],
      [
        "playing",
        -10.04412921865924
      ],
      [
        "बजट",
        -10.044235458950673
      ],
      [
        "deliver",
        -10.044588752414048
      ],
      [
        "parents",
        -10.044639019827885
      ],
      [
        "developed",
        -10.04483695397123
      ],
      [
        "पृष्ठ",
        -10.045090509585611
      ],
      [
        "multi",
        -10.045201614082163
      ],
      [
        "author",
        -10.045234483170866
      ],
      [
        "इतनी",
        -10.04534739320018
      ],
      [
        "fine",
        -10.045488172007984
      ],
      [
        "Un",
        -10.045693707448624
      ],
      [
        "चिंता",
        -10.046413540852374
      ],
      [
        "दास",
        -10.047670476306742
      ],
      [
        "ship",
        -10.048315704907223
      ],
      [
        "आपने",
        -10.049790782557944
      ],
      [
        "बचा",
        -10.050017265162278
      ],
      [
        "पैसा",
        -10.050154717563498
      ],
      [
        "hear",
        -10.050983272894344
      ],
      [
        "55",
        -10.051109883475107
      ],
      [
        "तीसरे",
        -10.051984788593126
      ],
      [
        "बढ़ाने",
        -10.052461713986506
      ],
      [
        "देगा",
        -10.052876907637428
      ],
      [
        "ive",
        -10.053829088473508
      ],
      [
        "34",
        -10.05434024549191
      ],
      [
        "reach",
        -10.054373866534364
      ],
      [
        "gives",
        -10.05479522469423
      ],
      [
        "moment",
        -10.05582098394337
      ],
      [
        "protect",
        -10.056451812649259
      ],
      [
        "आइटम",
        -10.056600365917246
      ],
      [
        "q",
        -10.057246660497666
      ],
      [
        "फीसदी",
        -10.057323335310485
      ],
      [
        "कश्मीर",
        -10.05744965677754
      ],
      [
        "break",
        -10.057664610455305
      ],
      [
        "48",
        -10.05934637789629
      ],
      [
        "आसानी",
        -10.059599767116003
      ],
      [
        "गीत",
        -10.059673561165418
      ],
      [
        "IT",
        -10.059911003190383
      ],
      [
        "quick",
        -10.060653692174917
      ],
      [
        "कोविड",
        -10.060696518995199
      ],
      [
        "release",
        -10.06125084041693
      ],
      [
        "players",
        -10.06133355089811
      ],
      [
        "नोट",
        -10.061674572432285
      ],
      [
        "सम्बन्ध",
        -10.06182964442806
      ],
      [
        "ओकर",
        -10.062520054827772
      ],
      [
        "prices",
        -10.062549546155108
      ],
      [
        "apply",
        -10.062684816554448
      ],
      [
        "heat",
        -10.062756168524126
      ],
      [
        "stand",
        -10.063153510262637
      ],
      [
        "स्टोर",
        -10.06365552305717
      ],
      [
        "दिसंबर",
        -10.065233050118806
      ],
      [
        "दृश्य",
        -10.0653490035324
      ],
      [
        "गाड़ी",
        -10.065528694019257
      ],
      [
        "Health",
        -10.065675289654548
      ],
      [
        "सहायक",
        -10.065855922563937
      ],
      [
        "decided",
        -10.066419452464284
      ],
      [
        "वोट",
        -10.067052707173282
      ],
      [
        "गर्मी",
        -10.067701949621574
      ],
      [
        "machine",
        -10.06852712817847
      ],
      [
        "Great",
        -10.068627011529736
      ],
      [
        "हाई",
        -10.0687010885977
      ],
      [
        "method",
        -10.06928168559271
      ],
      [
        "तथ्य",
        -10.069641698092344
      ],
      [
        "जल्दी",
        -10.069903579650331
      ],
      [
        "आती",
        -10.07001931224645
      ],
      [
        "दिख",
        -10.07041100022468
      ],
      [
        "नरेंद्र",
        -10.070498640297346
      ],
      [
        "प्रसाद",
        -10.07164525556757
      ],
      [
        "Any",
        -10.072058136173847
      ],
      [
        "hit",
        -10.072296832975393
      ],
      [
        "foot",
        -10.072559849239601
      ],
      [
        "contain",
        -10.0728434155587
      ],
      [
        "spend",
        -10.073142762537364
      ],
      [
        "ce",
        -10.073267601771882
      ],
      [
        "सिद्ध",
        -10.07340697576738
      ],
      [
        "खंड",
        -10.074527866967035
      ],
      [
        "prevent",
        -10.074611305061584
      ],
      [
        "Since",
        -10.075942021779648
      ],
      [
        "reduce",
        -10.07595363810157
      ],
      [
        "डेटाबेस",
        -10.076242990842976
      ],
      [
        "मौका",
        -10.076383417831133
      ],
      [
        "stage",
        -10.076899176226236
      ],
      [
        "client",
        -10.077332021955312
      ],
      [
        "London",
        -10.077530223627628
      ],
      [
        "युग",
        -10.077544071028301
      ],
      [
        "रखना",
        -10.07759353189391
      ],
      [
        "तुरंत",
        -10.077904501359987
      ],
      [
        "completely",
        -10.078017508432705
      ],
      [
        "१५",
        -10.078801349632219
      ],
      [
        "myself",
        -10.079038695264657
      ],
      [
        "groups",
        -10.07925543522708
      ],
      [
        "goes",
        -10.079268799424016
      ],
      [
        "language",
        -10.079646112816159
      ],
      [
        "born",
        -10.080008825282729
      ],
      [
        "प्रा",
        -10.080253031692989
      ],
      [
        "आउट",
        -10.080932883674036
      ],
      [
        "bed",
        -10.081002970486196
      ],
      [
        "engine",
        -10.081148359255975
      ],
      [
        "गेट",
        -10.081799122909512
      ],
      [
        "दिहि",
        -10.082167627973108
      ],
      [
        "नाथ",
        -10.08255506383085
      ],
      [
        "select",
        -10.083210332430454
      ],
      [
        "गुरुवार",
        -10.083445701330357
      ],
      [
        "offering",
        -10.083519352930901
      ],
      [
        "picture",
        -10.083757484506902
      ],
      [
        "complex",
        -10.083880760319985
      ],
      [
        "कर्मचारियों",
        -10.084230923626775
      ],
      [
        "घोषित",
        -10.084916625677971
      ],
      [
        "65",
        -10.084937946065859
      ],
      [
        "paid",
        -10.085103056147844
      ],
      [
        "उल्लेख",
        -10.085106067666471
      ],
      [
        "दबाव",
        -10.085518263572885
      ],
      [
        "benefit",
        -10.086354391523308
      ],
      [
        "जेका",
        -10.086743461368275
      ],
      [
        "creating",
        -10.087878220617663
      ],
      [
        "touch",
        -10.089657309456015
      ],
      [
        "Service",
        -10.089680839784755
      ],
      [
        "नियमित",
        -10.089921990062262
      ],
      [
        "text",
        -10.090119627492733
      ],
      [
        "उपरोक्त",
        -10.09035605771432
      ],
      [
        "साबित",
        -10.091468651846984
      ],
      [
        "कितना",
        -10.091689398829198
      ],
      [
        "99",
        -10.092401110800457
      ],
      [
        "ियो",
        -10.092664623981081
      ],
      [
        "मात्र",
        -10.092833336642993
      ],
      [
        "uses",
        -10.09313359193825
      ],
      [
        "former",
        -10.094008540922125
      ],
      [
        "सूचकांक",
        -10.09438256586998
      ],
      [
        "गत",
        -10.094707941698575
      ],
      [
        "यूपी",
        -10.09490195610738
      ],
      [
        "अक्टूबर",
        -10.095149444426308
      ],
      [
        "purpose",
        -10.095991895949489
      ],
      [
        "trade",
        -10.096233882782895
      ],
      [
        "ma",
        -10.096377132886902
      ],
      [
        "आशा",
        -10.096571927096594
      ],
      [
        "nature",
        -10.097550004907331
      ],
      [
        "देखत",
        -10.097599951769173
      ],
      [
        "analysis",
        -10.09779522913967
      ],
      [
        "wonderful",
        -10.098131027693565
      ],
      [
        "उपचार",
        -10.098225844958872
      ],
      [
        "बातें",
        -10.098283562482859
      ],
      [
        "produce",
        -10.09873547583876
      ],
      [
        "39",
        -10.099083341336858
      ],
      [
        "healthy",
        -10.099303792081573
      ],
      [
        "thinking",
        -10.100204588184962
      ],
      [
        "बिल",
        -10.10052901010874
      ],
      [
        "Group",
        -10.10073753727032
      ],
      [
        "स्टार",
        -10.100990434758048
      ],
      [
        "टेबल",
        -10.10109441689053
      ],
      [
        "नेटवर्क",
        -10.102482065713339
      ],
      [
        "छवि",
        -10.103113255831293
      ],
      [
        "पेज",
        -10.104003379985148
      ],
      [
        "ary",
        -10.104266791479835
      ],
      [
        "limited",
        -10.104449931320122
      ],
      [
        "cool",
        -10.104540986028033
      ],
      [
        "helps",
        -10.104782468490853
      ],
      [
        "पर्यावरण",
        -10.105344514652591
      ],
      [
        "pressure",
        -10.105985818422313
      ],
      [
        "टो",
        -10.106413613774558
      ],
      [
        "photos",
        -10.10704600034983
      ],
      [
        "तु",
        -10.107053086943884
      ],
      [
        "बनावा",
        -10.1078997016128
      ],
      [
        "थोड़ा",
        -10.108013710193095
      ],
      [
        "sports",
        -10.108104722765816
      ],
      [
        "ियाँ",
        -10.109145640773349
      ],
      [
        "interested",
        -10.109908413414558
      ],
      [
        "pain",
        -10.110074539574574
      ],
      [
        "construction",
        -10.110096147192793
      ],
      [
        "दिवस",
        -10.111025078159225
      ],
      [
        "demand",
        -10.111025580739891
      ],
      [
        "ling",
        -10.112156308851382
      ],
      [
        "stone",
        -10.113137841589635
      ],
      [
        "बीमारी",
        -10.113222654527943
      ],
      [
        "जनसंख्या",
        -10.113548797168109
      ],
      [
        "क्रिया",
        -10.114737606343123
      ],
      [
        "सतह",
        -10.115525612761507
      ],
      [
        "गुजरात",
        -10.115539560772168
      ],
      [
        "ley",
        -10.115825254458544
      ],
      [
        "pportunities",
        -10.116032318770968
      ],
      [
        "खोजने",
        -10.116591395972655
      ],
      [
        "sites",
        -10.116774403175674
      ],
      [
        "हमारा",
        -10.116964585260808
      ],
      [
        "|",
        -10.117304555519299
      ],
      [
        "Are",
        -10.117393189045853
      ],
      [
        "President",
        -10.117662156578849
      ],
      [
        "इनके",
        -10.118204229011935
      ],
      [
        "ाते",
        -10.11894979063774
      ],
      [
        "मिलेगा",
        -10.11935020870361
      ],
      [
        "वेब",
        -10.121128894686098
      ],
      [
        "became",
        -10.122212626678605
      ],
      [
        "रहें",
        -10.122421038378834
      ],
      [
        "cash",
        -10.122901557865779
      ],
      [
        "expected",
        -10.124019101860883
      ],
      [
        "रानी",
        -10.124396149486458
      ],
      [
        "businesses",
        -10.12484740562625
      ],
      [
        "सच",
        -10.12529473249822
      ],
      [
        "obtain",
        -10.125295389085089
      ],
      [
        "shop",
        -10.125739196078632
      ],
      [
        "अदालत",
        -10.12584058049174
      ],
      [
        "Facebook",
        -10.125914554663774
      ],
      [
        "Black",
        -10.125968762774825
      ],
      [
        "2005",
        -10.126321399758828
      ],
      [
        "पंचायत",
        -10.126332026727937
      ],
      [
        "मृत्यु",
        -10.127133431222077
      ],
      [
        "इंग्लैंड",
        -10.128171544280177
      ],
      [
        "court",
        -10.128222894256249
      ],
      [
        "agree",
        -10.12972199458343
      ],
      [
        "सत्र",
        -10.130040983557212
      ],
      [
        "Code",
        -10.130101695093316
      ],
      [
        "pro",
        -10.130254032459044
      ],
      [
        "्ड",
        -10.130474356300354
      ],
      [
        "पुरस्कार",
        -10.130862739095473
      ],
      [
        "स्वामी",
        -10.130923025430738
      ],
      [
        "happen",
        -10.131049609805082
      ],
      [
        "चीज",
        -10.131123179239562
      ],
      [
        "वहि",
        -10.13160626286643
      ],
      [
        "गठन",
        -10.13184022265945
      ],
      [
        "regular",
        -10.132084020206268
      ],
      [
        "wear",
        -10.132186717417124
      ],
      [
        "applications",
        -10.132487776336072
      ],
      [
        "लखनऊ",
        -10.13265876316962
      ],
      [
        "रचना",
        -10.132678903618121
      ],
      [
        "गेंदबाज",
        -10.133295665760114
      ],
      [
        "आखिर",
        -10.13358130270287
      ],
      [
        "उम्मीदवार",
        -10.133826128472318
      ],
      [
        "चलत",
        -10.133931039678183
      ],
      [
        "पाने",
        -10.13408834196854
      ],
      [
        "vehicle",
        -10.134109730329401
      ],
      [
        "विवाद",
        -10.134260474725405
      ],
      [
        "budget",
        -10.13439574430991
      ],
      [
        "growing",
        -10.134563200621859
      ],
      [
        "विदेशी",
        -10.13460885611492
      ],
      [
        "political",
        -10.135211362537708
      ],
      [
        "activity",
        -10.135707142954232
      ],
      [
        "friendly",
        -10.13571455213705
      ],
      [
        "संस्कृति",
        -10.137003264962495
      ],
      [
        "जु",
        -10.137008669631653
      ],
      [
        "संघर्ष",
        -10.137485042369061
      ],
      [
        "१६",
        -10.137920786301589
      ],
      [
        "कमांड",
        -10.137977388424845
      ],
      [
        "sent",
        -10.138544583665464
      ],
      [
        "बेटे",
        -10.138932696616427
      ],
      [
        "पारी",
        -10.1396589618536
      ],
      [
        "निगम",
        -10.139787527865696
      ],
      [
        "करो",
        -10.140051024243437
      ],
      [
        "storage",
        -10.140277330774474
      ],
      [
        "note",
        -10.140281780266863
      ],
      [
        "सुना",
        -10.141021728737304
      ],
      [
        "Christmas",
        -10.141775619621297
      ],
      [
        "Air",
        -10.141940765373132
      ],
      [
        "Each",
        -10.142278501023819
      ],
      [
        "150",
        -10.142294623829136
      ],
      [
        "function",
        -10.142767503668146
      ],
      [
        "death",
        -10.14277380340733
      ],
      [
        "match",
        -10.1427832588953
      ],
      [
        "investment",
        -10.142988964941784
      ],
      [
        "January",
        -10.143283924596147
      ],
      [
        "ंग",
        -10.143603092114201
      ],
      [
        "blood",
        -10.144506764564456
      ],
      [
        "वीर",
        -10.145762355935638
      ],
      [
        "definitely",
        -10.145969070901385
      ],
      [
        "Friday",
        -10.146001221704912
      ],
      [
        "wrong",
        -10.146718465975953
      ],
      [
        "विशेषता",
        -10.147280208518817
      ],
      [
        "विस्तृत",
        -10.147933736096098
      ],
      [
        "किलोमीटर",
        -10.148573684981429
      ],
      [
        "figure",
        -10.148816658773722
      ],
      [
        "कृष्ण",
        -10.14910410775684
      ],
      [
        "published",
        -10.149523738831185
      ],
      [
        "जरिए",
        -10.150323690314856
      ],
      [
        "अल",
        -10.151646006997158
      ],
      [
        "राजनीति",
        -10.151759457935611
      ],
      [
        "दूध",
        -10.15177859775996
      ],
      [
        "ex",
        -10.151967745952605
      ],
      [
        "guide",
        -10.152490831574164
      ],
      [
        "anti",
        -10.152692004403676
      ],
      [
        "October",
        -10.152910097358378
      ],
      [
        "करनी",
        -10.153629457346508
      ],
      [
        "understanding",
        -10.153718469866194
      ],
      [
        "Best",
        -10.154290318670942
      ],
      [
        "मोका",
        -10.154364769386492
      ],
      [
        "annual",
        -10.154767662464405
      ],
      [
        "firm",
        -10.15478758626843
      ],
      [
        "ones",
        -10.155031355558824
      ],
      [
        "fair",
        -10.15610791552455
      ],
      [
        "गोल",
        -10.156116927599422
      ],
      [
        "संपत्ति",
        -10.15613450583113
      ],
      [
        "considered",
        -10.15693607343402
      ],
      [
        "चुनौती",
        -10.157302132967615
      ],
      [
        "Well",
        -10.157342171536326
      ],
      [
        "entry",
        -10.157614954246714
      ],
      [
        "gift",
        -10.157983727589851
      ],
      [
        "starting",
        -10.158181209737384
      ],
      [
        "ईमेल",
        -10.158261727694365
      ],
      [
        "वरिष्ठ",
        -10.158321744691257
      ],
      [
        "carry",
        -10.158417097089693
      ],
      [
        "!!",
        -10.158615009453202
      ],
      [
        "व्याख्या",
        -10.15879412902792
      ],
      [
        "कार्यों",
        -10.158813966489058
      ],
      [
        "लेता",
        -10.159558063365736
      ],
      [
        "September",
        -10.16047977709897
      ],
      [
        "culture",
        -10.160666352634863
      ],
      [
        "किनारे",
        -10.16084574920686
      ],
      [
        "९",
        -10.160927231016784
      ],
      [
        "July",
        -10.16158649019761
      ],
      [
        "भेद",
        -10.161971529666017
      ],
      [
        "पेट",
        -10.162111926801147
      ],
      [
        "2008",
        -10.162198003260956
      ],
      [
        "hotel",
        -10.162601973973953
      ],
      [
        "ग्रहण",
        -10.163060551856825
      ],
      [
        "बतात",
        -10.163527483162145
      ],
      [
        "campaign",
        -10.163967319068421
      ],
      [
        "भेजा",
        -10.165123084755525
      ],
      [
        "सुझाव",
        -10.166739273142186
      ],
      [
        "फूल",
        -10.166918653389653
      ],
      [
        "महाराष्ट्र",
        -10.16710054650285
      ],
      [
        "कौशल",
        -10.167794910007059
      ],
      [
        "कल्पना",
        -10.168609671813577
      ],
      [
        "न्यूनतम",
        -10.168610874070682
      ],
      [
        "relationship",
        -10.16894840109351
      ],
      [
        "dog",
        -10.169383266437773
      ],
      [
        "Business",
        -10.16944073456937
      ],
      [
        "li",
        -10.169580327582032
      ],
      [
        "कवि",
        -10.170637684177963
      ],
      [
        "individuals",
        -10.17077487005525
      ],
      [
        "इलाके",
        -10.170948048719984
      ],
      [
        "यूनिवर्सिटी",
        -10.171407834737218
      ],
      [
        "घंटा",
        -10.172659037646396
      ],
      [
        "हरियाणा",
        -10.172906598791014
      ],
      [
        "धार्मिक",
        -10.173068138683252
      ],
      [
        "तनाव",
        -10.173618344378026
      ],
      [
        "निर्भर",
        -10.173836660236754
      ],
      [
        "पु",
        -10.174108390601416
      ],
      [
        "आधुनिक",
        -10.174226521426915
      ],
      [
        "repair",
        -10.174459771057675
      ],
      [
        "Department",
        -10.174627830427122
      ],
      [
        "La",
        -10.174979664335277
      ],
      [
        "felt",
        -10.176133447230832
      ],
      [
        "exactly",
        -10.176738278814677
      ],
      [
        "टन",
        -10.177106339187027
      ],
      [
        "बढ़ावा",
        -10.177358276942941
      ],
      [
        "क्",
        -10.177788871393457
      ],
      [
        "चरित्र",
        -10.177811949035444
      ],
      [
        "लौट",
        -10.178060615170203
      ],
      [
        "चित्र",
        -10.178503656864434
      ],
      [
        "Inc",
        -10.178547776101546
      ],
      [
        "शिक्षक",
        -10.178686565327821
      ],
      [
        "dry",
        -10.178752622247075
      ],
      [
        "difference",
        -10.180109937934727
      ],
      [
        "ful",
        -10.180381485218323
      ],
      [
        "त्व",
        -10.180415820445821
      ],
      [
        "places",
        -10.18204952317
      ],
      [
        "लाइब्रेरी",
        -10.182357415093504
      ],
      [
        "hands",
        -10.182680178620885
      ],
      [
        "effort",
        -10.183391196077205
      ],
      [
        "कितनी",
        -10.183928767174432
      ],
      [
        "cross",
        -10.18408809377229
      ],
      [
        "star",
        -10.184584861544936
      ],
      [
        "पैसे",
        -10.185371525726731
      ],
      [
        "विवाह",
        -10.185400405555288
      ],
      [
        "स्थल",
        -10.185851938663067
      ],
      [
        "message",
        -10.185889975745097
      ],
      [
        "रूसी",
        -10.186063805076106
      ],
      [
        "gas",
        -10.186297173989312
      ],
      [
        "43",
        -10.18696113487934
      ],
      [
        "डाल",
        -10.187098870529804
      ],
      [
        "सितंबर",
        -10.187825463645476
      ],
      [
        "३०",
        -10.188262427618028
      ],
      [
        "rich",
        -10.18861837913753
      ],
      [
        "act",
        -10.189319403979884
      ],
      [
        "finding",
        -10.189411737024887
      ],
      [
        "बनाकर",
        -10.189504731531011
      ],
      [
        "आंदोलन",
        -10.189555116581708
      ],
      [
        "बहु",
        -10.189835386260171
      ],
      [
        "पूछा",
        -10.189973694135118
      ],
      [
        "जिन्हें",
        -10.189973751935764
      ],
      [
        "तना",
        -10.190066874888021
      ],
      [
        "mail",
        -10.19037034376725
      ],
      [
        "वातावरण",
        -10.19067669874296
      ],
      [
        "गर्म",
        -10.190939624976297
      ],
      [
        "THE",
        -10.191857499544916
      ],
      [
        "condition",
        -10.192409344112372
      ],
      [
        "surface",
        -10.192581698640005
      ],
      [
        "ball",
        -10.193105151020951
      ],
      [
        "लिंक",
        -10.194354179004947
      ],
      [
        "अइस",
        -10.194433252527599
      ],
      [
        "challenge",
        -10.194836306778914
      ],
      [
        "टिकट",
        -10.194961455112693
      ],
      [
        "लौटा",
        -10.195025976619196
      ],
      [
        "weekend",
        -10.195732765544172
      ],
      [
        "दर्द",
        -10.1958999124981
      ],
      [
        "unit",
        -10.195936177081604
      ],
      [
        "वैज्ञानिक",
        -10.19638522915366
      ],
      [
        "लक्षण",
        -10.196967635163421
      ],
      [
        "बाइक",
        -10.197056884418702
      ],
      [
        "उपयुक्त",
        -10.197137277083948
      ],
      [
        "बरे",
        -10.197217837160853
      ],
      [
        "sea",
        -10.197708494374226
      ],
      [
        "01",
        -10.197925827696801
      ],
      [
        "बच्चन",
        -10.198212021874223
      ],
      [
        "उपस्थित",
        -10.198369925794612
      ],
      [
        "गुणवत्ता",
        -10.198496822683252
      ],
      [
        "ID",
        -10.198688096891335
      ],
      [
        "संग्रह",
        -10.199364936494682
      ],
      [
        "निष्कर्ष",
        -10.199515575050484
      ],
      [
        "यों",
        -10.19986368014969
      ],
      [
        "अधिकांश",
        -10.199927579305166
      ],
      [
        "remain",
        -10.200263411501085
      ],
      [
        "वर्ल्ड",
        -10.201523443475502
      ],
      [
        "मंडल",
        -10.201607329584656
      ],
      [
        "38",
        -10.201906717848402
      ],
      [
        "बिल्कुल",
        -10.202282819456805
      ],
      [
        "सेवन",
        -10.20281282316121
      ],
      [
        "concern",
        -10.202878512176865
      ],
      [
        "ऑस्ट्रेलिया",
        -10.203299863343053
      ],
      [
        "met",
        -10.203419673116855
      ],
      [
        "सीजन",
        -10.203944430437694
      ],
      [
        "Her",
        -10.20395966763962
      ],
      [
        "prior",
        -10.20421562353893
      ],
      [
        "charge",
        -10.204222346436126
      ],
      [
        "गेम",
        -10.204321221489689
      ],
      [
        "हरा",
        -10.2043316927766
      ],
      [
        "uk",
        -10.204437910295404
      ],
      [
        "economic",
        -10.204882178541522
      ],
      [
        "ter",
        -10.205179903867991
      ],
      [
        "योगी",
        -10.205436242132789
      ],
      [
        "लॉन्च",
        -10.205486433599377
      ],
      [
        "मूल्यांकन",
        -10.205490360947989
      ],
      [
        "मगर",
        -10.20557915922864
      ],
      [
        "पात्र",
        -10.205866955874377
      ],
      [
        "प्रमाण",
        -10.20591349155396
      ],
      [
        "लिंग",
        -10.206099581489775
      ],
      [
        "शब्दों",
        -10.20622451023034
      ],
      [
        "एक्ट्रेस",
        -10.207417705884689
      ],
      [
        "नवंबर",
        -10.207953810495319
      ],
      [
        "Make",
        -10.208027423982099
      ],
      [
        "स्त्री",
        -10.208413805452397
      ],
      [
        "loved",
        -10.208683005216054
      ],
      [
        "अनुकूल",
        -10.208898660707973
      ],
      [
        "essential",
        -10.208971951886037
      ],
      [
        "Design",
        -10.209297562778346
      ],
      [
        "California",
        -10.209784083906637
      ],
      [
        "See",
        -10.210052777774933
      ],
      [
        "सारी",
        -10.210422523865216
      ],
      [
        "glass",
        -10.210727669844513
      ],
      [
        "internet",
        -10.210933946634862
      ],
      [
        "award",
        -10.211095877955147
      ],
      [
        "होटल",
        -10.211321524526562
      ],
      [
        "pass",
        -10.211811329050779
      ],
      [
        "सकें",
        -10.21184732681606
      ],
      [
        "बॉक्स",
        -10.21222950969873
      ],
      [
        "rights",
        -10.212330251288213
      ],
      [
        "छूट",
        -10.21333497428076
      ],
      [
        "आत्म",
        -10.213354094131784
      ],
      [
        "bank",
        -10.213511421730464
      ],
      [
        "मिलती",
        -10.21390459671529
      ],
      [
        "फैंस",
        -10.214157836327788
      ],
      [
        "sell",
        -10.214256394147954
      ],
      [
        "मइँ",
        -10.215024094729266
      ],
      [
        "goals",
        -10.215303723197833
      ],
      [
        "install",
        -10.21546782728
      ],
      [
        "सुपर",
        -10.215677351674021
      ],
      [
        "ideal",
        -10.215854490205365
      ],
      [
        "assist",
        -10.216600577376907
      ],
      [
        "खूब",
        -10.216922703361943
      ],
      [
        "लड़ाई",
        -10.216935871012149
      ],
      [
        "Dur",
        -10.217105689507665
      ],
      [
        "खड़ा",
        -10.21767073190484
      ],
      [
        "August",
        -10.218338112303385
      ],
      [
        "फिलहाल",
        -10.218474408532566
      ],
      [
        "मेडिकल",
        -10.218554299028385
      ],
      [
        "direct",
        -10.219036990657518
      ],
      [
        "December",
        -10.219967166593664
      ],
      [
        "Man",
        -10.220016579501644
      ],
      [
        "बिक्री",
        -10.22052224883335
      ],
      [
        "रहत",
        -10.220693290163945
      ],
      [
        "समुदाय",
        -10.221039773403211
      ],
      [
        "serve",
        -10.221073345403578
      ],
      [
        "हां",
        -10.221677296371201
      ],
      [
        "super",
        -10.222424732782798
      ],
      [
        "Services",
        -10.222704996121536
      ],
      [
        "setting",
        -10.222960385067498
      ],
      [
        "Sunday",
        -10.22309357114708
      ],
      [
        "सारा",
        -10.223450030055995
      ],
      [
        "experienced",
        -10.223934384432063
      ],
      [
        "करेगी",
        -10.224049168900846
      ],
      [
        "mid",
        -10.22431351106813
      ],
      [
        "रखी",
        -10.224965255117796
      ],
      [
        "asier",
        -10.22498531439525
      ],
      [
        "lines",
        -10.22593504483899
      ],
      [
        "degree",
        -10.22685228014793
      ],
      [
        "स्रोत",
        -10.227089665018907
      ],
      [
        "बरामद",
        -10.227865441762745
      ],
      [
        "परिवहन",
        -10.228936962479336
      ],
      [
        "मालिक",
        -10.229222661261046
      ],
      [
        "न्यू",
        -10.229555865344642
      ],
      [
        "suggest",
        -10.229608438250956
      ],
      [
        "player",
        -10.229784758174567
      ],
      [
        "मनई",
        -10.229889818900613
      ],
      [
        "ha",
        -10.229997985017329
      ],
      [
        "Company",
        -10.230697010086311
      ],
      [
        "rates",
        -10.231575369794632
      ],
      [
        "pull",
        -10.232696483936065
      ],
      [
        "गु",
        -10.23315364257732
      ],
      [
        "Add",
        -10.233311308305424
      ],
      [
        "ance",
        -10.233420914857685
      ],
      [
        "करियर",
        -10.23432963376394
      ],
      [
        "double",
        -10.23503513348753
      ],
      [
        "गुणा",
        -10.235312018435748
      ],
      [
        "भवन",
        -10.236650530643336
      ],
      [
        "बंगाल",
        -10.238038916084186
      ],
      [
        "Good",
        -10.238137898309358
      ],
      [
        "Today",
        -10.238192776611813
      ],
      [
        "पुष्टि",
        -10.23832834172795
      ],
      [
        "supply",
        -10.238628905030902
      ],
      [
        "मिशन",
        -10.238638211347364
      ],
      [
        "selection",
        -10.239034053058607
      ],
      [
        "वेद",
        -10.239164419115404
      ],
      [
        "Bar",
        -10.239999261155761
      ],
      [
        "patient",
        -10.240342026367083
      ],
      [
        "£",
        -10.240426060022859
      ],
      [
        "encourage",
        -10.241179131946415
      ],
      [
        "विदेश",
        -10.24135089423526
      ],
      [
        "निकायों",
        -10.241905469727174
      ],
      [
        "शांति",
        -10.24196339811917
      ],
      [
        "Me",
        -10.242291789595386
      ],
      [
        "path",
        -10.24278838387847
      ],
      [
        "advice",
        -10.243324475820298
      ],
      [
        "effects",
        -10.24339704790114
      ],
      [
        "काव्य",
        -10.243803701754025
      ],
      [
        "released",
        -10.24397004129549
      ],
      [
        "अतः",
        -10.24422231198461
      ],
      [
        "आखिरी",
        -10.24464564332688
      ],
      [
        "मौजूदा",
        -10.244840653193327
      ],
      [
        "आवाज",
        -10.244943179086999
      ],
      [
        "Car",
        -10.245274298919012
      ],
      [
        "ऊंचाई",
        -10.24533549943931
      ],
      [
        "सन्",
        -10.245396377611744
      ],
      [
        "November",
        -10.245551140383428
      ],
      [
        "आयु",
        -10.246780298842923
      ],
      [
        "सीमित",
        -10.247119858250192
      ],
      [
        "families",
        -10.247787647513432
      ],
      [
        "College",
        -10.24846154554986
      ],
      [
        "पैर",
        -10.249044128660454
      ],
      [
        "European",
        -10.249933652788004
      ],
      [
        "ब्रह्म",
        -10.250294493023558
      ],
      [
        "Although",
        -10.250937053192581
      ],
      [
        "pages",
        -10.251034028634514
      ],
      [
        "गुना",
        -10.251719169465922
      ],
      [
        "जानवर",
        -10.25208702073606
      ],
      [
        "Click",
        -10.252235292877762
      ],
      [
        "इंतजार",
        -10.252613207895827
      ],
      [
        "छोटा",
        -10.252737071679668
      ],
      [
        "आधिकारिक",
        -10.25283816169808
      ],
      [
        "संस्थान",
        -10.253709486769033
      ],
      [
        "न्",
        -10.253784787359454
      ],
      [
        "Saturday",
        -10.253963977283167
      ],
      [
        "):",
        -10.25419648434467
      ],
      [
        "राहत",
        -10.2544760217296
      ],
      [
        "claim",
        -10.25492200532113
      ],
      [
        "existing",
        -10.255388157572149
      ],
      [
        "वापसी",
        -10.25550818149818
      ],
      [
        "ादि",
        -10.255768228196764
      ],
      [
        "feet",
        -10.255859002636972
      ],
      [
        "हु",
        -10.256123708991009
      ],
      [
        "basic",
        -10.256616599897425
      ],
      [
        "efficient",
        -10.2567807238184
      ],
      [
        "custom",
        -10.256870063653448
      ],
      [
        "Green",
        -10.256920297685987
      ],
      [
        "East",
        -10.257099311604666
      ],
      [
        "mother",
        -10.257762468335597
      ],
      [
        "वांछित",
        -10.257801259422777
      ],
      [
        "तीनों",
        -10.258005983986186
      ],
      [
        "प्राथमिक",
        -10.2580133959118
      ],
      [
        "plus",
        -10.258607272456839
      ],
      [
        "पार्क",
        -10.2588495791221
      ],
      [
        "आनंद",
        -10.259429920935196
      ],
      [
        "डो",
        -10.259502843469742
      ],
      [
        "गोली",
        -10.25958153864415
      ],
      [
        "चली",
        -10.260511404633071
      ],
      [
        "अधिनियम",
        -10.260556973272255
      ],
      [
        "blue",
        -10.260780503863304
      ],
      [
        "व्यवसाय",
        -10.260796894703942
      ],
      [
        "तंत्र",
        -10.261324109038156
      ],
      [
        "initial",
        -10.261439913074067
      ],
      [
        "संसार",
        -10.261759337103168
      ],
      [
        "ke",
        -10.262210909051364
      ],
      [
        "gave",
        -10.262241452002332
      ],
      [
        "लाने",
        -10.263121390177442
      ],
      [
        "associated",
        -10.263328951814639
      ],
      [
        "played",
        -10.26340345108295
      ],
      [
        "आये",
        -10.263490131606535
      ],
      [
        "certainly",
        -10.263739730539514
      ],
      [
        "basis",
        -10.263981385420996
      ],
      [
        "beginning",
        -10.264042528945973
      ],
      [
        "बोल",
        -10.264217988264837
      ],
      [
        "95",
        -10.26445117310087
      ],
      [
        "devices",
        -10.265405324480916
      ],
      [
        "माह",
        -10.265607840867021
      ],
      [
        "reported",
        -10.265700851393632
      ],
      [
        "fish",
        -10.266663256493896
      ],
      [
        "respect",
        -10.267377220613689
      ],
      [
        "PC",
        -10.268143769518153
      ],
      [
        "करी",
        -10.268834180183928
      ],
      [
        "टाइम",
        -10.268956765137768
      ],
      [
        "lots",
        -10.269225175977038
      ],
      [
        "delivery",
        -10.269447785613863
      ],
      [
        "Hindi",
        -10.269755819716403
      ],
      [
        "संचार",
        -10.269947174287932
      ],
      [
        "soft",
        -10.270989289296605
      ],
      [
        "वित्तीय",
        -10.271008195024667
      ],
      [
        "र्",
        -10.27147276900792
      ],
      [
        "science",
        -10.271673882764201
      ],
      [
        "weather",
        -10.272652525413198
      ],
      [
        "मॉड्यूल",
        -10.272726243419866
      ],
      [
        "पुराने",
        -10.272889064070254
      ],
      [
        "टाइप",
        -10.273110540441445
      ],
      [
        "प्रचार",
        -10.273120946943571
      ],
      [
        "परमाणु",
        -10.273512729468575
      ],
      [
        "Red",
        -10.274060253177261
      ],
      [
        "सामान",
        -10.27414798970377
      ],
      [
        "लगाए",
        -10.27438608957935
      ],
      [
        "एकै",
        -10.274421516247054
      ],
      [
        "माल",
        -10.274471568131132
      ],
      [
        "trust",
        -10.274778718551106
      ],
      [
        "लोकसभा",
        -10.275062253146341
      ],
      [
        "बैठे",
        -10.275295272875939
      ],
      [
        "spent",
        -10.27557904960765
      ],
      [
        "”.",
        -10.275811183765414
      ],
      [
        "Check",
        -10.276753497190118
      ],
      [
        "pm",
        -10.277043105121905
      ],
      [
        "band",
        -10.277142610966175
      ],
      [
        "ice",
        -10.277765751750906
      ],
      [
        "बहन",
        -10.278164276619556
      ],
      [
        "wedding",
        -10.278182599556647
      ],
      [
        "interview",
        -10.278306977154491
      ],
      [
        "सुन",
        -10.278337199936395
      ],
      [
        "58",
        -10.278874586771938
      ],
      [
        "बनाना",
        -10.279176203039585
      ],
      [
        "finish",
        -10.279228322764965
      ],
      [
        "आबादी",
        -10.279442265785018
      ],
      [
        "largest",
        -10.280596178021081
      ],
      [
        "जोड़त",
        -10.280751841744163
      ],
      [
        "ढ",
        -10.281183207544602
      ],
      [
        "वित्त",
        -10.28136343671257
      ],
      [
        "dark",
        -10.281755864079502
      ],
      [
        "मिलकर",
        -10.282137766643707
      ],
      [
        "मिलाकर",
        -10.282234963500969
      ],
      [
        "जुड़ा",
        -10.282512285210098
      ],
      [
        "रिया",
        -10.282931814528288
      ],
      [
        "विशाल",
        -10.2831946979881
      ],
      [
        "समग्र",
        -10.28366988478491
      ],
      [
        "payment",
        -10.283732149307061
      ],
      [
        "संरक्षण",
        -10.284278836275691
      ],
      [
        "सागर",
        -10.284327084214631
      ],
      [
        "सिटी",
        -10.284760522906483
      ],
      [
        "हित",
        -10.285266447732413
      ],
      [
        "beyond",
        -10.285780450205317
      ],
      [
        "सार",
        -10.28592136384262
      ],
      [
        "structure",
        -10.286474516673058
      ],
      [
        "length",
        -10.286585886798951
      ],
      [
        "regarding",
        -10.286860753098656
      ],
      [
        "माँ",
        -10.287120525694661
      ],
      [
        "normal",
        -10.287661571662822
      ],
      [
        "कमरे",
        -10.287770697229096
      ],
      [
        "वां",
        -10.288411591553256
      ],
      [
        "ring",
        -10.288653520806642
      ],
      [
        "समाचार",
        -10.289186841528279
      ],
      [
        "baby",
        -10.28937290808591
      ],
      [
        "ट्विटर",
        -10.28946158475737
      ],
      [
        "पहुंची",
        -10.289624356544994
      ],
      [
        "ब्लॉक",
        -10.289767705104229
      ],
      [
        "पहिला",
        -10.289998353558207
      ],
      [
        "tried",
        -10.290086155718802
      ],
      [
        "चोट",
        -10.290311696551463
      ],
      [
        "guarantee",
        -10.290573746590987
      ],
      [
        "temperature",
        -10.290675869343232
      ],
      [
        "heard",
        -10.291011413297417
      ],
      [
        "Street",
        -10.29102839854876
      ],
      [
        "truly",
        -10.29189584411463
      ],
      [
        "Up",
        -10.291948093303477
      ],
      [
        "लोकप्रिय",
        -10.292343951896026
      ],
      [
        "पाप",
        -10.292710806883493
      ],
      [
        "अरब",
        -10.292994817596282
      ],
      [
        "अभ्यास",
        -10.293017750714158
      ],
      [
        "शास्त्र",
        -10.293523742515811
      ],
      [
        "आवत",
        -10.293603586968553
      ],
      [
        "ier",
        -10.293760604067637
      ],
      [
        "print",
        -10.293781111486378
      ],
      [
        "खड़े",
        -10.294552412827509
      ],
      [
        "न्याय",
        -10.295368644129207
      ],
      [
        "overall",
        -10.29578730610696
      ],
      [
        "race",
        -10.296215852375441
      ],
      [
        "अली",
        -10.296497823904788
      ],
      [
        "अभिव्यक्ति",
        -10.296599093839145
      ],
      [
        "उपस्थिति",
        -10.296781469029932
      ],
      [
        "लीजिए",
        -10.297007152265108
      ],
      [
        "नियंत्रित",
        -10.297476678099873
      ],
      [
        "देंगे",
        -10.297539327912427
      ],
      [
        "कोशिका",
        -10.298002080461993
      ],
      [
        "केंद्रित",
        -10.298054252881082
      ],
      [
        "sector",
        -10.298212023632292
      ],
      [
        "जिनका",
        -10.298783265543515
      ],
      [
        "protection",
        -10.298860340251675
      ],
      [
        "useful",
        -10.298872983883912
      ],
      [
        "निक",
        -10.299120102892966
      ],
      [
        "Board",
        -10.299253486230159
      ],
      [
        "technical",
        -10.299321767214819
      ],
      [
        "attempt",
        -10.299978992815923
      ],
      [
        "gold",
        -10.300216046461868
      ],
      [
        "handle",
        -10.300268512660377
      ],
      [
        "fail",
        -10.300428977982401
      ],
      [
        "coffee",
        -10.301257238772953
      ],
      [
        "उपाय",
        -10.301427835832213
      ],
      [
        "warm",
        -10.301659634723391
      ],
      [
        "increasing",
        -10.301881060004556
      ],
      [
        "ka",
        -10.301924985169848
      ],
      [
        "फिल्मों",
        -10.302013975736726
      ],
      [
        "जुड़ी",
        -10.302556370491066
      ],
      [
        "चैनल",
        -10.302804941242684
      ],
      [
        "creative",
        -10.30302411560846
      ],
      [
        "appropriate",
        -10.303606280999853
      ],
      [
        "2000",
        -10.303651720821525
      ],
      [
        "wasn",
        -10.304090767482775
      ],
      [
        "character",
        -10.304111557094876
      ],
      [
        "wine",
        -10.304967835731366
      ],
      [
[...]
